#include "nn1_data.h"

ai_handle ai_nn1_data_weights_get(void) {

    AI_ALIGNED(4)
    static const ai_u8 s_nn1_weights[15440] = {
            0x07, 0x88, 0x68, 0x41, 0x11, 0x00, 0xf4, 0x3c, 0x49, 0xa9,
            0x06, 0x3d, 0x99, 0x56, 0xd6, 0x3c, 0x8a, 0xd4, 0xa1, 0x3c,
            0xf9, 0x3e, 0x73, 0x3c, 0xcc, 0xa3, 0xa3, 0x3e, 0xca, 0xb6,
            0x13, 0x3f, 0xc0, 0xec, 0x5e, 0xc1, 0x4c, 0xc6, 0x03, 0xc2,
            0xae, 0xd4, 0xf7, 0xc1, 0x34, 0xf5, 0xae, 0xc1, 0xac, 0x24,
            0xd9, 0xc1, 0x35, 0xa0, 0x70, 0xc1, 0x4f, 0x77, 0x84, 0xc1,
            0x82, 0x16, 0x2a, 0xc1, 0xdf, 0x56, 0x14, 0xbc, 0x02, 0x06,
            0xa4, 0x3c, 0x97, 0x0e, 0xc1, 0x3d, 0x8e, 0x8b, 0x54, 0x3b,
            0xfa, 0x82, 0xc4, 0xbc, 0xa3, 0xe8, 0x41, 0xbd, 0xf8, 0x51,
            0x31, 0xbb, 0x74, 0xda, 0x99, 0x3b, 0x8e, 0x3f, 0x23, 0x3d,
            0x90, 0xe0, 0x5c, 0xbb, 0x87, 0x19, 0x8c, 0x3d, 0xe4, 0xa6,
            0x06, 0x3b, 0x08, 0xa9, 0xfc, 0xbc, 0x99, 0x9b, 0xe9, 0xbc,
            0x5e, 0x26, 0x95, 0xbc, 0xf6, 0xec, 0xd3, 0xbb, 0x6f, 0x98,
            0x6b, 0x3d, 0x39, 0x16, 0x90, 0xbd, 0xb6, 0x1d, 0x84, 0x3c,
            0x58, 0xfb, 0xb4, 0x3b, 0x55, 0x9d, 0x16, 0xbb, 0x79, 0x7b,
            0x8b, 0x3d, 0xd6, 0x88, 0xbe, 0x3c, 0x72, 0x2e, 0x0f, 0x3d,
            0xcc, 0xc6, 0x19, 0xbd, 0x63, 0x02, 0xb5, 0xbd, 0x23, 0x81,
            0x6d, 0x3c, 0xb2, 0xea, 0xe7, 0xbb, 0xa9, 0x98, 0x72, 0x3d,
            0xf7, 0xcb, 0x47, 0x3d, 0x14, 0x5f, 0xa5, 0xbc, 0x4c, 0x33,
            0x93, 0xbc, 0x55, 0x8d, 0xaa, 0xbd, 0x78, 0xae, 0x86, 0x3c,
            0x2d, 0x37, 0xab, 0xbd, 0xa0, 0xd8, 0x91, 0xbc, 0xe8, 0x56,
            0x17, 0x3e, 0x09, 0x8d, 0xff, 0xbc, 0xae, 0xcb, 0x92, 0xbc,
            0xc9, 0xe2, 0x81, 0x3c, 0xbf, 0x77, 0x01, 0x3e, 0x11, 0xdd,
            0x80, 0x3d, 0xd2, 0x2b, 0x3b, 0x3d, 0xff, 0xb8, 0x81, 0xbc,
            0x8b, 0x91, 0x06, 0xbe, 0x9d, 0x67, 0x40, 0xbd, 0x67, 0xea,
            0xef, 0xbb, 0x7c, 0xd3, 0xf0, 0xbc, 0x99, 0xeb, 0x90, 0x3d,
            0x58, 0xdd, 0x07, 0xb7, 0xb7, 0xaa, 0x12, 0x3d, 0x98, 0x32,
            0x0c, 0xbc, 0x45, 0xcc, 0xb1, 0xbd, 0xa2, 0x47, 0x4a, 0x3d,
            0xe5, 0x22, 0xfa, 0x3b, 0x41, 0xa0, 0x12, 0xbd, 0x72, 0x5a,
            0x81, 0xbc, 0x82, 0x38, 0xf3, 0xbd, 0x04, 0xb5, 0x07, 0x3e,
            0x52, 0x09, 0x72, 0x3c, 0x63, 0x2f, 0xb5, 0xbc, 0x48, 0x19,
            0xe9, 0x3b, 0x78, 0x7a, 0x0c, 0x3c, 0x2a, 0x47, 0x10, 0xbd,
            0xb3, 0x33, 0xaa, 0x3d, 0xfa, 0x40, 0x0f, 0xbc, 0x7a, 0xed,
            0x18, 0x3d, 0xdd, 0xcf, 0x46, 0x3b, 0x98, 0x6f, 0xee, 0xbc,
            0xdd, 0xb7, 0xb2, 0xbc, 0x86, 0x64, 0x00, 0x3d, 0x74, 0x42,
            0xbc, 0x3b, 0xc8, 0xed, 0xcf, 0xbb, 0x1f, 0xc3, 0xb6, 0xbd,
            0xd6, 0x9e, 0xd4, 0xbb, 0x52, 0x64, 0xcb, 0x3c, 0x62, 0x48,
            0x53, 0x3a, 0xd0, 0x7f, 0x89, 0x3d, 0xef, 0xff, 0x2a, 0xbc,
            0xd7, 0x6b, 0xda, 0x3b, 0x73, 0x41, 0x01, 0x3d, 0xeb, 0x21,
            0x0e, 0x3e, 0xb3, 0xdd, 0xa8, 0x3d, 0xb0, 0xeb, 0xc3, 0x3d,
            0x73, 0xe2, 0xef, 0xbd, 0x11, 0x3b, 0x56, 0xbd, 0x08, 0x05,
            0x00, 0xbd, 0xa6, 0x56, 0xf5, 0x3d, 0x2e, 0xe0, 0x59, 0xbc,
            0x90, 0x6e, 0x4c, 0x3d, 0x02, 0xcb, 0x9c, 0xbc, 0x07, 0x0e,
            0x2d, 0x3d, 0xc9, 0xe4, 0xfb, 0xbc, 0xf0, 0x2d, 0x8e, 0x3d,
            0x1b, 0x33, 0xb1, 0x3c, 0x9d, 0x1c, 0xda, 0x3c, 0x7d, 0x7d,
            0xa5, 0xbc, 0xe7, 0x95, 0xfd, 0xbc, 0xd5, 0x2e, 0x09, 0x3d,
            0x27, 0x85, 0xce, 0x3b, 0xf9, 0xfe, 0xa6, 0x3d, 0x68, 0x5a,
            0xa5, 0xbc, 0xb2, 0x8a, 0x1e, 0xbc, 0x28, 0x63, 0xe0, 0xbc,
            0xd7, 0xd6, 0xaf, 0x3c, 0xae, 0x30, 0x8c, 0xbc, 0xe3, 0x3e,
            0xb7, 0xbd, 0x72, 0xb6, 0x3f, 0xbc, 0x87, 0x1f, 0x98, 0xbc,
            0xcb, 0x48, 0x01, 0x3e, 0xe2, 0xe2, 0xf2, 0xbd, 0x84, 0x46,
            0x8c, 0x38, 0xa1, 0xfa, 0x0e, 0xbc, 0x28, 0x8c, 0xa6, 0xba,
            0x7d, 0x09, 0x8f, 0x3d, 0xb6, 0xaf, 0xa3, 0x3b, 0x13, 0x4f,
            0xf6, 0xbc, 0xcc, 0xcb, 0xe7, 0xbc, 0x63, 0x0e, 0x1d, 0xbd,
            0x3b, 0xea, 0xa2, 0xbb, 0x13, 0x77, 0x21, 0x3d, 0x1b, 0x02,
            0xc2, 0x3b, 0xf7, 0x90, 0x03, 0x3d, 0xd3, 0x2d, 0xa6, 0x3b,
            0x8f, 0x9f, 0xfe, 0xbc, 0x1e, 0xe3, 0x38, 0x3d, 0x56, 0x4a,
            0x4b, 0xbc, 0x2c, 0x04, 0xc3, 0x3c, 0x30, 0x2b, 0xa2, 0xbc,
            0x3a, 0xd5, 0x9f, 0xbd, 0xf0, 0xce, 0xf4, 0x3c, 0x80, 0xd8,
            0x82, 0xbc, 0x61, 0x3d, 0x96, 0x3d, 0x05, 0x37, 0x0f, 0xbd,
            0x77, 0xae, 0x16, 0xbc, 0x63, 0xcc, 0x5f, 0xbd, 0xf8, 0xcd,
            0x27, 0x3d, 0xa6, 0xa6, 0x83, 0xbd, 0x5a, 0x58, 0x64, 0x3d,
            0xaf, 0x7d, 0xbc, 0xbc, 0xa0, 0xbe, 0x8b, 0xbd, 0xae, 0xbe,
            0xa2, 0x3d, 0x60, 0x08, 0x65, 0x3d, 0xb2, 0x66, 0xc0, 0xbc,
            0x1d, 0x8c, 0x09, 0x3c, 0x89, 0xd5, 0xb8, 0xbc, 0x7c, 0x80,
            0x95, 0x3d, 0x8a, 0x63, 0xe4, 0x3a, 0xb6, 0x6c, 0x85, 0xbd,
            0x11, 0x2e, 0xb7, 0xbc, 0xdd, 0xb8, 0x30, 0x3c, 0x25, 0xd7,
            0x08, 0xbc, 0xbe, 0xab, 0x35, 0x3b, 0x8f, 0x01, 0x02, 0xbc,
            0xc9, 0x19, 0x21, 0x3d, 0x92, 0x38, 0x1c, 0xbc, 0xac, 0xd2,
            0x9c, 0xbc, 0x7e, 0x24, 0x5c, 0xba, 0x64, 0x75, 0xa0, 0x3c,
            0xf6, 0x56, 0xd6, 0x3b, 0x60, 0x01, 0x01, 0x3c, 0xc4, 0x39,
            0xaf, 0xbb, 0x04, 0xf5, 0x75, 0xbd, 0x73, 0x41, 0x94, 0xba,
            0x3a, 0x92, 0x57, 0x3d, 0x67, 0x33, 0x36, 0xbd, 0xe7, 0xf7,
            0x65, 0x3d, 0xd6, 0xd8, 0x73, 0x3c, 0xb6, 0xd8, 0x80, 0xbd,
            0xb5, 0xb1, 0x94, 0xbd, 0xe0, 0xde, 0x20, 0x3e, 0x1b, 0x20,
            0xb7, 0x3d, 0x35, 0x39, 0xd4, 0xbb, 0xd6, 0xef, 0xb1, 0xbc,
            0x7b, 0xab, 0x91, 0x3c, 0xc7, 0xa7, 0x0d, 0xbd, 0x64, 0x34,
            0x5d, 0x3c, 0x9e, 0xea, 0xd5, 0x3d, 0xf8, 0xbf, 0x5a, 0xbc,
            0x9c, 0xf7, 0x46, 0x3d, 0x46, 0xf3, 0x78, 0xbc, 0xab, 0x00,
            0x77, 0xbd, 0x57, 0x59, 0x1c, 0x3b, 0x87, 0xba, 0x05, 0xbd,
            0x6c, 0xf2, 0x96, 0xbd, 0x57, 0xc0, 0x35, 0xbc, 0x65, 0xc8,
            0x4e, 0xbd, 0x52, 0x93, 0x1c, 0xbc, 0x5a, 0x00, 0x7a, 0x3d,
            0x8d, 0xee, 0xa6, 0xbd, 0x7f, 0x23, 0xc0, 0x3c, 0x3d, 0x7c,
            0x2f, 0xbd, 0xae, 0x36, 0x78, 0x3d, 0x42, 0x2a, 0xd4, 0x3c,
            0x7f, 0x03, 0xd1, 0x3a, 0x77, 0xc9, 0xe3, 0x3d, 0xe2, 0xa1,
            0x92, 0xbc, 0xa3, 0xb8, 0x67, 0x3d, 0x68, 0x2b, 0xeb, 0x3c,
            0x2a, 0x01, 0xbf, 0x3c, 0x30, 0x66, 0x39, 0x3d, 0x63, 0xa6,
            0x39, 0xbc, 0x18, 0x6e, 0xd6, 0x3c, 0x7f, 0x19, 0x82, 0x3d,
            0xe9, 0xcf, 0xb5, 0xbb, 0xda, 0x95, 0x36, 0x3d, 0x47, 0x7f,
            0x91, 0x3d, 0x78, 0xab, 0x08, 0xbd, 0x74, 0xca, 0x1b, 0x3d,
            0x97, 0x98, 0xa6, 0xbb, 0x02, 0x6e, 0xb0, 0x3b, 0x51, 0xa8,
            0xfd, 0xbc, 0xb7, 0x64, 0x2a, 0xbd, 0x11, 0xb7, 0x8c, 0xbc,
            0x42, 0x98, 0x07, 0x3d, 0x45, 0x87, 0x4d, 0xbd, 0x5e, 0x77,
            0x7c, 0x3d, 0xae, 0x82, 0x8c, 0x3d, 0xc2, 0x80, 0xbb, 0xbc,
            0xb4, 0x6c, 0x8f, 0x3c, 0x55, 0x1a, 0x32, 0x3c, 0xa6, 0x49,
            0xc5, 0xbc, 0xd4, 0xe4, 0x81, 0x3c, 0xcf, 0xbc, 0xe1, 0xbc,
            0xcb, 0x6b, 0x56, 0x3d, 0x50, 0x7a, 0xc9, 0xbb, 0x42, 0xca,
            0x7a, 0x3d, 0xd5, 0x93, 0xbd, 0x3c, 0x4a, 0x91, 0xba, 0x3c,
            0x22, 0x6c, 0x24, 0xbc, 0xc5, 0x90, 0x81, 0x3c, 0x1d, 0xdb,
            0xd0, 0xbb, 0x36, 0x42, 0x05, 0xbd, 0x86, 0xdf, 0xf3, 0x3c,
            0x42, 0xf3, 0x15, 0x3c, 0xf4, 0x02, 0xbb, 0xbc, 0x85, 0xae,
            0xc4, 0x3b, 0x5c, 0x11, 0x84, 0xbb, 0x8d, 0x6a, 0x98, 0xbc,
            0x54, 0x35, 0x1e, 0xbc, 0xc2, 0xdc, 0xb3, 0xbd, 0x7a, 0xb9,
            0x04, 0xbd, 0xdc, 0xda, 0x84, 0xbd, 0xc3, 0xf2, 0xd9, 0xbc,
            0x82, 0x86, 0xd7, 0x3d, 0xc2, 0x3f, 0x49, 0xbd, 0xa8, 0x88,
            0x5b, 0xbd, 0x7f, 0x1e, 0x5e, 0xbd, 0x4e, 0x4d, 0x59, 0x3e,
            0x57, 0x7f, 0xa5, 0xbd, 0x9c, 0xef, 0x7b, 0x3e, 0xd0, 0x06,
            0x6a, 0xbd, 0x73, 0xdf, 0xbe, 0xbe, 0xd5, 0xbf, 0x3a, 0x3d,
            0xb8, 0xcd, 0x75, 0x3d, 0x2a, 0xb4, 0x56, 0x3b, 0x67, 0x4e,
            0x70, 0x3d, 0x29, 0x97, 0x97, 0x3d, 0x4b, 0x25, 0xcd, 0xbd,
            0x10, 0xef, 0x51, 0xbd, 0x8c, 0x5d, 0x0f, 0xbd, 0x0c, 0xe8,
            0x3c, 0x3d, 0xfb, 0xa1, 0x17, 0xbd, 0x38, 0x95, 0x34, 0x3d,
            0x21, 0xe0, 0x95, 0xbd, 0x8f, 0x0c, 0x13, 0x3d, 0x5c, 0xcc,
            0xc5, 0xbc, 0x43, 0xc4, 0x9c, 0xbc, 0x00, 0x09, 0x0b, 0x3e,
            0x8c, 0x0e, 0xf7, 0xbd, 0xbe, 0xe8, 0x87, 0xbc, 0xc2, 0x89,
            0x68, 0x3b, 0x89, 0xe2, 0x60, 0x3c, 0xb3, 0x9f, 0x28, 0xbd,
            0x5f, 0x03, 0x1f, 0xbd, 0x85, 0xd1, 0x57, 0x3d, 0x98, 0x0c,
            0x9e, 0x3c, 0x0b, 0x8d, 0xcc, 0x3d, 0xfa, 0xac, 0x87, 0x3c,
            0x71, 0x21, 0xc8, 0x3b, 0x7a, 0x8b, 0x86, 0x3c, 0xea, 0x42,
            0x14, 0xbd, 0xce, 0x8b, 0x2b, 0xbe, 0xef, 0xe5, 0x2b, 0xbc,
            0xf6, 0x27, 0x4e, 0x3d, 0xe6, 0x12, 0xab, 0x3d, 0x3d, 0x02,
            0xa6, 0x3a, 0xeb, 0x58, 0x8d, 0xbc, 0x5b, 0x44, 0x86, 0xbc,
            0xe4, 0x08, 0xd9, 0xbb, 0x77, 0x44, 0x8b, 0x3b, 0x21, 0x44,
            0x9d, 0x3c, 0x1c, 0xc4, 0x4e, 0x3d, 0xd9, 0xbd, 0x0a, 0x3c,
            0x71, 0xdc, 0x82, 0xbc, 0x6a, 0x49, 0x0b, 0xbd, 0x76, 0x61,
            0xa3, 0x3d, 0x30, 0xaa, 0x20, 0x3d, 0x42, 0x09, 0x91, 0x3c,
            0xbd, 0xbe, 0x4d, 0xbb, 0xe7, 0xd3, 0xe4, 0xbd, 0xec, 0xd3,
            0x0a, 0xbd, 0x1f, 0xd1, 0x84, 0x3d, 0x98, 0xde, 0x59, 0xbd,
            0x11, 0xcc, 0x70, 0x3d, 0xfb, 0x96, 0x78, 0xbd, 0xf2, 0xe3,
            0x0f, 0x3e, 0x7f, 0x5b, 0x22, 0x3d, 0x17, 0xfd, 0x37, 0xbe,
            0x65, 0x6b, 0x32, 0x3d, 0x67, 0xb9, 0x22, 0x3d, 0xe3, 0xef,
            0x34, 0x3d, 0xaa, 0x0a, 0xff, 0x3c, 0xa4, 0x12, 0x41, 0x3c,
            0x40, 0x03, 0xc2, 0xbc, 0x23, 0x03, 0xb2, 0x3c, 0x32, 0xc3,
            0x13, 0xbd, 0x08, 0xaf, 0x97, 0x3d, 0x59, 0x39, 0x6f, 0xbd,
            0xaa, 0x4f, 0x0b, 0x3d, 0xc2, 0x3e, 0x6f, 0xbd, 0x6d, 0xe2,
            0x01, 0x3c, 0x46, 0x10, 0x91, 0x3d, 0xc8, 0xb0, 0xc1, 0xbc,
            0xb2, 0xc0, 0x13, 0x3d, 0x10, 0x8f, 0x98, 0xbd, 0xc9, 0xb2,
            0x7a, 0xbb, 0x1f, 0x41, 0x77, 0x3a, 0x2b, 0xa7, 0xaa, 0xbb,
            0x57, 0x9d, 0xf5, 0xbb, 0x7e, 0x02, 0x15, 0x3d, 0xbb, 0x3b,
            0x3e, 0xbc, 0x92, 0xaf, 0xcf, 0x3c, 0x85, 0x2a, 0x4b, 0xbc,
            0x61, 0x47, 0x13, 0x3d, 0xaa, 0x33, 0xfb, 0x3b, 0x6d, 0xd7,
            0xcb, 0xbc, 0x83, 0x5f, 0xad, 0xbd, 0x46, 0x4a, 0xdc, 0xbd,
            0x0f, 0x51, 0xb4, 0xbc, 0x26, 0x21, 0xa1, 0x3d, 0x7f, 0x27,
            0xf0, 0x3d, 0xa0, 0x52, 0x9c, 0x3c, 0xec, 0x7d, 0xec, 0xbc,
            0x93, 0x9f, 0x4b, 0x3c, 0xe4, 0x82, 0x37, 0x3d, 0x82, 0xc2,
            0xa7, 0xbc, 0xa7, 0x9b, 0x8a, 0xbc, 0x52, 0xbf, 0xa6, 0x3c,
            0x52, 0x70, 0x3f, 0xbd, 0x4a, 0x61, 0x1c, 0x39, 0x5a, 0xcc,
            0x0a, 0x3d, 0xf9, 0x68, 0x85, 0xbc, 0x1e, 0x17, 0x24, 0xbe,
            0x11, 0xbb, 0x83, 0x3d, 0x27, 0x07, 0x1b, 0x3d, 0xc9, 0xd5,
            0xb8, 0xbd, 0x12, 0x3d, 0x16, 0x3e, 0x24, 0x5d, 0x4b, 0x3d,
            0xc7, 0x50, 0xac, 0x3d, 0x57, 0x64, 0x0f, 0xbd, 0xfc, 0x50,
            0xee, 0x3b, 0x2e, 0xed, 0xde, 0xbc, 0xe7, 0x3e, 0x31, 0xbd,
            0x28, 0x88, 0x04, 0xbe, 0x54, 0x2c, 0x7e, 0x3d, 0x2c, 0xe9,
            0x05, 0x3d, 0xdb, 0x14, 0x91, 0x3c, 0xe0, 0xd0, 0x85, 0xbc,
            0x82, 0x82, 0x83, 0x3c, 0x9e, 0xc9, 0x77, 0xbc, 0xa0, 0x43,
            0xf5, 0x3c, 0xe3, 0xf3, 0xc8, 0xb9, 0xb9, 0xdd, 0xd5, 0x3c,
            0x46, 0x6d, 0x80, 0xb8, 0xfb, 0x7e, 0x19, 0xbd, 0x43, 0x09,
            0x8c, 0x3d, 0xdf, 0xda, 0x62, 0x3d, 0x3b, 0x41, 0xa0, 0xbd,
            0x01, 0x30, 0xeb, 0x3c, 0x90, 0x12, 0x26, 0xbd, 0xb8, 0x99,
            0x9c, 0x3d, 0x4a, 0xd4, 0xf1, 0xbd, 0x3c, 0xc0, 0x0f, 0xbb,
            0xc4, 0x01, 0x1b, 0xbd, 0xa4, 0x1e, 0xe0, 0x3d, 0x7d, 0x42,
            0x06, 0xbd, 0x02, 0x8e, 0x13, 0xbb, 0x86, 0x12, 0xe3, 0xbc,
            0x26, 0xa0, 0x59, 0xbd, 0x68, 0x55, 0x01, 0x3d, 0x3d, 0xf0,
            0x98, 0xbc, 0x1f, 0x3f, 0xc9, 0xbc, 0x17, 0xd3, 0xb4, 0xbc,
            0x66, 0x0f, 0xc0, 0xbc, 0xc2, 0x4f, 0xfb, 0xbb, 0xc7, 0xc2,
            0x9c, 0x3c, 0x5c, 0x72, 0x37, 0x3d, 0x56, 0x9c, 0x9f, 0x3c,
            0x4d, 0xd3, 0x00, 0x3c, 0x43, 0xfd, 0x5a, 0xbc, 0xe7, 0xdb,
            0x01, 0xbd, 0xd6, 0xa9, 0x99, 0xbb, 0xcd, 0x53, 0xb8, 0xbd,
            0x8c, 0x6b, 0x04, 0x3d, 0x36, 0xee, 0x3e, 0xbd, 0x01, 0x6a,
            0x19, 0xbd, 0xbd, 0xc5, 0xd9, 0xbc, 0x27, 0x56, 0x36, 0x3d,
            0xbb, 0x42, 0x3c, 0xbc, 0x68, 0xdb, 0x03, 0x3d, 0xed, 0xfa,
            0xd1, 0xbd, 0xd9, 0x07, 0x05, 0xbe, 0x8a, 0xe7, 0xd0, 0x3c,
            0x69, 0xdb, 0x17, 0xbd, 0x2f, 0x3d, 0x76, 0xbc, 0x8c, 0xb5,
            0x56, 0xbd, 0xf5, 0x72, 0xe5, 0x3d, 0x7d, 0xf4, 0x98, 0xbc,
            0x53, 0xe7, 0x07, 0xbd, 0x4c, 0xcf, 0x16, 0xbe, 0xa7, 0xf6,
            0x2e, 0xba, 0x85, 0xc7, 0x11, 0x3d, 0xf9, 0x1b, 0x0f, 0xbd,
            0x37, 0x56, 0x9e, 0x3c, 0x0f, 0x5c, 0xe8, 0xbc, 0x60, 0x31,
            0xe0, 0xbc, 0xa3, 0x5c, 0x12, 0xbd, 0x15, 0xb0, 0x0e, 0xbc,
            0xc9, 0xba, 0x06, 0x3c, 0xbd, 0x8f, 0x03, 0xba, 0xb4, 0xc0,
            0xb4, 0x3c, 0xd5, 0x9f, 0x30, 0xbd, 0x2a, 0xbb, 0x5e, 0x3d,
            0x0a, 0xb5, 0xc4, 0xbd, 0x5d, 0x89, 0x7d, 0xbd, 0xb8, 0xf9,
            0x1e, 0xbd, 0x39, 0xa3, 0x3d, 0xbc, 0x3d, 0x8a, 0x8b, 0x3d,
            0x68, 0x4f, 0x9f, 0x3d, 0x96, 0xf7, 0x88, 0xbc, 0xc0, 0xe7,
            0x1e, 0x3c, 0xec, 0x08, 0x19, 0x3d, 0xda, 0x72, 0x42, 0x3d,
            0x74, 0x1b, 0x09, 0x3d, 0x77, 0xbb, 0x92, 0xbc, 0x99, 0x34,
            0x86, 0x3c, 0x97, 0xf6, 0x81, 0xbb, 0xd1, 0xbd, 0x15, 0x3d,
            0x50, 0x2c, 0x02, 0x3c, 0x38, 0x1a, 0xa0, 0x3c, 0x2d, 0x38,
            0xc3, 0x3c, 0x1a, 0x12, 0x07, 0xbe, 0x28, 0xa3, 0xa8, 0x3c,
            0x30, 0x16, 0xe1, 0x3c, 0x56, 0x0b, 0x66, 0x3c, 0x52, 0xa6,
            0x62, 0x3c, 0xc1, 0xcb, 0xba, 0xbb, 0xe5, 0x77, 0xf8, 0xbc,
            0x77, 0x28, 0x2a, 0xbc, 0xd6, 0xb7, 0x98, 0x3d, 0xac, 0x8f,
            0xb2, 0xbc, 0x9d, 0x6a, 0x02, 0xbd, 0x1d, 0x51, 0x8f, 0xbd,
            0x0e, 0x65, 0x77, 0x3d, 0x44, 0x14, 0xb2, 0xbd, 0x50, 0xc1,
            0xc3, 0x3c, 0x4d, 0xd1, 0x05, 0xbe, 0xd4, 0x32, 0xcb, 0xbd,
            0x4b, 0xf6, 0x25, 0x3d, 0x81, 0x83, 0xd4, 0x3c, 0xac, 0xbd,
            0x36, 0x3d, 0x2f, 0xe1, 0x29, 0xbd, 0x0c, 0x68, 0x2c, 0xbd,
            0x15, 0x21, 0x3b, 0xbd, 0x74, 0x50, 0x27, 0xbd, 0xde, 0x4a,
            0x86, 0x3d, 0xda, 0xdd, 0xf9, 0xbc, 0x1e, 0x56, 0xab, 0x3c,
            0x7b, 0xc8, 0x8b, 0xbc, 0xc2, 0x7d, 0x93, 0x3c, 0xe2, 0xdb,
            0xc5, 0xbd, 0xbe, 0x00, 0xa8, 0xbc, 0x40, 0xae, 0x8c, 0x3a,
            0x1c, 0x2c, 0xd7, 0xba, 0x9a, 0x08, 0x2c, 0xbd, 0xa3, 0x82,
            0x4d, 0x3d, 0x0c, 0xbf, 0x88, 0x3d, 0x41, 0x0a, 0x42, 0x3d,
            0xe7, 0xa4, 0x45, 0xbd, 0xc1, 0x86, 0x94, 0x3d, 0x9a, 0xa9,
            0x91, 0x3c, 0x82, 0xf6, 0x1f, 0xbd, 0x11, 0x5b, 0x0a, 0x3d,
            0xe8, 0xb4, 0xae, 0x3c, 0x55, 0x4b, 0x9c, 0x3c, 0x73, 0x79,
            0x24, 0xbd, 0xd6, 0xa5, 0x81, 0x3d, 0x0e, 0xbd, 0x31, 0xbd,
            0x35, 0x94, 0xc4, 0xbc, 0x68, 0x97, 0x93, 0x3d, 0x2b, 0x9d,
            0x0f, 0xbe, 0x28, 0x90, 0x51, 0xbd, 0x17, 0xdc, 0x10, 0x3c,
            0xff, 0x83, 0x21, 0x3d, 0x4c, 0xe9, 0x62, 0x3e, 0xb1, 0x90,
            0xdb, 0x3c, 0x81, 0xa3, 0x60, 0x3d, 0x69, 0x63, 0x74, 0xbc,
            0x9f, 0xa5, 0x44, 0xbe, 0x68, 0x7e, 0x72, 0xbd, 0x7d, 0xa4,
            0xbe, 0xbd, 0xb1, 0x8d, 0xa7, 0x3d, 0x76, 0x28, 0xa7, 0x3e,
            0xb3, 0xaf, 0xef, 0x3d, 0xc9, 0xce, 0x56, 0x3e, 0xa9, 0x63,
            0x4b, 0x3d, 0x0d, 0x21, 0x6d, 0x3e, 0xfa, 0x93, 0xcc, 0x3d,
            0xd8, 0x82, 0xea, 0x3d, 0x43, 0x93, 0xfc, 0x3d, 0x35, 0x00,
            0x4c, 0x3d, 0x49, 0x65, 0x01, 0xbf, 0x92, 0x79, 0x58, 0x3e,
            0xcc, 0x53, 0x36, 0x3e, 0x5f, 0x43, 0x05, 0xbe, 0x96, 0x9d,
            0x61, 0x3e, 0xe3, 0x08, 0x05, 0x3e, 0x37, 0x92, 0x46, 0x3e,
            0xaf, 0x7e, 0xe3, 0xbd, 0x12, 0x59, 0xe5, 0x3e, 0x6f, 0x8b,
            0xbd, 0x3e, 0x63, 0xb9, 0x9e, 0xbe, 0x90, 0xda, 0x37, 0xbd,
            0x56, 0xfb, 0x39, 0x3d, 0xc2, 0xff, 0x55, 0xbe, 0xfc, 0x2c,
            0x0b, 0x3e, 0xe4, 0x8e, 0xf6, 0xbd, 0xd2, 0xf6, 0x9a, 0x3d,
            0xc5, 0xdb, 0xae, 0xbd, 0xbc, 0x39, 0xa0, 0xbe, 0x6f, 0x34,
            0x48, 0x3e, 0x15, 0x6f, 0xba, 0xbd, 0x4c, 0x39, 0x1f, 0xbf,
            0xa5, 0x5f, 0x10, 0xbd, 0x75, 0xfb, 0xb2, 0xbc, 0xaa, 0xde,
            0xfe, 0x3d, 0x74, 0x2d, 0x23, 0xbe, 0xa6, 0x02, 0x8f, 0x3e,
            0x20, 0xc8, 0x82, 0xbd, 0x4f, 0x19, 0x95, 0x3e, 0xa5, 0x1d,
            0xa8, 0x3e, 0x2a, 0x03, 0x95, 0xbe, 0xaa, 0x31, 0xe3, 0x3c,
            0x44, 0x8a, 0x7f, 0xbe, 0x49, 0x05, 0x49, 0x3e, 0xf4, 0xa4,
            0x8f, 0xbd, 0xa7, 0x74, 0x80, 0xbd, 0x80, 0x6b, 0x87, 0x3e,
            0x08, 0xf5, 0xc1, 0x3d, 0x08, 0x79, 0x85, 0x3d, 0x61, 0x20,
            0xa2, 0x3e, 0x23, 0x6e, 0xbf, 0x3d, 0xa5, 0xa2, 0x2c, 0xbd,
            0x50, 0x0f, 0x7d, 0xbe, 0x5f, 0xa5, 0x6a, 0x3e, 0x8b, 0x00,
            0x56, 0xbc, 0x7b, 0x07, 0x8f, 0x3e, 0xc0, 0x20, 0x38, 0x3e,
            0x01, 0xeb, 0x90, 0x3e, 0xfd, 0x10, 0x6f, 0xbc, 0x67, 0x9a,
            0x32, 0x3e, 0x24, 0xea, 0x10, 0xbf, 0x9b, 0xf3, 0x1a, 0x3e,
            0x50, 0x48, 0xbf, 0x3d, 0x05, 0x9b, 0x2a, 0xbe, 0x75, 0x78,
            0x71, 0xbd, 0x2e, 0x82, 0x5e, 0xbe, 0x63, 0x5a, 0x41, 0xbc,
            0xe0, 0x0a, 0x9e, 0xbd, 0x6c, 0xce, 0x37, 0x3e, 0xf8, 0x94,
            0x33, 0xbd, 0xfd, 0x8b, 0xfa, 0xbc, 0xa0, 0x4b, 0xe1, 0x3d,
            0x12, 0xd5, 0x3a, 0xbe, 0x0a, 0x2c, 0x22, 0x3e, 0xe2, 0xa4,
            0x56, 0xbd, 0x8c, 0x40, 0x44, 0xbd, 0xd6, 0x83, 0x5b, 0x3e,
            0x20, 0xb8, 0x22, 0xbe, 0x77, 0x76, 0x19, 0x3e, 0x76, 0x9c,
            0xc2, 0x3d, 0x68, 0xd9, 0x6c, 0x3e, 0x25, 0xe3, 0x5e, 0x3e,
            0xea, 0x8f, 0x0e, 0x3e, 0x6d, 0x9d, 0xb9, 0xbe, 0x3d, 0x3e,
            0x8e, 0xbd, 0x9b, 0x8e, 0xb8, 0xbe, 0xaa, 0x03, 0x26, 0x3e,
            0x12, 0x47, 0x15, 0x3e, 0x6a, 0xb7, 0x68, 0x3e, 0x8b, 0xb1,
            0x38, 0xbc, 0x42, 0x52, 0x1c, 0xbd, 0x79, 0xdd, 0x2b, 0xbe,
            0x8a, 0xe2, 0x0a, 0x3e, 0xed, 0x98, 0xe4, 0x3d, 0x39, 0x49,
            0x30, 0xbd, 0x81, 0xdc, 0x49, 0x3d, 0xef, 0x47, 0x89, 0x3e,
            0x0f, 0xe8, 0xc4, 0xbd, 0xd6, 0xf8, 0x2c, 0xbd, 0xac, 0x69,
            0x1c, 0xbe, 0x0f, 0xc5, 0xc0, 0x3d, 0x77, 0x9e, 0x83, 0x3e,
            0xd3, 0xf7, 0x09, 0xbe, 0x0f, 0x5c, 0x61, 0x3e, 0x02, 0x92,
            0x8a, 0x3e, 0xd8, 0x82, 0x7a, 0x3e, 0x41, 0xcb, 0x6d, 0xbe,
            0x3b, 0x2c, 0x46, 0x3e, 0x89, 0x77, 0x6f, 0x3e, 0x0f, 0xe3,
            0xe5, 0x3e, 0xfd, 0xe8, 0x18, 0x3e, 0xb1, 0x78, 0xad, 0xbe,
            0xd8, 0xd5, 0xb6, 0x3c, 0xc7, 0xe2, 0xd3, 0xbd, 0x58, 0x36,
            0x3a, 0xbe, 0xd9, 0xe7, 0xe1, 0x3d, 0x5a, 0x74, 0x8f, 0xbe,
            0x41, 0x4b, 0x77, 0x3d, 0x7c, 0x53, 0x00, 0xbe, 0xb2, 0x4d,
            0x81, 0xbe, 0x75, 0x8b, 0xd3, 0xbd, 0xc6, 0x53, 0x44, 0x3e,
            0x64, 0x87, 0x72, 0x3e, 0xa4, 0x06, 0x93, 0xbe, 0xed, 0xf7,
            0x8e, 0xbd, 0x49, 0xbd, 0xb1, 0xbe, 0xca, 0x3a, 0x80, 0xbc,
            0x85, 0x63, 0xc6, 0xbb, 0x56, 0xe9, 0xec, 0xbd, 0xa1, 0x97,
            0x64, 0xbe, 0x6c, 0xc7, 0x99, 0x3d, 0x63, 0xf4, 0x67, 0xbe,
            0x4e, 0xd9, 0x43, 0xbe, 0x86, 0xcf, 0x44, 0xbc, 0x2e, 0xdf,
            0x21, 0x3e, 0xe9, 0x40, 0xa9, 0xbd, 0x2c, 0xb8, 0x71, 0xbe,
            0xf3, 0x78, 0x00, 0xbd, 0xa0, 0xfe, 0xe3, 0xbd, 0xa0, 0xdf,
            0x90, 0x3c, 0x03, 0x5e, 0x20, 0xbe, 0xfc, 0x3c, 0x52, 0x3e,
            0x5e, 0x0e, 0xbe, 0xbc, 0x5c, 0x80, 0x0e, 0xbe, 0xba, 0x5a,
            0x35, 0xbe, 0x90, 0xf3, 0x79, 0xbd, 0x5f, 0xf4, 0x51, 0x3d,
            0xc4, 0x5d, 0x4e, 0xbe, 0x4d, 0x87, 0x21, 0x3e, 0xac, 0x8a,
            0x3c, 0x3d, 0x58, 0x11, 0xa3, 0xbc, 0x64, 0x12, 0x81, 0xbe,
            0x6d, 0x9f, 0x67, 0xbe, 0x0f, 0xc1, 0x45, 0xbd, 0xf5, 0x4c,
            0x83, 0xbe, 0x6a, 0x41, 0x66, 0xbd, 0x7c, 0xeb, 0x86, 0xbe,
            0x0d, 0x0a, 0x48, 0x3e, 0x5f, 0xfd, 0x61, 0x3e, 0xb3, 0x4b,
            0x4b, 0xbd, 0x59, 0x4c, 0x26, 0x3e, 0x45, 0xf2, 0x74, 0xbd,
            0xd9, 0x2b, 0x1e, 0xbe, 0x65, 0xf2, 0x15, 0xbe, 0x4d, 0xe3,
            0xe5, 0xbb, 0xd5, 0x39, 0xfe, 0xbd, 0xb4, 0x4d, 0xa7, 0xbd,
            0x1e, 0x46, 0xbf, 0x3d, 0xa0, 0x57, 0x16, 0x3d, 0x30, 0x7d,
            0xb3, 0x3c, 0x73, 0xf2, 0x98, 0x3d, 0x00, 0xce, 0x50, 0xbe,
            0xaf, 0x8d, 0x98, 0xbb, 0x09, 0x21, 0x87, 0xbe, 0x60, 0xa5,
            0xa5, 0xbd, 0x50, 0x19, 0x1d, 0x3c, 0x12, 0x6d, 0x0e, 0xbe,
            0x2c, 0xd9, 0x8a, 0x3d, 0xc8, 0xb8, 0xa8, 0xbd, 0xc3, 0x12,
            0x50, 0xbc, 0xb0, 0x65, 0x3a, 0xbe, 0x62, 0x0d, 0x3d, 0x3e,
            0x86, 0x18, 0x0d, 0xbe, 0x8c, 0x9b, 0x50, 0xbe, 0x74, 0x37,
            0x26, 0x3e, 0xe3, 0x41, 0xe5, 0xbc, 0xaf, 0x0b, 0x74, 0xbe,
            0x09, 0x3b, 0x6a, 0xbe, 0xae, 0x7a, 0x2d, 0x3e, 0xed, 0xc7,
            0xfb, 0x3c, 0xa6, 0x31, 0x69, 0xbe, 0xf1, 0x9c, 0x81, 0xbe,
            0x26, 0x5c, 0xa1, 0xbe, 0xeb, 0x34, 0x1f, 0xbe, 0x4a, 0xdb,
            0x2c, 0x3e, 0xc3, 0xc6, 0xea, 0xbd, 0x45, 0xe0, 0x6e, 0xbe,
            0x06, 0x4b, 0x46, 0xbe, 0xc3, 0xa5, 0x5d, 0xbf, 0x1e, 0xa2,
            0xa8, 0xbc, 0x5c, 0xe7, 0x97, 0xbd, 0x37, 0x6b, 0x22, 0x3e,
            0xf2, 0x9d, 0xaa, 0x3d, 0xf3, 0x99, 0x3d, 0x3e, 0xd6, 0x07,
            0xc1, 0xbe, 0xcc, 0x94, 0x0b, 0xbd, 0xaa, 0x9a, 0x9b, 0x3d,
            0xd8, 0x4a, 0x26, 0x3d, 0xa6, 0x3b, 0xba, 0x3d, 0xc5, 0xf3,
            0xee, 0xbd, 0x47, 0x9f, 0x5c, 0x3e, 0xa0, 0x17, 0x71, 0x3d,
            0x54, 0xb7, 0x9e, 0xbe, 0x63, 0xe5, 0x09, 0xbe, 0x35, 0x78,
            0x11, 0x3e, 0x91, 0xdd, 0xf6, 0xbd, 0xdd, 0x1b, 0x4b, 0xbd,
            0x36, 0xa8, 0x43, 0x3e, 0x7a, 0x9d, 0x9f, 0x3e, 0xd9, 0xca,
            0x17, 0x3d, 0xb7, 0xa3, 0x03, 0x3f, 0xcd, 0x28, 0x8a, 0xbe,
            0xae, 0x1f, 0xec, 0xbd, 0x70, 0x79, 0x78, 0x3e, 0x25, 0x9d,
            0xae, 0x3e, 0xc6, 0x40, 0xcb, 0x3e, 0xa7, 0xea, 0x54, 0xbd,
            0xba, 0xb3, 0x13, 0xbe, 0x7f, 0x34, 0x09, 0xbc, 0x50, 0x13,
            0x47, 0xbe, 0xf4, 0xa2, 0xf8, 0xbc, 0xaf, 0x53, 0x80, 0x3e,
            0xa1, 0x24, 0xd8, 0x3c, 0xc4, 0x73, 0x2f, 0x3e, 0x00, 0xcf,
            0x76, 0xbc, 0x94, 0xe1, 0xba, 0xbc, 0xf7, 0x06, 0x88, 0xbd,
            0x6d, 0x71, 0x3b, 0x3e, 0x53, 0x3f, 0xe0, 0x3e, 0x5f, 0xa9,
            0x0f, 0xbe, 0xf6, 0x75, 0x97, 0x3d, 0xad, 0xf7, 0x5c, 0x3e,
            0x22, 0xc8, 0xc0, 0xbd, 0xb3, 0xf2, 0xf4, 0x3d, 0x8a, 0x25,
            0x0c, 0xbf, 0x74, 0x36, 0x16, 0x3e, 0x10, 0xea, 0xbb, 0xbc,
            0xac, 0xfb, 0x82, 0xbb, 0x78, 0xdc, 0x2f, 0xbe, 0x64, 0x1e,
            0x85, 0x3e, 0xf4, 0x80, 0x51, 0xbc, 0x47, 0xae, 0x51, 0xbd,
            0x80, 0x22, 0x75, 0x3d, 0x35, 0x37, 0xdb, 0x3d, 0x0e, 0xb3,
            0xdc, 0x3d, 0x49, 0x62, 0xe1, 0xbd, 0x14, 0x53, 0x12, 0x40,
            0x31, 0x70, 0x01, 0xc0, 0x2c, 0x49, 0x1a, 0x3d, 0x0e, 0x2c,
            0x4f, 0xbf, 0x69, 0x30, 0x7f, 0x3c, 0x2f, 0x38, 0x2b, 0xbe,
            0x5c, 0x24, 0x26, 0xbd, 0xb9, 0x6d, 0x4e, 0x3f, 0xb6, 0x3e,
            0x67, 0xbe, 0x8b, 0xb3, 0x2e, 0x3d, 0xb3, 0x46, 0xed, 0xbf,
            0x37, 0xb8, 0x86, 0xbd, 0xcb, 0x4b, 0x07, 0xbe, 0x64, 0x35,
            0x5a, 0x3e, 0x0d, 0x68, 0x0f, 0xbf, 0x40, 0xf6, 0x4b, 0xbf,
            0x75, 0xe1, 0x80, 0xbf, 0x1e, 0x1c, 0x42, 0xbe, 0x1a, 0xe0,
            0x4f, 0x3e, 0xed, 0xc1, 0x7b, 0xbe, 0x8a, 0xdc, 0xa2, 0xbd,
            0xbc, 0xb1, 0x90, 0xbf, 0x0a, 0x21, 0x98, 0xbe, 0x82, 0x3b,
            0x5a, 0x3d, 0xe9, 0x81, 0xcd, 0x3e, 0xf1, 0xef, 0x73, 0xbb,
            0x54, 0xf0, 0xd3, 0x3b, 0x23, 0x29, 0x95, 0x3e, 0x1c, 0x68,
            0x8e, 0xbf, 0x36, 0x4b, 0x46, 0xbe, 0x69, 0xa5, 0xe9, 0x3c,
            0x6e, 0xbf, 0xc1, 0x3e, 0x14, 0xd9, 0x9e, 0x3e, 0x21, 0xa1,
            0xc5, 0x3e, 0xa3, 0xd2, 0x82, 0x3d, 0xa9, 0x22, 0x0c, 0xbe,
            0x05, 0xb2, 0xfe, 0x3d, 0x35, 0xbd, 0x6f, 0xbd, 0x55, 0x09,
            0xb9, 0xbe, 0xf3, 0x0d, 0x8f, 0xbe, 0x91, 0x33, 0x60, 0xbe,
            0xe3, 0x3f, 0x28, 0xbf, 0x8c, 0x8a, 0x3a, 0xbd, 0x6f, 0x43,
            0xed, 0xbe, 0xdd, 0xf8, 0x3c, 0xbd, 0x62, 0x40, 0x12, 0x3e,
            0x7f, 0xc4, 0x06, 0xbe, 0x1d, 0xc9, 0x09, 0xbf, 0x99, 0x21,
            0x29, 0xbe, 0x31, 0x97, 0x2a, 0x3e, 0x1f, 0xdd, 0x9f, 0xbe,
            0xc7, 0xb8, 0x2b, 0x3f, 0xf2, 0xc2, 0x50, 0x3d, 0xcf, 0x9d,
            0x82, 0xbd, 0x9b, 0x03, 0x1f, 0xbd, 0xb2, 0x8e, 0xd0, 0x3d,
            0x00, 0xa8, 0x86, 0x3d, 0xa0, 0xcb, 0x8a, 0x3e, 0xa7, 0x90,
            0x0a, 0xbf, 0x39, 0xe3, 0x56, 0x3e, 0x80, 0x63, 0x13, 0xbe,
            0x97, 0xcf, 0xa2, 0x3f, 0x80, 0x51, 0x0b, 0xbe, 0x2f, 0xcc,
            0x68, 0xbe, 0xb0, 0x53, 0xc9, 0x3e, 0xab, 0x81, 0x92, 0x3d,
            0x4b, 0x84, 0x2d, 0xbd, 0xae, 0x71, 0xc2, 0xbc, 0x61, 0xf2,
            0x8f, 0xbd, 0xe5, 0x6e, 0x62, 0xbc, 0xa6, 0x47, 0x1b, 0x3e,
            0x35, 0x33, 0x62, 0x3d, 0x83, 0x7b, 0x72, 0xbc, 0x7c, 0x70,
            0xeb, 0x3c, 0xea, 0x8f, 0x13, 0xbc, 0x78, 0x87, 0xda, 0xbc,
            0xf7, 0x58, 0xbe, 0xbd, 0xfe, 0x5d, 0x2f, 0x3c, 0x75, 0x2c,
            0x1f, 0xbd, 0xbc, 0x51, 0x8a, 0x3e, 0xda, 0x57, 0xbe, 0xbc,
            0x75, 0x8f, 0x65, 0x3d, 0xc0, 0x69, 0x5e, 0xbc, 0x35, 0xc3,
            0x05, 0xbd, 0xb7, 0xab, 0xad, 0x3c, 0x29, 0x9f, 0x84, 0xbd,
            0x00, 0xbe, 0xbe, 0xbd, 0x4e, 0xb2, 0x46, 0xbd, 0xec, 0xa8,
            0xc9, 0x3d, 0x1c, 0x23, 0x5b, 0x3c, 0x8c, 0xd7, 0x70, 0xbd,
            0x11, 0xef, 0x6e, 0xbd, 0x34, 0xd7, 0x1b, 0x3e, 0xb9, 0xaa,
            0x2e, 0x3e, 0x7e, 0x41, 0x33, 0x3d, 0xb9, 0x06, 0xc9, 0x3c,
            0x73, 0xcf, 0xb7, 0x3c, 0x6a, 0x85, 0x52, 0x3d, 0x8e, 0xf6,
            0xa1, 0xbd, 0xad, 0x73, 0x68, 0xbe, 0x9c, 0x33, 0x1b, 0x3e,
            0x8c, 0xe5, 0x4c, 0x3d, 0x60, 0x51, 0x39, 0x3c, 0xb9, 0x92,
            0xda, 0xbd, 0x81, 0x00, 0xaa, 0x3e, 0x75, 0x61, 0x72, 0x3d,
            0x8b, 0xd8, 0xa9, 0x3d, 0x10, 0x22, 0x0c, 0x3d, 0x18, 0x59,
            0xd2, 0xbb, 0xb5, 0x3f, 0x17, 0xbd, 0x5b, 0x40, 0x61, 0xbb,
            0xf9, 0xf9, 0x93, 0x3d, 0x12, 0xf6, 0xab, 0xbc, 0xbd, 0xce,
            0x6d, 0x3e, 0x39, 0xd1, 0xf8, 0x3c, 0xcb, 0x2d, 0xbb, 0xbd,
            0xd1, 0x75, 0x0a, 0x3d, 0x35, 0x94, 0x69, 0xbb, 0xd9, 0x89,
            0x21, 0x3b, 0x64, 0xe4, 0x32, 0x3c, 0xdf, 0x75, 0x91, 0x3d,
            0xcf, 0x3d, 0x1c, 0x3e, 0x7f, 0x1f, 0xc0, 0xba, 0x59, 0x6c,
            0x28, 0x3c, 0x75, 0x34, 0x76, 0xbb, 0x8a, 0xc4, 0x9d, 0x3b,
            0x92, 0x8b, 0x68, 0x3c, 0xb2, 0x75, 0x83, 0xbb, 0xcb, 0x8d,
            0xe0, 0x3e, 0x12, 0x7d, 0x24, 0xbe, 0x45, 0x3d, 0x62, 0xbe,
            0xe7, 0xad, 0x6c, 0x3e, 0xb4, 0x96, 0x07, 0xbe, 0x91, 0x91,
            0x64, 0xbd, 0x94, 0xc4, 0x59, 0xbd, 0x97, 0x09, 0xe0, 0x3d,
            0xed, 0xf4, 0x0a, 0x3f, 0x5e, 0xe8, 0xdb, 0xbc, 0x02, 0x2a,
            0x83, 0xbe, 0x65, 0xb4, 0x53, 0x3e, 0x5a, 0xc9, 0x6c, 0xbe,
            0x50, 0xde, 0x29, 0xbd, 0xa8, 0xcf, 0xc7, 0x3e, 0x6b, 0xc3,
            0xa7, 0xbd, 0xe1, 0xc4, 0x77, 0x3e, 0xcf, 0x81, 0xc8, 0x3e,
            0xe1, 0x5b, 0x80, 0x3e, 0x57, 0x82, 0xda, 0xbe, 0x45, 0x1e,
            0x76, 0xbe, 0xb2, 0x60, 0x13, 0xbe, 0x4d, 0xa2, 0xc3, 0xbc,
            0x35, 0xb3, 0x9f, 0x3e, 0x45, 0xb5, 0x23, 0xbe, 0x3f, 0xd7,
            0x0a, 0x3e, 0x4f, 0x3a, 0x78, 0xbd, 0x7b, 0xd9, 0x7c, 0x3e,
            0x72, 0x14, 0x16, 0xbf, 0xbf, 0xc7, 0x90, 0xbc, 0xb0, 0x15,
            0x85, 0xbd, 0x32, 0x22, 0x23, 0xbe, 0x50, 0xf5, 0x84, 0x3d,
            0xc0, 0x76, 0x49, 0x3c, 0x13, 0x5f, 0xdc, 0x3d, 0xf3, 0x39,
            0xc0, 0x3d, 0x87, 0xf9, 0xc1, 0xbe, 0xbc, 0xc5, 0x7b, 0xbe,
            0x89, 0xf1, 0xc4, 0xbc, 0xcc, 0x71, 0x5d, 0x3e, 0xd2, 0xf2,
            0x92, 0xbe, 0xe5, 0x11, 0x72, 0x3f, 0x8e, 0xf0, 0x94, 0xbd,
            0xc7, 0x75, 0xc7, 0x3d, 0x8f, 0x03, 0x14, 0xbe, 0x0e, 0xab,
            0x6c, 0xbd, 0xd5, 0xad, 0x73, 0x3e, 0xfd, 0x06, 0x88, 0x3c,
            0xc8, 0x7a, 0xd5, 0x3d, 0x77, 0x5d, 0x5b, 0x3e, 0x65, 0xc8,
            0xb7, 0x3d, 0x51, 0x37, 0xa9, 0xbd, 0xa8, 0x9d, 0x8b, 0xbe,
            0x0f, 0xc9, 0x33, 0x3e, 0xb8, 0x0a, 0x80, 0x3d, 0xc5, 0xb5,
            0xa4, 0x3e, 0x07, 0x7b, 0xf3, 0xbd, 0x24, 0x71, 0xa5, 0xbe,
            0xfe, 0x2d, 0xfe, 0x3d, 0x5b, 0xb8, 0x9a, 0x3d, 0x83, 0xe6,
            0x3b, 0xbe, 0xd6, 0xd3, 0xb4, 0xbe, 0x00, 0xb4, 0x3c, 0xbe,
            0xef, 0x55, 0x72, 0x3e, 0xd7, 0xcf, 0xb5, 0x3c, 0x13, 0xc8,
            0x4d, 0xbe, 0xa9, 0x92, 0x78, 0x3c, 0xd7, 0x13, 0x10, 0x3c,
            0xc9, 0xe0, 0x84, 0xbe, 0xd7, 0xe9, 0x20, 0x3c, 0xb5, 0xae,
            0xaa, 0x3d, 0xb2, 0x68, 0x12, 0xbe, 0x6a, 0x4b, 0x12, 0xbe,
            0x6f, 0x68, 0x01, 0x3e, 0x87, 0xc3, 0x8f, 0x3d, 0xe0, 0xfe,
            0x44, 0xbe, 0xe2, 0xd4, 0x80, 0x3e, 0x69, 0xf9, 0x3a, 0x3c,
            0x57, 0xba, 0x61, 0x3d, 0x3a, 0x6e, 0x16, 0xbe, 0xae, 0xe8,
            0xca, 0xbd, 0xe1, 0x8e, 0x0f, 0xbe, 0x75, 0x4f, 0x57, 0x3e,
            0x1b, 0xfd, 0x09, 0x3e, 0x13, 0xa3, 0xac, 0x3c, 0x1f, 0x2a,
            0x8c, 0xbd, 0x82, 0xcd, 0x5c, 0x3e, 0xf8, 0x46, 0xc2, 0xbc,
            0xed, 0xbc, 0x0a, 0xbd, 0x0f, 0x8f, 0xdc, 0x3b, 0x20, 0x70,
            0x12, 0x3e, 0x16, 0xa2, 0x8d, 0x3d, 0x7f, 0x4d, 0x7f, 0xbe,
            0x04, 0x03, 0xf8, 0x3e, 0x4f, 0x81, 0x05, 0xbd, 0x2b, 0x4d,
            0xf0, 0x3c, 0x7b, 0xf5, 0xa7, 0xbd, 0xc7, 0x48, 0xf9, 0x3e,
            0x43, 0x63, 0x19, 0x3e, 0xef, 0x9d, 0x80, 0x3d, 0x11, 0x37,
            0x8b, 0xbe, 0xb5, 0xa8, 0x7b, 0xbe, 0x05, 0x77, 0x3c, 0x3e,
            0x86, 0x29, 0x40, 0xbe, 0x7d, 0xcf, 0xcb, 0xbe, 0x47, 0xe0,
            0xcc, 0x3e, 0x08, 0xa3, 0x9b, 0xbd, 0x96, 0x0b, 0x2a, 0x3e,
            0xa5, 0x87, 0x60, 0xbe, 0x8e, 0x9b, 0xa0, 0x3e, 0xe4, 0x90,
            0x92, 0xbd, 0xca, 0x53, 0x7c, 0x3e, 0x0e, 0x7e, 0xe9, 0x3c,
            0xa8, 0x30, 0x58, 0x3e, 0x94, 0xb9, 0x08, 0x3d, 0x97, 0x39,
            0x22, 0xbe, 0xd0, 0x30, 0x0a, 0xbe, 0x69, 0x8e, 0xa4, 0xbe,
            0x9e, 0x39, 0x0a, 0x3d, 0x92, 0xcc, 0xed, 0x3d, 0x30, 0xb1,
            0xc6, 0xbd, 0x14, 0x7b, 0x74, 0x3d, 0x38, 0x2e, 0x8b, 0xbc,
            0xbc, 0x25, 0xf1, 0xbd, 0xdc, 0xe5, 0xc9, 0xbd, 0x8a, 0xc1,
            0x7e, 0x3e, 0x61, 0xf5, 0x00, 0xbe, 0x72, 0x3e, 0x70, 0xbe,
            0x07, 0x6c, 0x22, 0x3e, 0x14, 0x31, 0xa4, 0xbd, 0x98, 0x7f,
            0x46, 0xbd, 0x52, 0x97, 0xc7, 0x3c, 0x0c, 0x1c, 0xc9, 0x3e,
            0xf4, 0x23, 0x75, 0xbd, 0x07, 0x48, 0x31, 0xbe, 0x92, 0x79,
            0x31, 0x3e, 0x9a, 0x1e, 0x46, 0x3e, 0x31, 0x58, 0x8d, 0x3c,
            0xef, 0x04, 0xb0, 0x3d, 0xfe, 0x12, 0x81, 0x3e, 0x3c, 0xa1,
            0x3b, 0x3e, 0x33, 0x97, 0x29, 0xbe, 0xf3, 0x67, 0x16, 0xbe,
            0xa4, 0xf2, 0xec, 0x3e, 0x88, 0x08, 0xea, 0x3d, 0x57, 0x7d,
            0x03, 0x3e, 0x01, 0x7f, 0xb9, 0x3d, 0xd9, 0xad, 0xe4, 0xbe,
            0xd4, 0x84, 0xcf, 0xbd, 0xdb, 0xc1, 0x04, 0x3d, 0xc9, 0x19,
            0xd1, 0x3c, 0xa8, 0xf1, 0x4c, 0xbe, 0x5e, 0xa4, 0x86, 0xbe,
            0xa7, 0x90, 0x82, 0x3e, 0x41, 0x51, 0xf7, 0xbd, 0xfd, 0x9a,
            0x53, 0xbd, 0x21, 0x74, 0x20, 0xbe, 0x45, 0xbc, 0x51, 0xbe,
            0x32, 0x60, 0x80, 0x3e, 0xee, 0xf6, 0xba, 0xbe, 0x4b, 0x75,
            0x16, 0x3e, 0x50, 0x25, 0x95, 0xbe, 0x6f, 0x76, 0xd1, 0x3d,
            0x4e, 0x0d, 0x2b, 0xbe, 0x7d, 0x38, 0x8b, 0x3e, 0xde, 0x14,
            0x1a, 0xbd, 0x60, 0x0a, 0x78, 0x3e, 0xc9, 0xa3, 0x15, 0xbe,
            0xfc, 0x96, 0x64, 0xbe, 0xcb, 0xd4, 0x8a, 0xbe, 0x89, 0xac,
            0x1b, 0xbe, 0xd6, 0xba, 0xbf, 0x3e, 0x62, 0xab, 0x0a, 0xbe,
            0xfb, 0x95, 0x68, 0xbe, 0xe9, 0x43, 0x70, 0xbe, 0x62, 0x18,
            0xa5, 0xbc, 0xcf, 0x4b, 0xed, 0xbd, 0x4b, 0xff, 0x2e, 0xbd,
            0xf4, 0xfd, 0xaf, 0xbd, 0xa2, 0x05, 0xfe, 0x3e, 0x3d, 0xab,
            0x10, 0x3e, 0xf5, 0xb6, 0x24, 0xbe, 0xf6, 0x7d, 0xf8, 0x3e,
            0xd3, 0xa4, 0x74, 0xbe, 0xd0, 0xae, 0x91, 0x3e, 0x7f, 0x05,
            0x18, 0x3e, 0x46, 0x98, 0x5c, 0x3d, 0xe8, 0xf4, 0x33, 0x3b,
            0xac, 0x88, 0x2f, 0x3d, 0x4b, 0xbb, 0xaf, 0x3d, 0xcb, 0xd1,
            0x8e, 0xbe, 0x1a, 0x35, 0xb6, 0x3d, 0x0e, 0x8c, 0xa0, 0xbe,
            0xdb, 0x83, 0x0f, 0xbe, 0x91, 0x4a, 0xf7, 0x3e, 0x81, 0x00,
            0x11, 0x3f, 0xa6, 0x8b, 0xdb, 0x3e, 0x56, 0x01, 0xbd, 0x3e,
            0xb0, 0x5c, 0x02, 0xbf, 0xd1, 0x02, 0x57, 0xbd, 0x73, 0x21,
            0x0d, 0xbf, 0xea, 0x42, 0x53, 0xbf, 0xc5, 0x31, 0x62, 0xbe,
            0xb3, 0xad, 0xed, 0xbc, 0x33, 0x39, 0x5d, 0xbd, 0xa5, 0xea,
            0x02, 0xbe, 0x46, 0x98, 0xf6, 0x3e, 0x69, 0x3d, 0x41, 0xbe,
            0xc6, 0x08, 0xcc, 0x3c, 0x95, 0x14, 0x47, 0x3e, 0xc7, 0xb6,
            0x21, 0xbe, 0xa2, 0x7c, 0x6e, 0xbe, 0x3c, 0xd8, 0x84, 0xbe,
            0x49, 0xa3, 0xd6, 0xbe, 0x64, 0x5b, 0x06, 0xbe, 0x61, 0x3f,
            0x05, 0x3f, 0x4b, 0x0b, 0x3e, 0xbf, 0x75, 0x02, 0x0d, 0x3e,
            0xe2, 0xc7, 0x66, 0xbe, 0xfc, 0x0e, 0x05, 0x3f, 0x94, 0xca,
            0x26, 0x3d, 0x36, 0xbc, 0xa1, 0xbe, 0x2f, 0xb8, 0x52, 0x3d,
            0xdc, 0xbb, 0x85, 0x3e, 0x65, 0xb8, 0x91, 0x3d, 0xb8, 0xba,
            0x62, 0xbd, 0x73, 0x40, 0xcc, 0x3c, 0x03, 0x57, 0xb2, 0xbc,
            0xbd, 0xf9, 0xac, 0xbc, 0xe3, 0x3b, 0xac, 0xbe, 0x8e, 0x35,
            0x88, 0xbd, 0xfc, 0x89, 0x5a, 0xbe, 0x8f, 0x0d, 0x66, 0x3e,
            0xe4, 0xdd, 0x20, 0x3e, 0x26, 0xab, 0x5e, 0x3e, 0xed, 0xa7,
            0xd6, 0x3b, 0x73, 0x0b, 0x06, 0xbf, 0x0f, 0xa4, 0xa7, 0xbe,
            0xda, 0x03, 0x8f, 0xbd, 0x5a, 0x47, 0x96, 0x3e, 0x97, 0x51,
            0xbc, 0x3e, 0xc2, 0x05, 0x3e, 0x3e, 0x5e, 0x57, 0x96, 0xbe,
            0x52, 0x38, 0xf2, 0x3e, 0xbb, 0x24, 0x03, 0x3e, 0x93, 0xb3,
            0x98, 0x3d, 0x4c, 0x09, 0xe9, 0x3d, 0x10, 0x28, 0xe6, 0x3e,
            0xcd, 0x3f, 0x47, 0xbe, 0x7b, 0x08, 0x4f, 0xbe, 0x1e, 0xcb,
            0x22, 0x3e, 0x20, 0xc1, 0xbf, 0xbe, 0xed, 0x47, 0x31, 0xc1,
            0x85, 0x9d, 0xf5, 0xbc, 0x3c, 0x75, 0x2c, 0xbe, 0xa8, 0x1f,
            0xaa, 0xbd, 0xb6, 0x8a, 0x7e, 0x3e, 0x34, 0xb1, 0x12, 0x3f,
            0xcd, 0xdc, 0xcc, 0x3d, 0x91, 0x76, 0x36, 0x3f, 0xfc, 0x63,
            0xa5, 0x3e, 0x9c, 0xf2, 0xaf, 0x3c, 0x21, 0x3f, 0xcd, 0x3d,
            0x7e, 0xaa, 0xb1, 0xbe, 0xf4, 0xe1, 0x08, 0xbd, 0xa8, 0x1b,
            0x05, 0x3e, 0x87, 0x83, 0xb6, 0x3e, 0x43, 0x59, 0x6e, 0xbe,
            0xde, 0xba, 0xc9, 0xbd, 0xa0, 0xff, 0xb3, 0xbf, 0x23, 0xba,
            0x10, 0xbf, 0x3f, 0x40, 0x62, 0xbf, 0xb8, 0x13, 0x1b, 0xbf,
            0x37, 0xe0, 0xf1, 0xbc, 0x88, 0xf3, 0xfa, 0xbc, 0xc2, 0xfe,
            0x0b, 0xbe, 0xde, 0xe6, 0x2b, 0x3e, 0x5c, 0x42, 0x1a, 0xbd,
            0xa1, 0xdf, 0x14, 0xbf, 0x40, 0xd3, 0x51, 0xbd, 0xc3, 0x29,
            0x84, 0x3d, 0xe9, 0x1d, 0x97, 0x3e, 0xd5, 0xcd, 0xec, 0x3e,
            0xa2, 0xad, 0x10, 0x3f, 0x33, 0x1f, 0x6a, 0x3d, 0x93, 0xf0,
            0x06, 0x3f, 0x0f, 0x87, 0xb4, 0xbc, 0x11, 0x6a, 0x42, 0x3e,
            0x8d, 0x5f, 0xdf, 0xbe, 0x17, 0x41, 0x16, 0xbe, 0x5c, 0x34,
            0x1a, 0xbf, 0x5f, 0xfe, 0xc8, 0x3e, 0xff, 0x0a, 0x6a, 0x3e,
            0x28, 0x5e, 0xfe, 0xbd, 0x5d, 0x4c, 0x8a, 0x3e, 0xd2, 0xca,
            0x84, 0x3e, 0x6a, 0x6f, 0x64, 0xbe, 0x4d, 0xe7, 0x41, 0x3e,
            0xf4, 0x56, 0xe4, 0xbc, 0x87, 0x0f, 0x24, 0xbe, 0x2e, 0x8d,
            0x2e, 0x3d, 0xc8, 0xc3, 0x2c, 0xbe, 0x1f, 0x61, 0x84, 0x3e,
            0x0f, 0xc1, 0xa1, 0x3e, 0x02, 0xea, 0xf5, 0x3e, 0xb4, 0xd0,
            0x77, 0xbe, 0x8d, 0x68, 0x83, 0x3c, 0xac, 0x75, 0x1f, 0xbf,
            0x9b, 0xe3, 0x61, 0x3e, 0x20, 0x5f, 0x6c, 0xbe, 0x65, 0xff,
            0x9d, 0x3d, 0x99, 0x5a, 0x30, 0xbf, 0x09, 0x6e, 0xf5, 0xbe,
            0xd5, 0x01, 0xb3, 0xbe, 0x06, 0x07, 0xed, 0x3d, 0xdf, 0x54,
            0x7c, 0xbe, 0xb9, 0x34, 0x44, 0xbe, 0x11, 0x99, 0x65, 0x3e,
            0xb9, 0x87, 0xec, 0xbd, 0x6c, 0x33, 0x25, 0xbd, 0x63, 0xc1,
            0x31, 0xbe, 0xfb, 0x93, 0x48, 0xbe, 0x24, 0x03, 0xe0, 0x3e,
            0x03, 0xe0, 0xd6, 0xbc, 0xae, 0x72, 0x61, 0xbe, 0x5e, 0x04,
            0x87, 0x3e, 0x30, 0x56, 0x48, 0xbf, 0x61, 0x59, 0xb7, 0xbd,
            0x1d, 0xea, 0xa6, 0xbc, 0x1a, 0xa9, 0x89, 0x3d, 0x13, 0xd6,
            0xaa, 0xbd, 0x66, 0x06, 0x98, 0x3d, 0x3b, 0x81, 0x94, 0xbe,
            0x47, 0x69, 0x5a, 0x3e, 0x5d, 0x89, 0x89, 0xbd, 0xd7, 0x01,
            0x44, 0x3e, 0x89, 0x1d, 0xbf, 0xbd, 0xc0, 0x36, 0xd9, 0x3d,
            0xb9, 0x07, 0xec, 0xbc, 0x41, 0x71, 0x07, 0xbf, 0x27, 0x2e,
            0x50, 0xbe, 0x3b, 0xa3, 0x8e, 0x3e, 0xcc, 0x97, 0xb1, 0x3d,
            0x18, 0xdd, 0x1d, 0xbd, 0xd4, 0xc5, 0x0f, 0x3d, 0xa4, 0xb9,
            0x91, 0xbe, 0xf1, 0x57, 0x1f, 0x3e, 0x52, 0x43, 0xf5, 0xbe,
            0x4f, 0x7f, 0x69, 0x3e, 0x51, 0x3c, 0xe5, 0x3d, 0x5f, 0xf3,
            0xba, 0xbe, 0xe2, 0xfb, 0xda, 0x3e, 0x01, 0xca, 0xa6, 0xbe,
            0x66, 0xfd, 0xb3, 0x3e, 0x09, 0x7d, 0xc3, 0x3e, 0x26, 0xba,
            0x1c, 0xbe, 0xde, 0x33, 0x8f, 0xbb, 0xb1, 0xd1, 0x3c, 0x3d,
            0x52, 0xdf, 0xcf, 0xbe, 0x21, 0xfb, 0x99, 0x3d, 0xdd, 0x4b,
            0x08, 0x3e, 0xa1, 0xb8, 0xa0, 0xbe, 0xde, 0x92, 0xad, 0xbc,
            0xb7, 0x59, 0xde, 0x3e, 0x89, 0x92, 0xcc, 0x3c, 0x4f, 0x80,
            0xbd, 0x3c, 0xd6, 0x02, 0x3a, 0xbd, 0xa5, 0x66, 0x7c, 0xbe,
            0x2f, 0xd2, 0x31, 0x3e, 0xc1, 0x2e, 0x22, 0x3e, 0x02, 0x03,
            0xcd, 0x3e, 0xa6, 0xa0, 0x0b, 0x3e, 0x92, 0xc2, 0x92, 0x3e,
            0x6e, 0x9a, 0x31, 0x3d, 0x61, 0x7a, 0x02, 0x3e, 0x66, 0x82,
            0x3b, 0x3d, 0xaa, 0xee, 0x5d, 0xbe, 0xfe, 0xa0, 0x78, 0x3e,
            0xfb, 0x33, 0xca, 0xbe, 0xe7, 0x3b, 0xea, 0x3e, 0x73, 0x5f,
            0xb1, 0xbe, 0x20, 0x9b, 0xb5, 0xbd, 0x8d, 0xfb, 0xb5, 0x3d,
            0x71, 0xd6, 0x4a, 0xbd, 0x6e, 0xdc, 0x5e, 0xbe, 0x68, 0x59,
            0x95, 0xbe, 0xaf, 0x38, 0xa8, 0xbd, 0xcc, 0x82, 0x7c, 0x3e,
            0x4a, 0xef, 0x99, 0xbf, 0x55, 0xed, 0x1b, 0xbe, 0xdf, 0x10,
            0xef, 0x3e, 0x77, 0x40, 0x85, 0xbd, 0x3d, 0x9e, 0xb2, 0x3d,
            0x36, 0xb4, 0xe6, 0x3e, 0xaf, 0x8a, 0x79, 0xbe, 0x8a, 0xb1,
            0x5d, 0xbe, 0x69, 0x59, 0x7a, 0xbf, 0x13, 0x94, 0xcd, 0xbe,
            0xfe, 0x4d, 0xba, 0x3e, 0x81, 0xe7, 0x19, 0xbe, 0x9d, 0xf8,
            0x2a, 0x3d, 0x08, 0x11, 0x0e, 0xbe, 0x89, 0x9a, 0x5e, 0x3e,
            0x91, 0x69, 0x5b, 0x3e, 0x94, 0x08, 0xa8, 0xbe, 0xdf, 0x3b,
            0xf9, 0xbc, 0xee, 0xc7, 0x62, 0x3d, 0xf6, 0xf0, 0x05, 0x3e,
            0x42, 0x8d, 0x79, 0xbe, 0xb6, 0xa4, 0xd7, 0x3e, 0x81, 0x43,
            0x91, 0xbd, 0x8d, 0xda, 0x16, 0xbd, 0x03, 0xda, 0x2d, 0xbe,
            0x82, 0xb1, 0xfa, 0x3e, 0xba, 0x27, 0x70, 0xbe, 0x5b, 0x8f,
            0x2d, 0x3e, 0xfc, 0x14, 0x07, 0xbf, 0xc6, 0x84, 0x4b, 0x3e,
            0xc6, 0x8c, 0x08, 0xbd, 0x4d, 0xb1, 0x07, 0x3d, 0x25, 0x69,
            0xd8, 0x3e, 0x3a, 0x92, 0x4e, 0xbd, 0xb4, 0xa3, 0x1e, 0xbf,
            0x8c, 0xee, 0x88, 0x3e, 0xc6, 0x34, 0xc8, 0x3e, 0x33, 0x11,
            0x95, 0x3e, 0xbb, 0xf7, 0x98, 0xbd, 0x36, 0xee, 0x4f, 0x3f,
            0x84, 0x4e, 0x0e, 0xbe, 0x5a, 0x0a, 0x81, 0xbd, 0x68, 0xe2,
            0x1d, 0x3e, 0xd9, 0x66, 0x9f, 0x3e, 0xd5, 0xb7, 0xaf, 0x3e,
            0xd0, 0x4a, 0x1c, 0x3d, 0x3e, 0xd6, 0x47, 0xbe, 0x68, 0x56,
            0x10, 0x3e, 0x03, 0x1a, 0x99, 0xbe, 0xa0, 0x40, 0x09, 0x3f,
            0x34, 0xcb, 0x65, 0x3d, 0xd6, 0x6b, 0xf1, 0x3e, 0x2d, 0x09,
            0xa0, 0xbe, 0x1a, 0x20, 0x3c, 0xbf, 0x33, 0xb5, 0x61, 0xbe,
            0xf9, 0x15, 0x46, 0x3e, 0xfe, 0x4f, 0x32, 0xbe, 0x53, 0x07,
            0x1a, 0x3f, 0x45, 0xc2, 0xa9, 0xbd, 0xeb, 0x77, 0xc0, 0xbd,
            0x5e, 0x1b, 0x71, 0xbe, 0x59, 0xab, 0x88, 0x3e, 0xa3, 0xcd,
            0x2a, 0xbe, 0x90, 0x02, 0x86, 0x3d, 0xaa, 0x86, 0x83, 0x3d,
            0x35, 0x1c, 0x05, 0x3e, 0xd9, 0x81, 0xc0, 0x3d, 0x24, 0x53,
            0x2e, 0x3e, 0x69, 0xb7, 0x4f, 0x3e, 0x77, 0x4d, 0x10, 0xbe,
            0x30, 0x1e, 0xb7, 0xbc, 0xc3, 0x91, 0x2c, 0x3c, 0x24, 0x23,
            0xcd, 0x3e, 0x2f, 0x30, 0x6c, 0x3e, 0xfd, 0x17, 0xc5, 0x3d,
            0x6f, 0xd7, 0xb4, 0xbe, 0x95, 0xb8, 0xa2, 0xbd, 0x8a, 0x32,
            0x2e, 0x3e, 0x26, 0xbb, 0x2c, 0xbe, 0x92, 0x36, 0xc3, 0xbe,
            0x61, 0xeb, 0x67, 0x3e, 0xff, 0x72, 0x21, 0xbe, 0xbc, 0xf8,
            0xd4, 0xbc, 0x6d, 0xf0, 0x36, 0x3e, 0xc7, 0xcd, 0x4e, 0xbc,
            0xaa, 0xbd, 0x19, 0xbe, 0xc1, 0x0a, 0xd4, 0x3d, 0x28, 0x76,
            0x09, 0xbe, 0xc5, 0xa7, 0xd1, 0xbc, 0xad, 0xbc, 0x1d, 0x3c,
            0x38, 0xea, 0xc0, 0x3d, 0x70, 0x55, 0x12, 0xbe, 0x1f, 0x83,
            0x59, 0xbd, 0xb9, 0xde, 0x19, 0xbe, 0xd4, 0x66, 0x4d, 0x3e,
            0x5f, 0x7e, 0x93, 0xbe, 0x20, 0xc4, 0x9e, 0xbe, 0xe1, 0x87,
            0xa9, 0x3c, 0xb2, 0x9a, 0x75, 0x3d, 0x45, 0x1d, 0xe6, 0x3e,
            0xd4, 0x68, 0x6f, 0xbc, 0xe5, 0x61, 0xa9, 0xbe, 0x6c, 0x1a,
            0xbe, 0x3d, 0xbd, 0x1f, 0xbd, 0x3b, 0x37, 0x83, 0x9b, 0xbc,
            0xf1, 0xe6, 0x2b, 0xbe, 0xde, 0x6f, 0xd2, 0x3d, 0xd7, 0x48,
            0x4b, 0xbe, 0x40, 0xde, 0x39, 0x3e, 0x0a, 0xe3, 0xb6, 0x3d,
            0x6d, 0x40, 0xac, 0x3e, 0xae, 0x55, 0x29, 0x3e, 0xa0, 0xd8,
            0x90, 0xbd, 0xe4, 0x3f, 0x66, 0xbe, 0x8a, 0xae, 0x3c, 0x3d,
            0xf1, 0xd7, 0xfa, 0x3d, 0xd5, 0xbe, 0x6f, 0xbd, 0xbb, 0x8b,
            0x3f, 0x3d, 0xae, 0xa3, 0x01, 0xbc, 0x04, 0x17, 0x2c, 0x3e,
            0x89, 0x71, 0x2b, 0x3e, 0xd3, 0x4f, 0x13, 0x3d, 0xef, 0x75,
            0x96, 0xbe, 0x6b, 0x7a, 0x0c, 0x3e, 0xac, 0x36, 0xfa, 0x3d,
            0x51, 0x71, 0xa9, 0xbd, 0x82, 0xa0, 0xf7, 0x3c, 0x8c, 0xc9,
            0xf1, 0xbd, 0xbb, 0xb9, 0xb0, 0x3d, 0xdf, 0x18, 0xc3, 0xbd,
            0x2a, 0xa5, 0x96, 0xbe, 0x79, 0xb8, 0x86, 0xbc, 0x62, 0x56,
            0x2d, 0x3d, 0xb2, 0x00, 0xa2, 0xbc, 0xce, 0x69, 0x39, 0xbd,
            0xb9, 0x1b, 0x1c, 0x3e, 0xbc, 0x0a, 0xa0, 0x3e, 0x8a, 0x18,
            0xa4, 0xbd, 0x00, 0x99, 0x2e, 0x3e, 0x49, 0x99, 0x9d, 0x3e,
            0x76, 0xd1, 0x83, 0x3c, 0x7f, 0x6b, 0x7a, 0xbc, 0xe9, 0x55,
            0xf9, 0x3d, 0x14, 0x1b, 0x58, 0x3e, 0x3a, 0x2f, 0x3a, 0x3c,
            0x39, 0x8d, 0x96, 0x3d, 0x1d, 0xf6, 0x4e, 0x3e, 0xca, 0x87,
            0x1f, 0xbe, 0xaf, 0x6f, 0x81, 0xbe, 0xe0, 0xe7, 0x37, 0xbd,
            0xb2, 0xcc, 0x2c, 0xbc, 0x21, 0xeb, 0xf6, 0x3d, 0x1d, 0x3c,
            0x14, 0xbe, 0x5e, 0x32, 0x50, 0xbe, 0x92, 0x1c, 0xc7, 0xbd,
            0xf8, 0xc6, 0xc6, 0xbd, 0x0b, 0xfc, 0x81, 0xbd, 0x6e, 0x1c,
            0x9e, 0x3c, 0x54, 0x46, 0xf8, 0x3d, 0x3c, 0xc2, 0x52, 0x3d,
            0x65, 0x68, 0x41, 0xbd, 0xc7, 0x43, 0x17, 0xbd, 0xda, 0x2c,
            0x8a, 0xbd, 0x6f, 0x7e, 0x3c, 0x3e, 0x63, 0x27, 0x30, 0xbf,
            0xa7, 0x11, 0x81, 0x3e, 0x9f, 0xb8, 0x33, 0xbe, 0xf9, 0x20,
            0x05, 0xbe, 0x61, 0xc8, 0x91, 0x3d, 0x7a, 0x22, 0x46, 0x3d,
            0xca, 0x94, 0x85, 0x3c, 0xff, 0xd1, 0xb2, 0xbd, 0x03, 0x86,
            0xd3, 0x3c, 0xc8, 0x7e, 0x90, 0x3d, 0xc3, 0x11, 0x07, 0xbd,
            0x4e, 0xb7, 0x86, 0x3e, 0x6a, 0xcf, 0x83, 0xbd, 0xa8, 0xc6,
            0x3d, 0x3e, 0xa9, 0xfd, 0x6b, 0xbd, 0xb6, 0x4c, 0x76, 0x3d,
            0xd0, 0x4d, 0xb0, 0xbd, 0xc3, 0x4c, 0xce, 0xbb, 0x60, 0x74,
            0x16, 0x3d, 0x6b, 0x71, 0x33, 0x3e, 0xa6, 0xa7, 0x13, 0xbc,
            0x11, 0x79, 0x9a, 0xbd, 0x8f, 0x71, 0xc6, 0xbd, 0x53, 0x9f,
            0x82, 0x3d, 0x85, 0xa1, 0x44, 0x3e, 0x13, 0x24, 0x57, 0xbe,
            0x86, 0x53, 0xe0, 0x3b, 0x62, 0xf6, 0x3a, 0xbe, 0x93, 0xc1,
            0x11, 0x3e, 0xf5, 0x3c, 0x9b, 0x3c, 0x98, 0x3c, 0xcd, 0xbc,
            0x34, 0xd4, 0xd3, 0x3c, 0xf5, 0x46, 0x6f, 0xbe, 0x3e, 0x10,
            0x32, 0x3e, 0x30, 0xef, 0x45, 0xbe, 0x45, 0x2a, 0xfd, 0xbd,
            0xe9, 0x44, 0x3a, 0x3d, 0xf6, 0xc2, 0x40, 0xbe, 0xbd, 0xaa,
            0xb5, 0x3c, 0x1d, 0x53, 0xca, 0xbd, 0x82, 0x6e, 0x43, 0xbe,
            0x25, 0x83, 0x65, 0x3d, 0x21, 0x72, 0x14, 0x3d, 0x6e, 0x89,
            0xdd, 0x3d, 0x9e, 0x8b, 0x54, 0xbe, 0xe2, 0x85, 0xa7, 0xbb,
            0x1a, 0xbb, 0x58, 0xbc, 0xff, 0xbd, 0x15, 0xbd, 0xa3, 0x8b,
            0x46, 0xbe, 0xd1, 0x8b, 0xa5, 0x3d, 0xc9, 0xdf, 0xaf, 0xbd,
            0xa2, 0x81, 0x44, 0x3c, 0x5e, 0xee, 0x0a, 0xbe, 0xe7, 0xed,
            0x4e, 0xbe, 0xd0, 0x69, 0x48, 0xbe, 0x8c, 0x25, 0x20, 0x3e,
            0x2a, 0x22, 0xdd, 0x3d, 0x54, 0xe3, 0x2c, 0xbe, 0x22, 0x3e,
            0x8b, 0xbd, 0xc6, 0xe4, 0x3d, 0x3e, 0x21, 0xf7, 0x40, 0xbe,
            0x65, 0x71, 0x1a, 0xbe, 0xde, 0x44, 0xc9, 0xbd, 0xf4, 0xb6,
            0x03, 0x3e, 0xf8, 0xe1, 0xaf, 0x3c, 0xe9, 0xb8, 0x14, 0x3e,
            0x37, 0x96, 0x78, 0x3d, 0x78, 0x1e, 0x61, 0xbe, 0x9e, 0x64,
            0x26, 0x3c, 0xf5, 0xaa, 0x32, 0x3c, 0x06, 0x7f, 0x90, 0xbd,
            0x3e, 0x70, 0x53, 0xbe, 0x16, 0x37, 0x05, 0xbe, 0x02, 0x99,
            0x36, 0xbe, 0x3d, 0x53, 0x8c, 0x3d, 0x0b, 0xc4, 0x85, 0xbe,
            0xb7, 0x38, 0x80, 0xbb, 0x00, 0xac, 0xfd, 0x3c, 0x7e, 0x09,
            0x5b, 0xbe, 0x71, 0xfd, 0x3a, 0xbb, 0x4b, 0x71, 0x70, 0xbc,
            0xea, 0xa0, 0x86, 0x3c, 0xf9, 0x9e, 0x5c, 0x3e, 0x45, 0xe6,
            0x69, 0xbe, 0x52, 0x7e, 0x48, 0x3e, 0xad, 0x51, 0xa1, 0xbd,
            0xdb, 0xc2, 0x09, 0xbe, 0xd2, 0x5f, 0x0a, 0x3e, 0x9c, 0x55,
            0xf5, 0x3e, 0x00, 0x84, 0xc5, 0xbe, 0x83, 0x0f, 0x4e, 0x3e,
            0x84, 0xd5, 0xdc, 0xbe, 0x9c, 0x5c, 0x3c, 0xbc, 0xd1, 0x72,
            0xf9, 0x3d, 0xc5, 0x03, 0x85, 0x3e, 0x62, 0xe8, 0xb1, 0x3c,
            0xc1, 0x5b, 0xba, 0xbe, 0x97, 0x43, 0x47, 0x3d, 0x8c, 0xf3,
            0x14, 0x3d, 0x4c, 0xe8, 0x2a, 0xbf, 0xb0, 0x95, 0x1f, 0x3e,
            0xa9, 0xed, 0x1e, 0x3d, 0xbb, 0xf0, 0x88, 0x3e, 0x9c, 0x88,
            0xf8, 0x3e, 0xba, 0x7c, 0x8a, 0xbd, 0x2e, 0xab, 0x84, 0xbc,
            0x10, 0x28, 0x8f, 0x3d, 0x95, 0xeb, 0x52, 0xbe, 0xd4, 0xd7,
            0x9a, 0x3e, 0x50, 0x62, 0xa0, 0x3e, 0xcb, 0x32, 0x47, 0xbd,
            0xf4, 0xc1, 0xb0, 0xbe, 0x91, 0x3b, 0x70, 0xbc, 0xa8, 0x6d,
            0xe5, 0xbe, 0x2c, 0xd1, 0xc2, 0x3e, 0xf8, 0x6c, 0x9c, 0x3e,
            0xb3, 0xa3, 0xba, 0xbe, 0x1d, 0xfb, 0x05, 0xbe, 0x05, 0x4f,
            0xcb, 0xbd, 0xe8, 0xb0, 0x15, 0xbe, 0xda, 0x2c, 0x23, 0x3c,
            0x02, 0xa0, 0x8e, 0x3e, 0x86, 0x4b, 0x8e, 0x3e, 0x03, 0x2a,
            0x2d, 0xbe, 0x60, 0x53, 0x23, 0xbe, 0xaa, 0xf7, 0xfc, 0xbd,
            0x12, 0xe7, 0xff, 0xbe, 0xd4, 0xfd, 0x15, 0x3e, 0x6e, 0x35,
            0x6c, 0xbe, 0x50, 0xb6, 0x70, 0x3e, 0x69, 0x7c, 0xe3, 0x3d,
            0x26, 0x10, 0x53, 0xbe, 0xa0, 0x24, 0x90, 0x3d, 0xc0, 0x96,
            0x84, 0x3e, 0x7f, 0x29, 0x4a, 0x3e, 0x6e, 0x42, 0x02, 0xbe,
            0x08, 0x0a, 0xbb, 0x3e, 0xcd, 0x32, 0xd3, 0x3d, 0xc6, 0xd6,
            0x45, 0xbe, 0xce, 0xa8, 0x11, 0xbd, 0xcf, 0x82, 0x94, 0xbe,
            0x8c, 0xd7, 0x37, 0xbd, 0x2e, 0x81, 0x46, 0xbe, 0xe4, 0xd4,
            0x6c, 0xbd, 0xf4, 0x04, 0x68, 0x3e, 0x55, 0x2e, 0x8a, 0xbd,
            0xdb, 0x56, 0x56, 0x3e, 0x5d, 0x1a, 0x4d, 0x3e, 0x98, 0x12,
            0x86, 0xbd, 0xf3, 0x0f, 0x3b, 0x3e, 0xbf, 0xdd, 0xe7, 0xbd,
            0xfb, 0x17, 0x52, 0x3d, 0xd4, 0x0f, 0x3a, 0x3f, 0xe9, 0x17,
            0xbf, 0xbe, 0xc6, 0x5c, 0x9a, 0xbe, 0xed, 0x2f, 0x61, 0xbe,
            0x64, 0x29, 0x0a, 0x3f, 0xfa, 0x1a, 0xd8, 0xbd, 0x0f, 0x1d,
            0xae, 0x3e, 0xa3, 0x79, 0xcd, 0x3d, 0x55, 0x97, 0x97, 0x3e,
            0x08, 0x75, 0xd4, 0x3c, 0xbe, 0x99, 0x36, 0xbd, 0x70, 0x9c,
            0xd6, 0xbc, 0xff, 0x46, 0x9c, 0xbe, 0x0b, 0xe0, 0x94, 0xbe,
            0xbf, 0xb7, 0xe0, 0xbd, 0x74, 0x48, 0x9c, 0x3d, 0x6c, 0xc7,
            0xba, 0x3d, 0x99, 0x7b, 0xa4, 0x3e, 0x33, 0x1c, 0x4c, 0xbc,
            0x07, 0x75, 0xa7, 0x3e, 0x3e, 0x40, 0x25, 0x3e, 0x64, 0x66,
            0xae, 0xbd, 0x64, 0xb2, 0x62, 0x3e, 0xea, 0x5a, 0x48, 0xbe,
            0x02, 0x64, 0x93, 0xbe, 0x02, 0x71, 0x7a, 0xbe, 0xcc, 0xaa,
            0xab, 0x3d, 0xfb, 0xbd, 0x1c, 0x3e, 0xb1, 0xc2, 0xdd, 0xbe,
            0x3c, 0xdb, 0x09, 0xbe, 0xdf, 0xf9, 0x83, 0x3e, 0x29, 0x10,
            0x05, 0xbf, 0x5f, 0xab, 0xbc, 0xbb, 0xd9, 0x94, 0x10, 0xbf,
            0x11, 0x04, 0x1a, 0xbe, 0x56, 0x6f, 0xec, 0x3c, 0x9d, 0x75,
            0xa9, 0x3e, 0xdb, 0x76, 0x0a, 0xbd, 0x3a, 0x16, 0xc6, 0x3d,
            0x9e, 0x71, 0x71, 0x3d, 0x08, 0xac, 0xea, 0xbe, 0x51, 0x12,
            0x1b, 0x3e, 0x99, 0x41, 0x27, 0x3e, 0xd6, 0x37, 0x6c, 0xbd,
            0xd4, 0xb9, 0x97, 0x3d, 0x34, 0x18, 0x53, 0x3e, 0x42, 0x83,
            0xd1, 0xbd, 0xf0, 0x5d, 0x0c, 0x3e, 0x7e, 0x1a, 0x92, 0xbe,
            0x74, 0xa8, 0x1f, 0xbe, 0x73, 0xec, 0x88, 0x3e, 0x09, 0x8d,
            0xed, 0x3d, 0xa6, 0x36, 0x30, 0xbe, 0x5e, 0xc1, 0x99, 0x3e,
            0xce, 0x39, 0x13, 0xbe, 0x6d, 0x47, 0x94, 0x3e, 0x39, 0x8c,
            0x9e, 0x3e, 0xa9, 0x93, 0xd8, 0xbc, 0x35, 0x47, 0x8d, 0xbd,
            0xe8, 0x3f, 0x9e, 0xbd, 0xc2, 0xa0, 0xc4, 0xbd, 0x8b, 0xfd,
            0x06, 0x3f, 0xd9, 0xd6, 0x05, 0x3c, 0x32, 0xd9, 0x5b, 0xbd,
            0x06, 0xf9, 0x0f, 0xbe, 0x0b, 0x14, 0xa3, 0x3e, 0x8b, 0x40,
            0x74, 0xbc, 0xf4, 0x7c, 0x99, 0xbe, 0x57, 0xad, 0x16, 0xbe,
            0xab, 0xdf, 0xee, 0xbd, 0xe4, 0xc9, 0x91, 0x3d, 0x94, 0x46,
            0x88, 0x3e, 0x4f, 0x6c, 0x82, 0xbe, 0xbd, 0x42, 0x8f, 0x3e,
            0x3c, 0x1e, 0xc5, 0x3d, 0xf2, 0xfa, 0x59, 0xbd, 0xcb, 0x24,
            0x28, 0x3f, 0xfa, 0x0c, 0xb4, 0xbb, 0x7f, 0x58, 0xe3, 0xbc,
            0xd7, 0x52, 0xb7, 0x3e, 0x62, 0x07, 0x8d, 0xbe, 0x6b, 0xab,
            0xa1, 0x3e, 0xa9, 0x5f, 0xb0, 0xbd, 0x0e, 0x03, 0x2a, 0x3f,
            0x39, 0x6b, 0x88, 0xbc, 0x8a, 0x3f, 0x08, 0x3e, 0x8d, 0x62,
            0x06, 0xbe, 0x7e, 0x52, 0x06, 0xbe, 0x17, 0x48, 0xde, 0xbe,
            0xf2, 0xb5, 0x21, 0x3d, 0xbb, 0xb7, 0x99, 0xbd, 0x01, 0x6b,
            0x5d, 0x3d, 0x55, 0x03, 0x3a, 0xbe, 0x5d, 0x4b, 0xf1, 0xbe,
            0xd4, 0x9d, 0x10, 0x3e, 0x4c, 0x93, 0xf3, 0xbd, 0x45, 0x80,
            0x38, 0x3e, 0x05, 0xd8, 0x64, 0xbe, 0x99, 0xca, 0xc5, 0x3e,
            0x13, 0x92, 0x2d, 0xbd, 0x5b, 0x91, 0x16, 0x3d, 0x03, 0xd1,
            0xe0, 0xbd, 0x44, 0x8e, 0xa0, 0xbe, 0x22, 0x2f, 0x2d, 0x3e,
            0xbf, 0x05, 0x79, 0xbe, 0x70, 0x38, 0x1c, 0xbf, 0xb6, 0xba,
            0x06, 0x3d, 0x05, 0xa1, 0xbe, 0xbd, 0xbd, 0x07, 0xb0, 0xbd,
            0x2f, 0x87, 0x02, 0xbf, 0xa6, 0xf3, 0x2c, 0xbe, 0x44, 0xa0,
            0x4a, 0xbe, 0x3a, 0x98, 0xb8, 0xbe, 0x20, 0x4d, 0x1f, 0x3e,
            0xb5, 0xf9, 0x8b, 0xbe, 0x0a, 0xc5, 0x8f, 0x3d, 0x62, 0x42,
            0x9d, 0x3e, 0xa5, 0x81, 0x44, 0x3e, 0x8d, 0x62, 0x14, 0xbd,
            0xc0, 0x4b, 0x95, 0x3e, 0x31, 0x8c, 0x19, 0x3e, 0x6b, 0x43,
            0x46, 0xbe, 0x58, 0xe1, 0xef, 0x3d, 0x2b, 0xd6, 0x90, 0x3d,
            0x33, 0x85, 0x46, 0xbe, 0xeb, 0x90, 0x96, 0x3d, 0x53, 0x7c,
            0x17, 0x3e, 0x66, 0xcc, 0x95, 0xbe, 0x42, 0xf4, 0xd1, 0xbe,
            0xe5, 0xca, 0x9b, 0x3d, 0x36, 0xf8, 0x1d, 0xbf, 0xc6, 0x83,
            0x7b, 0x3e, 0x04, 0xfa, 0xea, 0x3b, 0x70, 0xa9, 0xab, 0x3c,
            0x98, 0x6a, 0x28, 0xbe, 0x72, 0xad, 0xec, 0xbd, 0x41, 0x84,
            0x4e, 0x3e, 0x5f, 0x60, 0x6c, 0xbe, 0xea, 0xf0, 0xa7, 0xbc,
            0x76, 0x62, 0x0d, 0xbe, 0x36, 0x56, 0x04, 0x3e, 0x9b, 0xcb,
            0xd0, 0x3d, 0xc2, 0x70, 0x43, 0x3e, 0x70, 0x2f, 0x40, 0xbe,
            0x78, 0x9a, 0x8c, 0x3d, 0x74, 0xcf, 0xd8, 0x3e, 0x1d, 0x8d,
            0x6b, 0x3e, 0xa4, 0xb3, 0x95, 0xbe, 0xca, 0xbf, 0x82, 0xbe,
            0xe4, 0xe4, 0x39, 0xbe, 0xdb, 0x3d, 0xbd, 0xbd, 0xed, 0x05,
            0xf9, 0xbd, 0xa6, 0xd2, 0x04, 0x3f, 0x95, 0x48, 0x6f, 0x3e,
            0x4b, 0xce, 0x29, 0x3f, 0x05, 0x4c, 0xff, 0x3d, 0xd4, 0xbf,
            0xe3, 0x3e, 0x78, 0x7a, 0x81, 0x3e, 0xad, 0xfb, 0x43, 0x3d,
            0xec, 0xc9, 0x8c, 0x3c, 0x82, 0xfd, 0x98, 0x3e, 0x0d, 0xee,
            0x5c, 0xbe, 0x7c, 0x99, 0xc6, 0xbe, 0x31, 0x10, 0x03, 0xbe,
            0x90, 0x76, 0xf9, 0x3e, 0x2d, 0xfb, 0xe2, 0xbe, 0x32, 0x36,
            0x27, 0xbe, 0xff, 0x83, 0x90, 0x3d, 0x94, 0xcf, 0xbb, 0xbd,
            0x7d, 0x29, 0xfd, 0xbd, 0x24, 0xae, 0xac, 0xbd, 0x85, 0xa2,
            0xfd, 0xbd, 0x71, 0xf6, 0x8a, 0x3e, 0x8f, 0xdb, 0xb2, 0xbd,
            0x6d, 0x5e, 0x21, 0xbc, 0x57, 0x11, 0x23, 0xbe, 0x2d, 0xca,
            0x72, 0x3c, 0x61, 0x13, 0x02, 0x3f, 0xbf, 0xda, 0xb6, 0xbe,
            0x03, 0x95, 0x07, 0xbe, 0xd6, 0x8d, 0x0e, 0x3d, 0xc4, 0xf2,
            0xbc, 0x3e, 0x0e, 0xe6, 0x5b, 0xbd, 0x8b, 0x03, 0x96, 0xbc,
            0xca, 0xc7, 0x54, 0xbe, 0x27, 0x32, 0x89, 0xbe, 0x36, 0x7e,
            0x17, 0x3e, 0x03, 0x1d, 0x6b, 0x3e, 0xef, 0x94, 0x57, 0x3d,
            0x57, 0xd5, 0x6e, 0x3e, 0xa7, 0x56, 0x1b, 0x3e, 0x83, 0xcc,
            0xa3, 0x3d, 0xf4, 0x95, 0x8c, 0x3d, 0xf8, 0x0c, 0x87, 0x3e,
            0x25, 0x88, 0x56, 0xbf, 0x66, 0xc9, 0x3d, 0xbc, 0xed, 0x64,
            0x18, 0x3e, 0xc8, 0x11, 0xb9, 0xbe, 0x29, 0x0d, 0x87, 0x3e,
            0x16, 0x80, 0x7a, 0x3e, 0xbd, 0x0d, 0x2f, 0xbe, 0x1f, 0x22,
            0x0f, 0x3d, 0x43, 0xae, 0x48, 0x3d, 0x33, 0x4f, 0x9b, 0x3d,
            0xe4, 0x3d, 0x05, 0x3f, 0x2d, 0x54, 0x15, 0xbc, 0x0e, 0xfb,
            0x37, 0x3e, 0x28, 0xe2, 0x09, 0x3f, 0x6d, 0xfc, 0x03, 0x3e,
            0x97, 0x95, 0x44, 0xbf, 0x59, 0x3f, 0x7b, 0xbe, 0x32, 0x3f,
            0x8f, 0xbd, 0x7a, 0x35, 0x5d, 0xbe, 0xba, 0xcc, 0xac, 0xbd,
            0xc9, 0xb5, 0x6a, 0xbe, 0xf3, 0x5b, 0x1a, 0x3e, 0xec, 0xf6,
            0xcb, 0x3e, 0x6e, 0xe1, 0x9e, 0xbd, 0x06, 0x12, 0x0f, 0x3f,
            0x48, 0x9f, 0x23, 0x3e, 0xe9, 0x11, 0x7b, 0xbc, 0xe4, 0xeb,
            0x61, 0xbe, 0xb1, 0x84, 0x5d, 0xbe, 0x65, 0xf4, 0xde, 0xbb,
            0x9b, 0xba, 0xc0, 0xbd, 0x79, 0x3c, 0x65, 0x3e, 0x60, 0xcc,
            0xc7, 0x3e, 0x95, 0x45, 0x01, 0xbe, 0x1c, 0xf4, 0x08, 0xbe,
            0x59, 0x13, 0xfe, 0x3d, 0x2d, 0xe9, 0xca, 0xbe, 0x88, 0x31,
            0x01, 0xbf, 0x2a, 0x27, 0xe8, 0xbe, 0x50, 0x41, 0x69, 0xbc,
            0x0a, 0x6c, 0xa5, 0xbe, 0xb9, 0x80, 0xd4, 0x3c, 0x09, 0x79,
            0xd2, 0x3d, 0xec, 0x8e, 0x5c, 0x3e, 0xf9, 0x02, 0x0d, 0xbe,
            0x58, 0x82, 0x91, 0x3d, 0x0a, 0x27, 0x9d, 0x3e, 0xa0, 0x9f,
            0x2d, 0x3e, 0xb7, 0x4a, 0xf4, 0xbd, 0x0b, 0xd5, 0x8d, 0x3d,
            0xfa, 0x82, 0x47, 0xbe, 0x8a, 0x6d, 0x89, 0xbe, 0x09, 0x7a,
            0xa7, 0xbe, 0xa2, 0x65, 0xd0, 0xbe, 0x58, 0x9e, 0x81, 0x3d,
            0x68, 0xb8, 0x10, 0xbf, 0x8e, 0x9e, 0x57, 0x3f, 0x69, 0x72,
            0x08, 0xbe, 0xd1, 0xfc, 0x68, 0x3e, 0x11, 0x9b, 0x33, 0x3e,
            0x88, 0x3b, 0xa7, 0x3d, 0xbf, 0x60, 0x05, 0xbe, 0x73, 0xc8,
            0x3b, 0x3e, 0xab, 0xfe, 0xb1, 0xbe, 0x93, 0x04, 0x7a, 0xbe,
            0x4a, 0x57, 0x98, 0xbe, 0xbc, 0x8a, 0xcb, 0x3e, 0xea, 0x3e,
            0x7e, 0xbe, 0x08, 0xf9, 0xfd, 0x3c, 0x96, 0xb7, 0x1c, 0xbf,
            0x1c, 0xbd, 0x93, 0x3d, 0x24, 0xbd, 0x92, 0xbd, 0xdc, 0x3a,
            0xf5, 0x3b, 0x54, 0x1a, 0xa4, 0x3e, 0x76, 0x4c, 0xd9, 0x3e,
            0xbe, 0xbf, 0xa9, 0xbe, 0x60, 0x58, 0xfa, 0x3e, 0x76, 0x22,
            0xe2, 0xbe, 0xa2, 0x67, 0xfc, 0xbd, 0x86, 0x10, 0xac, 0xbe,
            0xf8, 0x79, 0x3c, 0xbb, 0xa9, 0xe1, 0x38, 0x3e, 0x0a, 0x6c,
            0x7c, 0x3e, 0x4d, 0xbc, 0x03, 0xbd, 0xd0, 0x9c, 0x98, 0xbe,
            0x80, 0x18, 0x26, 0x3d, 0x0b, 0x82, 0x78, 0xbe, 0x20, 0x25,
            0xfd, 0x3e, 0xcc, 0x52, 0x3b, 0x3e, 0x50, 0x4b, 0x11, 0xbf,
            0x54, 0x65, 0x01, 0xc0, 0x90, 0x56, 0x06, 0x3f, 0xbf, 0x02,
            0xf1, 0x3d, 0x21, 0xb5, 0x07, 0x3f, 0x5a, 0x5c, 0x04, 0xbf,
            0x3b, 0xa5, 0x50, 0x3e, 0x16, 0x98, 0x5e, 0xbe, 0xcb, 0x5a,
            0x48, 0x3e, 0xa5, 0x97, 0x8d, 0x3e, 0xf0, 0xd1, 0x29, 0x3e,
            0xa8, 0xb5, 0x61, 0xbd, 0x48, 0x89, 0x56, 0xbe, 0x7b, 0x5f,
            0xa5, 0xbf, 0xac, 0xe5, 0xc3, 0xbf, 0xdb, 0x45, 0x26, 0x3d,
            0xdb, 0x23, 0xc0, 0xbe, 0x05, 0xf9, 0x4d, 0x3d, 0x9f, 0x26,
            0x56, 0x3e, 0x4f, 0x05, 0x52, 0xbd, 0x68, 0x3d, 0x05, 0x3f,
            0xc6, 0x4f, 0x15, 0x3e, 0x3a, 0x36, 0x85, 0xbd, 0xeb, 0xb1,
            0x75, 0xbc, 0xcd, 0x7c, 0x55, 0x3e, 0x03, 0x01, 0xcd, 0xbd,
            0xcd, 0x1d, 0xf2, 0x3d, 0xb5, 0x1b, 0x89, 0x3d, 0xc1, 0x78,
            0xb0, 0xbd, 0x41, 0xf3, 0x93, 0x3e, 0x34, 0xb8, 0x2b, 0xbe,
            0x4b, 0xda, 0x34, 0xbf, 0x3e, 0xb7, 0x4f, 0xbe, 0x2c, 0x5f,
            0x52, 0x3e, 0x7c, 0x3e, 0x2c, 0x3f, 0xfb, 0x2d, 0x82, 0xbe,
            0xbb, 0xdb, 0x6d, 0x3e, 0x90, 0x9b, 0xe6, 0x3e, 0x82, 0xd1,
            0xde, 0x3d, 0x97, 0xc0, 0x47, 0x3d, 0xe7, 0xb8, 0x6b, 0x3e,
            0x2f, 0x18, 0x0e, 0x3e, 0xad, 0xb6, 0x4d, 0xbd, 0x93, 0xdd,
            0x93, 0x3c, 0x80, 0x4e, 0x02, 0xbd, 0x96, 0x1d, 0x4e, 0x3e,
            0x71, 0x47, 0x6d, 0xbe, 0xc6, 0x5a, 0x1f, 0x3d, 0x65, 0x9b,
            0x70, 0xbd, 0x8e, 0x8b, 0x23, 0x3e, 0x84, 0x6b, 0x10, 0xbe,
            0xec, 0x42, 0xe8, 0x3d, 0xa1, 0x43, 0x4f, 0x3e, 0x23, 0x1e,
            0x5d, 0xbe, 0x99, 0x44, 0x01, 0x3d, 0x3b, 0xea, 0x5c, 0xbe,
            0xce, 0x32, 0x9f, 0x3e, 0x43, 0x23, 0xd8, 0xbd, 0xdd, 0xc0,
            0xb6, 0x3d, 0xda, 0xe8, 0x08, 0x3d, 0x85, 0x45, 0x7d, 0xbd,
            0x90, 0x61, 0xe9, 0xbd, 0x07, 0xfc, 0xfa, 0x3d, 0x85, 0x84,
            0x25, 0xbc, 0xb8, 0xfd, 0x3c, 0xbd, 0xf3, 0x7a, 0xf7, 0xbe,
            0x89, 0xe8, 0xd9, 0xbe, 0x89, 0x81, 0xc4, 0x3b, 0x8f, 0x7c,
            0x34, 0xbd, 0x93, 0x78, 0x05, 0xbe, 0xd6, 0x5f, 0x46, 0xbe,
            0xa1, 0x52, 0xc3, 0xbd, 0xb0, 0xf7, 0xd5, 0x3d, 0x04, 0x75,
            0x80, 0x3e, 0x03, 0x92, 0xbb, 0xbc, 0xf6, 0x44, 0xb8, 0x3d,
            0x52, 0x4b, 0xdc, 0x3d, 0x23, 0xbd, 0x85, 0xbe, 0x02, 0x49,
            0x93, 0xbe, 0x89, 0x6a, 0xae, 0xbd, 0xdb, 0xee, 0xa2, 0x3c,
            0xc3, 0xf2, 0x96, 0x3d, 0x1c, 0x07, 0x81, 0x3c, 0xc7, 0xb9,
            0x2f, 0xbe, 0x36, 0xa8, 0x5d, 0xbd, 0x6f, 0x25, 0x71, 0x3e,
            0x20, 0x89, 0x1d, 0x3d, 0x53, 0x91, 0xf3, 0xbc, 0x69, 0x40,
            0x36, 0x3d, 0x01, 0x07, 0x3d, 0x3d, 0xf1, 0xce, 0x09, 0x3d,
            0x2c, 0xeb, 0x00, 0xbe, 0xe1, 0xaa, 0xfc, 0x3d, 0xb5, 0x6a,
            0x93, 0x3c, 0x26, 0xa2, 0x89, 0x3d, 0x4f, 0x6d, 0xe6, 0xbc,
            0x55, 0x1c, 0xe7, 0xbc, 0xb1, 0x3b, 0x30, 0xbb, 0xa1, 0x92,
            0x78, 0xbe, 0x6b, 0xd7, 0x1e, 0x3d, 0x21, 0x3a, 0xf4, 0xbd,
            0x97, 0x90, 0x30, 0x3e, 0x0e, 0x41, 0x9f, 0xbe, 0x78, 0x9c,
            0xec, 0x3e, 0xa1, 0xdd, 0x2b, 0x3e, 0xe6, 0xa6, 0xfb, 0x3d,
            0x65, 0x16, 0x17, 0x3e, 0x6b, 0xf8, 0x31, 0xbe, 0xb1, 0x89,
            0xa5, 0xbe, 0xda, 0xf4, 0x94, 0xbe, 0x68, 0x09, 0x57, 0xbe,
            0x66, 0x44, 0xe5, 0x3c, 0xa5, 0x57, 0x24, 0xbe, 0xaa, 0x95,
            0xcb, 0xbe, 0xaa, 0x3c, 0x99, 0xbd, 0xf0, 0x34, 0xc7, 0x3e,
            0xc9, 0x93, 0xdc, 0xbd, 0x98, 0x4d, 0x65, 0xbc, 0x1b, 0x0b,
            0x9b, 0x3e, 0xf2, 0x32, 0x28, 0x3d, 0xee, 0x15, 0x91, 0x3e,
            0xde, 0x66, 0x7c, 0xbe, 0x7e, 0x14, 0x3d, 0xbc, 0x2d, 0x2e,
            0x7a, 0x3e, 0x93, 0x28, 0x67, 0x3d, 0x2d, 0xbc, 0xeb, 0xbd,
            0xf9, 0xb0, 0x17, 0xbe, 0x7a, 0x9a, 0xf8, 0x3d, 0x17, 0xf7,
            0x4c, 0x3e, 0x47, 0xe3, 0x47, 0xbe, 0x5c, 0xb3, 0x06, 0xbe,
            0x69, 0xe1, 0x24, 0xbd, 0xfe, 0x51, 0x93, 0xbd, 0x10, 0xa9,
            0x6e, 0xbc, 0x30, 0xad, 0x6c, 0x3c, 0x46, 0x32, 0x86, 0x3d,
            0xf2, 0x69, 0xf3, 0x3c, 0x66, 0x63, 0x44, 0x3e, 0xc3, 0xb3,
            0x05, 0xbe, 0xd0, 0x9e, 0x84, 0x3e, 0xec, 0xd3, 0x77, 0x39,
            0x07, 0x9e, 0x10, 0x3e, 0x6a, 0xa7, 0x0c, 0xbf, 0x33, 0x2e,
            0xf7, 0xbd, 0xf3, 0x26, 0x33, 0x3e, 0x54, 0xc1, 0x83, 0xbe,
            0xdd, 0x78, 0xbe, 0xbd, 0x51, 0x45, 0x0b, 0xbe, 0x3e, 0x60,
            0x80, 0x3d, 0xa8, 0x8a, 0x07, 0xbc, 0x74, 0x6d, 0x68, 0xbc,
            0xd6, 0x10, 0x8f, 0x3c, 0x21, 0x0a, 0x15, 0xbe, 0xc6, 0x91,
            0x2b, 0x3e, 0x0c, 0x8c, 0x26, 0xbe, 0xa4, 0x53, 0x65, 0x3c,
            0x78, 0xca, 0xc9, 0x3e, 0x42, 0x80, 0x02, 0x3e, 0xd8, 0xef,
            0xeb, 0x3d, 0xcb, 0x3a, 0xff, 0xbd, 0xe8, 0x4c, 0xe3, 0x3d,
            0xa3, 0xe6, 0x58, 0x3c, 0xae, 0x61, 0x22, 0x3e, 0x4d, 0x23,
            0x3f, 0xbe, 0x40, 0xe0, 0x28, 0xbe, 0x58, 0x90, 0x0d, 0x3e,
            0xb3, 0xd0, 0x8a, 0xbe, 0xe3, 0xcf, 0xae, 0xbd, 0x18, 0x39,
            0x6c, 0x3e, 0x60, 0xf7, 0x56, 0x3d, 0x43, 0x3c, 0x1d, 0x3e,
            0x7a, 0xf2, 0xe6, 0x3e, 0xd5, 0xfa, 0x39, 0xbe, 0xb8, 0x0f,
            0xb4, 0xbe, 0x17, 0x6f, 0x8e, 0x3e, 0x53, 0xa4, 0x8b, 0x3d,
            0x04, 0x73, 0xb8, 0xbc, 0x91, 0x94, 0xe5, 0x3c, 0x4a, 0xa6,
            0xbe, 0x3e, 0x82, 0x37, 0x62, 0x3d, 0xe5, 0x8c, 0xdf, 0xbc,
            0xb5, 0xc9, 0x79, 0x3e, 0xea, 0xa4, 0xda, 0xbe, 0xec, 0x2d,
            0xf9, 0x3e, 0x32, 0x68, 0x90, 0x3d, 0x9a, 0xd8, 0x04, 0xbe,
            0x81, 0xc9, 0x0d, 0xbe, 0x87, 0xdc, 0x4f, 0xbd, 0x80, 0x0c,
            0xca, 0x3c, 0x0d, 0x9c, 0xb0, 0x3e, 0x2b, 0xf9, 0x56, 0x3d,
            0xb1, 0x40, 0xcc, 0x3e, 0x1e, 0xaf, 0x1e, 0x3e, 0x92, 0x8f,
            0xc5, 0x3e, 0x9a, 0x0a, 0xe3, 0x3e, 0xcd, 0x71, 0xcd, 0xbe,
            0x2c, 0x4b, 0x0b, 0xbe, 0x9d, 0xf0, 0xa1, 0x3e, 0xac, 0xb2,
            0xb4, 0x3e, 0x13, 0x91, 0x0a, 0x3e, 0xaf, 0x01, 0xd5, 0xbb,
            0x6e, 0x41, 0xe9, 0x3d, 0xa6, 0x55, 0x9b, 0xbe, 0xe8, 0x9b,
            0x77, 0x3d, 0xb2, 0xf4, 0x1a, 0xbf, 0x69, 0x39, 0x0d, 0xbf,
            0x0c, 0xd5, 0xd0, 0x3e, 0xc9, 0x35, 0x9d, 0xbd, 0xf4, 0x9b,
            0x0d, 0xbe, 0x81, 0x54, 0x25, 0xba, 0x27, 0x9e, 0x22, 0xbe,
            0x82, 0x8c, 0x3a, 0xbe, 0x29, 0x38, 0xfe, 0xbd, 0xba, 0x01,
            0x91, 0xbd, 0x83, 0xed, 0x45, 0x3e, 0x04, 0xc2, 0xd2, 0x3b,
            0x8b, 0x47, 0x1a, 0xbe, 0x3a, 0x1f, 0x90, 0x3d, 0xc0, 0xca,
            0x46, 0x3d, 0xf4, 0xb1, 0x9c, 0xbd, 0x6b, 0x97, 0x69, 0xbe,
            0x17, 0x2c, 0x30, 0x3e, 0xbb, 0x12, 0x81, 0xbe, 0x0f, 0x19,
            0x07, 0x3d, 0x59, 0x83, 0x4f, 0xbd, 0x4d, 0x6c, 0x73, 0xbc,
            0x82, 0x47, 0x1f, 0xbd, 0x76, 0xd1, 0x21, 0x3d, 0x3b, 0x0a,
            0xf6, 0xbc, 0x25, 0xfa, 0xaa, 0xbd, 0x17, 0xa1, 0x4f, 0x3d,
            0xae, 0x60, 0x1d, 0xbe, 0x7c, 0xfa, 0x60, 0xbe, 0x7b, 0xe5,
            0x70, 0xbe, 0xdd, 0x6a, 0x48, 0xbe, 0x51, 0x3b, 0x60, 0xbe,
            0x24, 0xe7, 0x7b, 0xbe, 0xf6, 0x67, 0x27, 0xbd, 0xb3, 0x35,
            0xff, 0xbd, 0xe7, 0x2d, 0x0e, 0x3e, 0x33, 0xcb, 0x1a, 0x3e,
            0x64, 0x7a, 0x3d, 0xbe, 0xa1, 0x75, 0x49, 0xbe, 0x27, 0x3c,
            0x07, 0xbe, 0x0a, 0xb3, 0x7b, 0xbe, 0x6d, 0xeb, 0x12, 0x3e,
            0x3c, 0x23, 0x2e, 0xbc, 0x74, 0xe0, 0x99, 0xbd, 0x0d, 0x4f,
            0xd9, 0x3d, 0xe0, 0xf8, 0x64, 0xbe, 0x90, 0x7a, 0x3d, 0x3e,
            0x95, 0xdb, 0x9e, 0x3c, 0x97, 0x6f, 0x22, 0xbe, 0xfd, 0x77,
            0xbe, 0x3c, 0x0e, 0xa3, 0x93, 0xbd, 0x95, 0xe8, 0x53, 0xbd,
            0xdf, 0x0e, 0xfe, 0xbc, 0x6c, 0x73, 0x05, 0x3e, 0x4b, 0x54,
            0x6a, 0xbe, 0x89, 0x85, 0xa5, 0x3d, 0xb3, 0x17, 0x45, 0xbe,
            0x88, 0xda, 0x53, 0xbe, 0xc4, 0x11, 0x6e, 0xbe, 0x1e, 0x9e,
            0x2d, 0x3d, 0x9d, 0x9b, 0xbd, 0x3c, 0x15, 0xb7, 0x72, 0xbe,
            0xf5, 0x0f, 0x96, 0xbd, 0x7d, 0x6b, 0x80, 0xbe, 0x1b, 0x9a,
            0x46, 0x3e, 0x7a, 0x61, 0x54, 0xbe, 0x67, 0x3e, 0x93, 0xbc,
            0xc2, 0x24, 0xc2, 0x3d, 0x37, 0x8f, 0x4a, 0xbe, 0x3d, 0x3b,
            0x0f, 0x3e, 0xe7, 0xe0, 0x1c, 0xbe, 0x2c, 0x15, 0x80, 0xbe,
            0x82, 0x8f, 0x5e, 0xbe, 0x6b, 0x13, 0x0a, 0x3e, 0xd1, 0x61,
            0x3e, 0xbe, 0x2e, 0x59, 0xab, 0xbc, 0x20, 0x7f, 0xba, 0x3d,
            0xdf, 0x02, 0x5d, 0xbe, 0x8c, 0x30, 0x12, 0xbe, 0x31, 0xed,
            0x8e, 0xbb, 0xe4, 0xd7, 0xc0, 0xbd, 0xb1, 0x8b, 0x84, 0xbe,
            0x82, 0x4e, 0x24, 0xbe, 0xb6, 0x52, 0x00, 0x3d, 0xd5, 0x3b,
            0x18, 0xbe, 0x3c, 0x9f, 0x9d, 0x3d, 0x07, 0x4d, 0xa2, 0xbd,
            0x48, 0x60, 0x02, 0x3e, 0x82, 0x04, 0x30, 0x3e, 0x78, 0xad,
            0x95, 0xbd, 0x7f, 0xcf, 0x91, 0xbd, 0x7d, 0x4c, 0x5f, 0x3e,
            0xa2, 0x73, 0xec, 0x3c, 0x48, 0x4e, 0x11, 0xbe, 0x56, 0x5f,
            0x61, 0x3e, 0xc4, 0x5a, 0x1d, 0x3e, 0x14, 0xcc, 0x33, 0xbe,
            0x35, 0x4a, 0xcd, 0xbc, 0xee, 0x5a, 0x96, 0xbe, 0x51, 0x73,
            0xfd, 0xbd, 0x6d, 0x7f, 0x66, 0xbe, 0x9f, 0x60, 0x52, 0xbf,
            0x7c, 0x29, 0x30, 0xbe, 0x00, 0x83, 0x4b, 0x3c, 0x88, 0x9e,
            0xee, 0x3d, 0x8f, 0x5a, 0x72, 0x3e, 0x89, 0xa6, 0x52, 0xbe,
            0xe8, 0x4f, 0xc1, 0xbd, 0xc4, 0xe8, 0x43, 0xbe, 0xfe, 0x5f,
            0xd0, 0xbc, 0xf8, 0x91, 0xdb, 0xbc, 0xc7, 0x7a, 0x51, 0x3e,
            0x8b, 0xc8, 0x0c, 0x3b, 0x2a, 0xe0, 0x4d, 0xbe, 0xf2, 0xa1,
            0x36, 0xbe, 0x86, 0x95, 0xe8, 0xbe, 0xd2, 0x74, 0x85, 0xbe,
            0xe3, 0xb5, 0x65, 0x3e, 0x80, 0x81, 0x0a, 0x3f, 0x8d, 0x58,
            0x15, 0xbe, 0xe9, 0xf0, 0x08, 0xbc, 0x1c, 0x7d, 0x9f, 0xbe,
            0xec, 0x06, 0xc2, 0xbd, 0x7a, 0x1f, 0x27, 0xbe, 0x7a, 0x49,
            0x36, 0x3e, 0x97, 0xd9, 0x3d, 0xbe, 0xb3, 0x24, 0x26, 0x3e,
            0x90, 0x73, 0x53, 0xbb, 0xe3, 0xfa, 0x54, 0x3e, 0x4b, 0x3e,
            0x67, 0x3d, 0x5f, 0x75, 0x1e, 0x3f, 0xea, 0x22, 0x29, 0xbc,
            0xa1, 0x3d, 0x9e, 0x3e, 0x75, 0x31, 0x9e, 0x3e, 0xec, 0xc1,
            0x9b, 0x3e, 0xc2, 0xb5, 0x18, 0x3f, 0xa3, 0x17, 0x21, 0x3e,
            0x22, 0x84, 0xda, 0xbe, 0x4e, 0xb0, 0x9c, 0x3b, 0x52, 0xf3,
            0xa5, 0x3e, 0x78, 0xf7, 0x0e, 0x3b, 0xbc, 0x77, 0x42, 0x3d,
            0xf2, 0x96, 0xc4, 0xbc, 0x9b, 0x02, 0x87, 0xbd, 0x84, 0xd3,
            0xe5, 0x3e, 0x94, 0x4b, 0xda, 0xbe, 0xcb, 0xcd, 0xb1, 0x3d,
            0x57, 0xba, 0x93, 0xbe, 0x49, 0x3f, 0x64, 0x3e, 0x39, 0x53,
            0xfd, 0xbd, 0x13, 0x7e, 0xd4, 0xbd, 0xb5, 0x75, 0x20, 0xbb,
            0xe9, 0x19, 0x84, 0xbd, 0xe4, 0xdc, 0xfa, 0x3c, 0x1e, 0x35,
            0xe4, 0xbd, 0x01, 0xa7, 0xa0, 0x3d, 0xc8, 0xf3, 0x26, 0x3e,
            0x6f, 0x52, 0x3d, 0xbe, 0xed, 0xc9, 0x8f, 0x3d, 0x33, 0xeb,
            0xc4, 0x3e, 0x4d, 0x20, 0x09, 0x3c, 0x2f, 0x6e, 0xcd, 0xbd,
            0xc8, 0x5c, 0x48, 0x3e, 0xf9, 0x71, 0x8a, 0x3d, 0xde, 0x98,
            0x8a, 0x3d, 0x44, 0xde, 0x29, 0x3e, 0x34, 0x95, 0x3f, 0x3d,
            0xae, 0xbf, 0x8f, 0x3d, 0xcb, 0x76, 0x01, 0xbf, 0xd9, 0xa2,
            0x84, 0x3e, 0x4a, 0x19, 0xfb, 0xbd, 0xff, 0x13, 0x01, 0xbd,
            0xd5, 0x89, 0x54, 0xbe, 0x22, 0xfa, 0x21, 0xbe, 0x39, 0xe9,
            0x8b, 0xbe, 0x71, 0xa3, 0xdd, 0xbd, 0xb1, 0x71, 0x15, 0x3e,
            0x29, 0x66, 0x55, 0x3e, 0x27, 0x2f, 0xc6, 0x3d, 0x71, 0x46,
            0x64, 0x3e, 0xf8, 0xa3, 0xcb, 0xbd, 0xa2, 0xd7, 0x32, 0x3e,
            0x16, 0xf5, 0xc4, 0x3d, 0x2c, 0x4d, 0xaf, 0xbd, 0xd0, 0x8f,
            0xa8, 0xbd, 0xaf, 0xc8, 0xcd, 0x3c, 0xa7, 0x78, 0x84, 0x3e,
            0xdb, 0xc5, 0xd2, 0xbd, 0x3b, 0x6a, 0xdf, 0x3d, 0x21, 0x87,
            0xa0, 0xbe, 0x64, 0x77, 0xd4, 0xbe, 0xd6, 0x3d, 0xb3, 0x3e,
            0xf8, 0xdd, 0x86, 0x3e, 0xec, 0xe7, 0x12, 0x3e, 0xd1, 0x42,
            0x8c, 0xbe, 0x81, 0x86, 0x72, 0x3d, 0xf9, 0xbe, 0x5c, 0x3e,
            0x94, 0x8f, 0xa2, 0xbe, 0xd6, 0xfc, 0x27, 0x3f, 0xce, 0xea,
            0x81, 0x3e, 0xd2, 0x03, 0x45, 0xbd, 0x13, 0xa7, 0x80, 0x3e,
            0x58, 0x76, 0x17, 0x3e, 0x92, 0x8a, 0x2b, 0xbd, 0x0f, 0xe8,
            0x0f, 0x3d, 0xea, 0xa6, 0x1a, 0xbf, 0xf0, 0x98, 0x16, 0xbf,
            0xcf, 0x1b, 0x95, 0x3e, 0xe6, 0x74, 0xa8, 0xbd, 0xb4, 0x05,
            0x33, 0xbd, 0x87, 0x7d, 0x1e, 0xbe, 0xe1, 0x67, 0xc5, 0x3c,
            0x13, 0x75, 0x3d, 0xbe, 0x45, 0x69, 0x3e, 0xbd, 0x67, 0x0d,
            0xa0, 0x3e, 0xb4, 0xed, 0xd5, 0x3c, 0x33, 0x00, 0x1a, 0xbe,
            0x4b, 0x75, 0xab, 0xbe, 0x2a, 0xcd, 0xdb, 0x3c, 0x5e, 0x74,
            0xbc, 0xbd, 0xe9, 0x28, 0x79, 0xbe, 0x4d, 0xe9, 0xe6, 0x3d,
            0x14, 0x49, 0x6d, 0xbe, 0x33, 0xb8, 0xc2, 0xbe, 0x57, 0x79,
            0x22, 0x3e, 0x6e, 0xc3, 0x0e, 0xbe, 0xa0, 0x65, 0xd7, 0x3e,
            0xdb, 0x04, 0x86, 0xbe, 0x10, 0xc4, 0x15, 0xbf, 0xf4, 0x1f,
            0xbd, 0xbe, 0x92, 0x9a, 0x14, 0xbe, 0xc5, 0x2d, 0xe0, 0xbc,
            0xc8, 0x6e, 0x9e, 0x3e, 0x47, 0x82, 0x8e, 0xbe, 0xa0, 0x00,
            0x8a, 0x3f, 0x13, 0x7a, 0x46, 0x3f, 0xf5, 0x0d, 0x3b, 0xbf,
            0xa6, 0x68, 0x66, 0x3d, 0xfd, 0x18, 0x6a, 0xbb, 0xc9, 0xa0,
            0x85, 0xbe, 0x42, 0xd5, 0x1f, 0x3d, 0xbc, 0x55, 0x47, 0x3e,
            0xc2, 0x2c, 0x63, 0xbc, 0x76, 0x96, 0xc5, 0x3e, 0xde, 0x89,
            0x49, 0x3e, 0xe0, 0x48, 0x4c, 0x3f, 0x0d, 0x52, 0xb0, 0x3e,
            0xa9, 0x1d, 0x85, 0xbe, 0x11, 0x3b, 0x0c, 0xbe, 0x6f, 0x97,
            0x9c, 0x3d, 0xb8, 0x62, 0xdb, 0x3d, 0xb4, 0x77, 0x0a, 0xbd,
            0xdb, 0xc1, 0x0b, 0xbe, 0x73, 0x8b, 0xcc, 0xbd, 0x86, 0x30,
            0x25, 0x3d, 0x3f, 0x6e, 0x6d, 0xbe, 0x71, 0x9f, 0x86, 0x3e,
            0x1a, 0x13, 0xce, 0x3e, 0xc9, 0x0f, 0x21, 0xbf, 0x4b, 0x2b,
            0x5a, 0xbd, 0xb0, 0xc4, 0x07, 0x3e, 0x70, 0x83, 0x3a, 0xbe,
            0x09, 0x46, 0x08, 0xbe, 0x3c, 0xf0, 0xf8, 0x3e, 0x45, 0x3c,
            0x29, 0x3e, 0xc0, 0xd9, 0x26, 0xbe, 0x87, 0xd2, 0x26, 0x3e,
            0xd8, 0x50, 0x53, 0x3e, 0xb9, 0xf4, 0xc3, 0x3d, 0x51, 0x2d,
            0x9d, 0xbd, 0xdd, 0xf8, 0xa7, 0xbc, 0x5e, 0x30, 0x25, 0x3e,
            0x0a, 0x74, 0x81, 0x3d, 0x89, 0xe7, 0x8c, 0xbe, 0xd0, 0xf4,
            0x0b, 0xbe, 0xfa, 0x8a, 0xaf, 0xbe, 0x18, 0xed, 0x99, 0x3d,
            0xdf, 0x79, 0x69, 0xbe, 0x1d, 0xb4, 0xca, 0x3e, 0x8d, 0x77,
            0xbc, 0xbc, 0x35, 0xff, 0xbe, 0x3c, 0xda, 0x8f, 0xbf, 0xbe,
            0x98, 0x58, 0x21, 0xbe, 0xd8, 0x07, 0x5d, 0xbc, 0x08, 0x8a,
            0x81, 0xbe, 0x0a, 0x5e, 0x55, 0xbd, 0x05, 0x70, 0x1b, 0xbe,
            0x0a, 0x74, 0x0e, 0x3e, 0x0f, 0xda, 0x12, 0x3e, 0xa2, 0x6c,
            0x38, 0x3c, 0x07, 0xf9, 0xac, 0xbc, 0x72, 0x84, 0x18, 0xbd,
            0xaf, 0x30, 0x25, 0x3d, 0xa4, 0x9f, 0x05, 0x3e, 0x69, 0xc8,
            0xd7, 0xbd, 0xbd, 0x95, 0xb4, 0x3e, 0x04, 0xbb, 0xb4, 0xbc,
            0x72, 0xf1, 0xaf, 0x3d, 0x13, 0x8c, 0xba, 0x3e, 0x40, 0xee,
            0x85, 0x3e, 0x93, 0x26, 0xb9, 0xbe, 0x1b, 0x4d, 0x85, 0xbd,
            0xc1, 0x1b, 0x89, 0xbe, 0xa8, 0xa8, 0xd8, 0x3d, 0xb6, 0x12,
            0xa6, 0x3e, 0x47, 0x4f, 0x14, 0x3d, 0xdb, 0xf5, 0x93, 0xbd,
            0x3f, 0x28, 0xbf, 0xbc, 0x12, 0x58, 0x2c, 0x3c, 0x1e, 0xac,
            0x1a, 0x3e, 0x04, 0xcb, 0x32, 0x3e, 0xe0, 0x59, 0xbe, 0x3d,
            0xb6, 0xe8, 0x7c, 0xbe, 0xaa, 0xc6, 0x6e, 0x3d, 0xae, 0x76,
            0x7d, 0x3e, 0x37, 0x7c, 0xa2, 0x3c, 0xd7, 0xc1, 0x03, 0x3e,
            0x21, 0xc0, 0xd4, 0x3d, 0x25, 0x44, 0xa0, 0x3d, 0x99, 0x1a,
            0xcf, 0x3c, 0x55, 0x71, 0x2f, 0x3d, 0xbc, 0xf0, 0x8d, 0xbd,
            0x1e, 0xe5, 0x19, 0x3e, 0xe0, 0x78, 0xf1, 0xbc, 0xf7, 0x47,
            0xa8, 0x3d, 0xf4, 0x4a, 0x00, 0x3e, 0x02, 0x62, 0x3c, 0x3d,
            0x20, 0x07, 0x19, 0xbe, 0x40, 0x15, 0x8a, 0x3d, 0x9e, 0x06,
            0x7d, 0x3d, 0xca, 0x12, 0x8b, 0x3d, 0xa3, 0x54, 0x94, 0x3d,
            0x59, 0xdb, 0x2b, 0x3e, 0x1d, 0x8e, 0x7e, 0xbc, 0x57, 0x05,
            0x05, 0x3e, 0xa3, 0xce, 0x25, 0xbe, 0x5f, 0x57, 0x2d, 0x3e,
            0x9a, 0x20, 0xd6, 0x3d, 0x37, 0x09, 0x20, 0x3e, 0xce, 0xa8,
            0xfb, 0x3d, 0xbb, 0x07, 0x10, 0xbd, 0x27, 0x41, 0xd7, 0xbd,
            0x92, 0xad, 0xfe, 0xbd, 0x32, 0x89, 0x36, 0xbe, 0x90, 0xc4,
            0x07, 0x3d, 0xea, 0x40, 0xeb, 0x3e, 0xce, 0xfa, 0x11, 0xbd,
            0x5b, 0x60, 0xf2, 0xbd, 0x54, 0x97, 0x23, 0xbe, 0x1c, 0xb6,
            0x70, 0xbe, 0xa1, 0x0f, 0x59, 0xbd, 0xb5, 0x89, 0xb4, 0xbd,
            0x6e, 0x58, 0x97, 0xbc, 0xb9, 0x12, 0x86, 0x3c, 0xf8, 0xd7,
            0xbe, 0xbd, 0x84, 0xf2, 0xc5, 0xbc, 0xf8, 0xcf, 0x84, 0x3e,
            0x49, 0x69, 0xa6, 0xbd, 0x31, 0xe3, 0x45, 0xbd, 0x78, 0xac,
            0xe6, 0xbe, 0x34, 0x12, 0x0a, 0x3f, 0xe4, 0xa9, 0xad, 0x3e,
            0xcb, 0x52, 0x6a, 0x3d, 0xdb, 0x9a, 0xf1, 0x3c, 0xfb, 0xbb,
            0xcb, 0x3d, 0xcd, 0x88, 0x75, 0x3e, 0x78, 0xab, 0xf7, 0x3d,
            0x3f, 0xe7, 0x2d, 0xbe, 0xb2, 0x41, 0xbb, 0xbe, 0x77, 0xb8,
            0x3c, 0xbd, 0x7d, 0xa8, 0xf0, 0xbd, 0x36, 0x6f, 0x56, 0x3d,
            0x05, 0x6d, 0x69, 0x3e, 0x38, 0xcd, 0xdf, 0x3e, 0x9b, 0xfd,
            0x03, 0xbd, 0x27, 0x24, 0xc6, 0x3d, 0x4d, 0x34, 0xf9, 0xbb,
            0x09, 0xf5, 0xe9, 0xbe, 0x75, 0x4b, 0xb8, 0x3e, 0x4f, 0x6e,
            0xc1, 0x3d, 0xf2, 0xf2, 0x2e, 0xbe, 0x14, 0x2e, 0xe8, 0x3d,
            0x6f, 0xc7, 0x19, 0x3e, 0x4b, 0xc5, 0x54, 0xbe, 0x59, 0x37,
            0x55, 0xbd, 0xe0, 0x03, 0x91, 0x3e, 0x43, 0xb8, 0xb1, 0xbd,
            0xc1, 0xe5, 0x9a, 0x3d, 0x8e, 0xd6, 0x59, 0xbe, 0x63, 0xda,
            0xda, 0xbd, 0x98, 0xcd, 0x3d, 0x3e, 0x07, 0xc0, 0x94, 0xbb,
            0xcb, 0x6a, 0xd7, 0x3e, 0x8e, 0xa6, 0x12, 0x3e, 0xdb, 0xab,
            0xa7, 0x3e, 0x33, 0xbc, 0x4a, 0x3e, 0x42, 0xcd, 0x9c, 0xbd,
            0xd1, 0x78, 0x96, 0xbe, 0x6c, 0x13, 0x23, 0x3e, 0x45, 0xab,
            0xee, 0xbd, 0xf3, 0xea, 0x01, 0xbf, 0x01, 0xb3, 0x58, 0x3e,
            0x58, 0x4e, 0xc1, 0xbe, 0xb8, 0x2b, 0x32, 0xbc, 0x16, 0x2b,
            0x2c, 0x3e, 0x1c, 0x4c, 0x8a, 0xbe, 0x25, 0xdb, 0x0a, 0x3e,
            0xb1, 0x89, 0x5a, 0xbe, 0x4a, 0x07, 0x87, 0x3d, 0x58, 0x3c,
            0xf0, 0x3e, 0xab, 0x94, 0x03, 0xbf, 0x8d, 0x76, 0x3a, 0x3e,
            0xcd, 0x74, 0x4f, 0xbe, 0x6c, 0xe2, 0x96, 0xbe, 0x6e, 0xd8,
            0x84, 0x3e, 0x8a, 0x44, 0x0e, 0xbf, 0xa2, 0x99, 0xaf, 0xbe,
            0xf2, 0x5b, 0x10, 0xbf, 0x71, 0xa8, 0xc1, 0x3e, 0x16, 0x51,
            0x27, 0xbe, 0xc7, 0xa9, 0x46, 0x3f, 0x04, 0xfd, 0xa4, 0x3e,
            0xd4, 0xf3, 0x24, 0xbd, 0x8c, 0x63, 0x4b, 0xbe, 0xc6, 0x8f,
            0x4d, 0x3c, 0xb3, 0x63, 0x02, 0x3f, 0xa5, 0x51, 0x1c, 0x3f,
            0xdc, 0x8c, 0x68, 0x3f, 0xd5, 0x0c, 0x82, 0x3d, 0x31, 0x9a,
            0xd6, 0x3d, 0x33, 0x4f, 0xc3, 0xbd, 0x6c, 0x37, 0x9c, 0x3e,
            0x8a, 0xd4, 0x42, 0x3e, 0xc1, 0xcc, 0x49, 0x3e, 0x31, 0x1b,
            0xb6, 0x3d, 0x20, 0xb8, 0x05, 0x3d, 0xa1, 0x7f, 0x71, 0xbe,
            0x08, 0x84, 0x95, 0x3d, 0xbf, 0x7d, 0x1f, 0xbf, 0xef, 0x62,
            0xe8, 0xbc, 0xab, 0xab, 0x8f, 0x3d, 0x7a, 0xbc, 0xcf, 0x3e,
            0x25, 0x20, 0x4a, 0xbe, 0xa4, 0x93, 0x26, 0xbf, 0x97, 0x05,
            0x86, 0xbc, 0x4e, 0xd8, 0xbf, 0xbd, 0xd4, 0x7d, 0xaa, 0x3e,
            0xf2, 0x8b, 0x59, 0x3e, 0x43, 0xb7, 0xb9, 0x3e, 0x44, 0x33,
            0xf4, 0x3e, 0x9e, 0x7c, 0x02, 0xbf, 0x6e, 0x70, 0x88, 0xbe,
            0xf7, 0x54, 0x7a, 0x3e, 0x1a, 0xa3, 0x68, 0xbe, 0x10, 0x3c,
            0x28, 0x3d, 0x98, 0x16, 0x93, 0xbe, 0x75, 0xac, 0x41, 0xbe,
            0x8f, 0x74, 0x66, 0xbf, 0x1a, 0x99, 0x0c, 0x3f, 0x76, 0xdb,
            0xce, 0xbd, 0x1d, 0xa5, 0x10, 0xbe, 0xf3, 0x9d, 0x79, 0x3d,
            0x8d, 0xeb, 0x99, 0x3e, 0x73, 0x6f, 0x19, 0xbe, 0x00, 0xc8,
            0x0b, 0x3e, 0xe8, 0xad, 0xf0, 0xbe, 0x22, 0x2f, 0x41, 0xbd,
            0xd2, 0xf9, 0xd6, 0xbd, 0x00, 0x7b, 0x8d, 0xbe, 0x19, 0xbb,
            0xdb, 0xbd, 0xfd, 0x2e, 0x84, 0xbe, 0xf5, 0x5b, 0xe1, 0x3d,
            0xa3, 0x41, 0x87, 0xbe, 0x68, 0x6e, 0xda, 0x3e, 0xce, 0x79,
            0x5d, 0xbf, 0xca, 0x51, 0x14, 0xbe, 0xf4, 0x33, 0x24, 0x3f,
            0x2c, 0x59, 0x6d, 0xbe, 0x8b, 0x9d, 0x65, 0x3c, 0xe1, 0x50,
            0xd9, 0xbc, 0x62, 0x98, 0x3d, 0xbf, 0x8d, 0x90, 0x11, 0x3f,
            0x38, 0xf0, 0x53, 0x3d, 0x4f, 0x80, 0xa1, 0x3e, 0x87, 0xa9,
            0x92, 0x3e, 0xc4, 0x4b, 0xd6, 0xbe, 0x0e, 0x5d, 0x02, 0xbf,
            0xac, 0x6e, 0x73, 0xbd, 0xd8, 0xde, 0x89, 0xbe, 0x63, 0x0f,
            0x58, 0x3e, 0x46, 0xef, 0x26, 0x3f, 0xc1, 0xb6, 0xbe, 0x3e,
            0xfd, 0x2e, 0x69, 0xbd, 0x09, 0x27, 0x1c, 0xbd, 0x44, 0x03,
            0x2e, 0xbd, 0x0a, 0xe2, 0x0f, 0xbf, 0x27, 0x3d, 0x93, 0x3d,
            0x79, 0x3b, 0xba, 0xbe, 0x7a, 0x82, 0x93, 0xbd, 0x97, 0x2e,
            0x7c, 0xbe, 0x0d, 0x60, 0xdc, 0x3d, 0xad, 0xa4, 0x07, 0x3f,
            0x57, 0x68, 0x04, 0xbf, 0x73, 0x91, 0x0c, 0xbe, 0xf4, 0x99,
            0xc6, 0x3d, 0xe5, 0x2a, 0x97, 0x3d, 0xa9, 0xc9, 0xc0, 0xbd,
            0xc3, 0xcd, 0x0f, 0x3f, 0xaf, 0x82, 0x0d, 0x3e, 0x27, 0x27,
            0xcf, 0x3e, 0xf4, 0xb3, 0xc4, 0x3e, 0x3f, 0x87, 0x8f, 0xbd,
            0x3f, 0x72, 0x1c, 0xbe, 0x4a, 0x51, 0xed, 0xbc, 0xa2, 0x95,
            0x8d, 0x3d, 0x99, 0xe4, 0x9b, 0xbe, 0x71, 0x14, 0x7a, 0x3e,
            0xc6, 0x9a, 0xdc, 0x3d, 0xe1, 0x60, 0xde, 0xbc, 0x90, 0xcb,
            0x2b, 0xbf, 0x62, 0x40, 0xba, 0x3e, 0xb4, 0x0c, 0x42, 0x3e,
            0xad, 0xbe, 0x36, 0xbd, 0x25, 0xa4, 0x62, 0x3f, 0xc3, 0x27,
            0x76, 0xbe, 0xd4, 0xf9, 0xf2, 0x3d, 0x43, 0xac, 0xe7, 0xbe,
            0x69, 0x0d, 0xef, 0x3d, 0xe5, 0xdd, 0x1c, 0x3e, 0x3c, 0xd1,
            0xeb, 0xbd, 0x31, 0x0c, 0x89, 0xbe, 0x09, 0x82, 0x38, 0xbe,
            0xf4, 0xda, 0x99, 0xbe, 0x49, 0x24, 0x13, 0xbe, 0x54, 0x91,
            0xeb, 0xbc, 0x9c, 0x24, 0x5d, 0xbe, 0x2c, 0x30, 0x75, 0x3d,
            0xf2, 0xd8, 0xb3, 0x3d, 0x4b, 0x5d, 0xca, 0xbc, 0xdc, 0x9f,
            0x18, 0x3e, 0x88, 0x67, 0x1c, 0x3e, 0x62, 0x59, 0x0a, 0x3e,
            0x91, 0x89, 0x24, 0xbd, 0x36, 0xb3, 0x2c, 0x3e, 0xa8, 0x8d,
            0x2a, 0x3c, 0x4c, 0xad, 0x3a, 0xbd, 0xb1, 0xd1, 0xc4, 0x3c,
            0x44, 0x7f, 0x75, 0x3e, 0x86, 0xb0, 0x28, 0x3e, 0x5c, 0xce,
            0xe5, 0xbc, 0x31, 0xb8, 0x3d, 0x3e, 0xa2, 0xc3, 0xc6, 0xbc,
            0x28, 0xa3, 0x49, 0x3e, 0x97, 0x2e, 0xf7, 0xbd, 0x62, 0xef,
            0x3d, 0x3e, 0xd1, 0x07, 0x80, 0xbe, 0x8c, 0x94, 0x22, 0x3e,
            0x59, 0xd4, 0xe2, 0xbd, 0xef, 0x10, 0xf6, 0x3d, 0x3b, 0xa4,
            0x43, 0x3e, 0x9d, 0xef, 0x9c, 0xbd, 0x65, 0xed, 0x4b, 0xbd,
            0x06, 0x7e, 0xdd, 0x3d, 0x82, 0x18, 0x34, 0x3d, 0x4e, 0x54,
            0xd0, 0xbb, 0x33, 0xd4, 0x48, 0xbe, 0x6f, 0x62, 0xef, 0xbd,
            0x5f, 0x35, 0x70, 0x3d, 0x0e, 0xe1, 0x0b, 0xbd, 0x12, 0xff,
            0x03, 0xbe, 0x65, 0x19, 0xa1, 0xb8, 0x01, 0x76, 0x0b, 0xbd,
            0x82, 0x3b, 0x0d, 0x3e, 0x02, 0xa7, 0x65, 0x3f, 0xe9, 0x90,
            0x79, 0xbd, 0xec, 0x0f, 0xdc, 0x3d, 0xa0, 0x01, 0x23, 0x39,
            0xf0, 0xb8, 0x4c, 0x3e, 0x77, 0x3f, 0x61, 0x3d, 0xe0, 0x29,
            0x38, 0xbd, 0x96, 0xcb, 0x8f, 0x3c, 0x34, 0xa6, 0x27, 0xbd,
            0x0b, 0x47, 0xd6, 0x3e, 0x0c, 0xd0, 0xcf, 0xbd, 0xb8, 0x9f,
            0x71, 0xbd, 0xeb, 0x81, 0xaf, 0xbd, 0x2a, 0xd6, 0x30, 0x3b,
            0x32, 0x0e, 0x28, 0x3e, 0x56, 0xde, 0xee, 0x3d, 0x09, 0x5c,
            0xa8, 0xbc, 0xf5, 0x05, 0xb1, 0xbe, 0x6a, 0x84, 0xa9, 0x3d,
            0x33, 0x9f, 0x22, 0xbe, 0x87, 0x45, 0x08, 0xbe, 0xaf, 0xf7,
            0x9c, 0xbb, 0x75, 0xe9, 0xad, 0xbd, 0xe0, 0xbc, 0xfe, 0xbd,
            0xcb, 0x18, 0xf6, 0xbd, 0x2d, 0xa4, 0x22, 0xbe, 0xb8, 0x75,
            0x6f, 0xbd, 0x21, 0x4d, 0xe5, 0xbd, 0x8b, 0x29, 0xeb, 0x3c,
            0x41, 0x1f, 0xd3, 0x3d, 0x86, 0x8f, 0xa1, 0xbe, 0x51, 0x5f,
            0x8d, 0x3e, 0x55, 0x91, 0x3a, 0xbe, 0x96, 0x7f, 0x20, 0xbe,
            0x98, 0x32, 0x25, 0xbe, 0x5e, 0xf4, 0x17, 0x3f, 0x90, 0xe3,
            0x97, 0xbf, 0xe4, 0xd7, 0x60, 0x3f, 0x22, 0x30, 0x5f, 0x3e,
            0xfc, 0x45, 0xac, 0x3e, 0x47, 0x01, 0xc3, 0x3e, 0xf2, 0xc5,
            0xca, 0xbe, 0x11, 0xdb, 0x16, 0xbe, 0x59, 0x27, 0x2d, 0x3e,
            0xe1, 0x60, 0x17, 0xbe, 0x80, 0x76, 0x7c, 0xbe, 0xe0, 0x96,
            0x47, 0x3f, 0x40, 0x21, 0xa1, 0xbf, 0xd2, 0xfc, 0xc3, 0xbd,
            0x3b, 0xef, 0x2a, 0x3f, 0xa6, 0x96, 0xd6, 0x3d, 0x40, 0x23,
            0xfd, 0x3e, 0x26, 0xec, 0x17, 0xbe, 0x7e, 0x31, 0x83, 0x3f,
            0x23, 0xfa, 0x0e, 0x3f, 0xc5, 0x0e, 0x6a, 0x3f, 0x05, 0x26,
            0x33, 0x3e, 0x6c, 0xaa, 0xaa, 0x3e, 0x0a, 0x47, 0x15, 0x3e,
            0x6a, 0x8c, 0xd6, 0xbe, 0xa4, 0x90, 0x0c, 0x3f, 0xf3, 0x5d,
            0x13, 0xbc, 0x52, 0xff, 0x88, 0xbd, 0x57, 0x7c, 0x82, 0xbf,
            0x67, 0xd5, 0xd7, 0x3d, 0x7c, 0x86, 0x47, 0x3e, 0x33, 0x63,
            0x95, 0x3d, 0x6b, 0x41, 0x3a, 0x3e, 0x50, 0x11, 0x1c, 0xbe,
            0x29, 0x7f, 0x6f, 0x3f, 0x3b, 0x6b, 0x12, 0x3c, 0x0b, 0xc3,
            0x24, 0xbe, 0x38, 0x40, 0x97, 0x3e, 0xbd, 0xa4, 0x82, 0xbc,
            0xc5, 0x3c, 0xdb, 0xbc, 0x3c, 0xa5, 0x8d, 0x3c, 0x7f, 0x4a,
            0xb7, 0x3d, 0x6b, 0xd6, 0xa8, 0xbe, 0x06, 0x97, 0xa5, 0xbe,
            0x2a, 0xd4, 0x02, 0xbf, 0xda, 0x3e, 0x22, 0xbd, 0xa1, 0x85,
            0xf0, 0x3e, 0x56, 0x70, 0x67, 0xbe, 0xcc, 0xd9, 0x9b, 0x3c,
            0x86, 0x6a, 0x37, 0x3d, 0x11, 0xa2, 0x45, 0x3e, 0x98, 0xd3,
            0x20, 0x3d, 0x3f, 0x45, 0xc8, 0x3e, 0xd3, 0x55, 0xe4, 0xbd,
            0xfe, 0xf2, 0x3c, 0x3e, 0x1b, 0xac, 0x23, 0x3e, 0xb9, 0x4f,
            0x3d, 0xbf, 0xc8, 0xae, 0xbf, 0x3c, 0x91, 0x3e, 0x2f, 0x3e,
            0x67, 0xac, 0x18, 0x3e, 0x0e, 0x50, 0x3c, 0xbc, 0x6e, 0xd8,
            0x3b, 0x3f, 0xb3, 0x75, 0x90, 0xbd, 0x61, 0x9c, 0xbf, 0x3d,
            0x5e, 0x2e, 0x4a, 0x3c, 0x03, 0xea, 0xfe, 0x3e, 0x50, 0x4a,
            0xa3, 0x3e, 0x58, 0xb0, 0x9c, 0xbd, 0xa4, 0x3f, 0xa2, 0xbd,
            0x1b, 0x64, 0x98, 0x3d, 0xfe, 0xa1, 0x00, 0x3e, 0x6b, 0x21,
            0x17, 0xbe, 0x76, 0x34, 0x56, 0x3d, 0x6a, 0x70, 0x35, 0x3b,
            0xf0, 0x73, 0x1d, 0x3e, 0x46, 0x24, 0xe2, 0x3d, 0x5c, 0x8b,
            0x04, 0x3e, 0x24, 0x34, 0x01, 0x3d, 0xa5, 0x88, 0x39, 0x3c,
            0xf3, 0xeb, 0xb4, 0x3d, 0x73, 0xa8, 0x7c, 0xbd, 0xc9, 0x5d,
            0xfa, 0xbd, 0x2c, 0xee, 0xb5, 0xbc, 0x25, 0x12, 0xc7, 0xbd,
            0xa4, 0xfa, 0x87, 0x3c, 0x66, 0x41, 0x70, 0xbe, 0x49, 0x25,
            0x76, 0x3e, 0xa7, 0x35, 0x7a, 0xbd, 0x2a, 0xd6, 0x05, 0x3f,
            0x00, 0x4d, 0x4f, 0x3e, 0xa2, 0xa6, 0xa9, 0xbd, 0x25, 0xeb,
            0x85, 0xbf, 0x59, 0xd5, 0x0b, 0xc1, 0x94, 0x6d, 0x52, 0xbf,
            0xcd, 0xdb, 0x8e, 0xbd, 0x3d, 0x38, 0xf2, 0xbe, 0x0a, 0x2a,
            0x12, 0x3e, 0xb4, 0xf7, 0xaf, 0xbe, 0x39, 0x32, 0xc2, 0x3f,
            0x65, 0xce, 0x6d, 0xbf, 0x4c, 0xcf, 0x7b, 0x3f, 0x2a, 0x4b,
            0x71, 0xbf, 0xe9, 0x8d, 0x77, 0x3f, 0x8d, 0x3d, 0x9a, 0x3e,
            0xf8, 0xfc, 0x60, 0xbe, 0x71, 0xb3, 0xbd, 0xbd, 0x7f, 0x89,
            0xbc, 0xbd, 0xa8, 0xbf, 0x74, 0x3f, 0x30, 0x50, 0xdd, 0xbf,
            0x6c, 0x99, 0x81, 0x3f, 0x02, 0x42, 0x30, 0x3f, 0xe5, 0x43,
            0xdb, 0xbe, 0x6d, 0x52, 0x27, 0x3f, 0xbc, 0x3c, 0x92, 0x3e,
            0x3f, 0x96, 0x6f, 0x3f, 0x6f, 0xed, 0x13, 0x3f, 0x5f, 0x5d,
            0x9c, 0x3f, 0xed, 0x7f, 0xcd, 0xbf, 0x6c, 0x3a, 0x4c, 0x3f,
            0x99, 0xb7, 0x28, 0x3f, 0xeb, 0x13, 0xce, 0x3d, 0xfb, 0x5f,
            0xec, 0x3c, 0xd8, 0x3d, 0x87, 0xbe, 0x92, 0x2d, 0x26, 0xbd,
            0xce, 0xdc, 0x66, 0xbf, 0xad, 0x4c, 0xd5, 0x3e, 0x3f, 0x94,
            0x97, 0xbf, 0x57, 0xf7, 0x71, 0x3f, 0x00, 0x65, 0x29, 0xbd,
            0x95, 0xfd, 0x31, 0xbf, 0x74, 0x4c, 0x04, 0xbf, 0x5d, 0x05,
            0xfe, 0x3e, 0x52, 0x5c, 0x1a, 0x3e, 0x12, 0x4d, 0xe1, 0xbe,
            0x6d, 0xb7, 0xf4, 0x3d, 0x52, 0xa6, 0xfb, 0x3d, 0x50, 0x60,
            0x06, 0x3e, 0x2c, 0x61, 0x7f, 0x3f, 0x1f, 0x74, 0xab, 0x3d,
            0xc7, 0xb3, 0xe9, 0x3e, 0x45, 0x2f, 0x02, 0xbf, 0x20, 0xe0,
            0x0a, 0xbe, 0xd7, 0x72, 0xea, 0xbe, 0xfa, 0xc3, 0x84, 0xbf,
            0xec, 0xd2, 0xf7, 0xbf, 0xd3, 0xa9, 0x2a, 0x3e, 0x11, 0xfb,
            0x06, 0xbf, 0xeb, 0x5e, 0xc8, 0x3d, 0x90, 0x94, 0xa3, 0xbe,
            0x3a, 0xfd, 0xa4, 0xbe, 0xc1, 0xe2, 0xc1, 0xbe, 0x5f, 0x4d,
            0xf0, 0x3e, 0x51, 0xb3, 0xee, 0x3e, 0xa2, 0xa0, 0xb5, 0xbd,
            0xf6, 0x97, 0x16, 0x3e, 0x82, 0xe3, 0x05, 0x3f, 0x52, 0x42,
            0x98, 0xbf, 0xf7, 0xb8, 0xc2, 0x3e, 0xa7, 0x31, 0xb6, 0xbd,
            0x9c, 0xbb, 0xe4, 0x3e, 0x96, 0x58, 0xa4, 0xbf, 0x26, 0x66,
            0x1a, 0xc0, 0x29, 0x8f, 0xf5, 0x3f, 0x2e, 0x3f, 0xb1, 0x3e,
            0x47, 0x4c, 0x04, 0xc0, 0x1b, 0xe4, 0x84, 0x3f, 0xa6, 0x19,
            0x0b, 0x3f, 0xa4, 0xd0, 0x3d, 0xbe, 0x61, 0xb7, 0x18, 0x3f,
            0xb8, 0x22, 0xf6, 0xbf, 0x81, 0x69, 0x2a, 0x3e, 0xc8, 0x1c,
            0x08, 0x3f, 0x32, 0x92, 0x4d, 0x3f, 0x2c, 0x7c, 0x10, 0xbe,
            0x09, 0x41, 0xa3, 0xbe, 0x2b, 0x68, 0x68, 0x3f, 0xb9, 0x37,
            0x01, 0xbf, 0x74, 0xc6, 0x9c, 0x3e, 0xf8, 0xe0, 0xd9, 0x3f,
            0xf7, 0xf3, 0x8f, 0x3e, 0xdc, 0xe2, 0xcb, 0xbd, 0x8b, 0x9a,
            0x73, 0xbd, 0x31, 0x59, 0x38, 0xbe, 0x21, 0xe7, 0xd1, 0xbd,
            0x55, 0x5f, 0x75, 0x3f, 0x84, 0x04, 0x34, 0x3e, 0xc0, 0x39,
            0x05, 0xbc, 0xe1, 0x3a, 0xbb, 0xbe, 0x56, 0xb4, 0xfc, 0x3e,
            0xde, 0x47, 0xe5, 0xbe, 0xd9, 0x3b, 0xa1, 0xbd, 0x5b, 0x34,
            0x3f, 0xbe, 0xa9, 0x57, 0xc4, 0x3e, 0x62, 0x52, 0x5f, 0x3f,
            0xdb, 0x39, 0x26, 0x3f, 0x27, 0x70, 0x11, 0x3e, 0xc7, 0x8e,
            0x1c, 0x3f, 0x0c, 0x30, 0xd4, 0x3e, 0x33, 0x75, 0x09, 0x3e,
            0x4d, 0x30, 0x1f, 0xbd, 0xbb, 0x62, 0x76, 0x3e, 0xfe, 0xda,
            0xd4, 0x3e, 0xcb, 0x1e, 0x89, 0x3d, 0x70, 0x79, 0x44, 0xbe,
            0x63, 0x95, 0x34, 0xbf, 0x4e, 0xf7, 0xb1, 0xbe, 0xf7, 0x5b,
            0x07, 0x3e, 0x7c, 0x32, 0xbe, 0x3d, 0x09, 0xa6, 0x1c, 0x3f,
            0x71, 0xf0, 0xf7, 0x3d, 0x0d, 0x00, 0x61, 0x3e, 0x76, 0x21,
            0xd9, 0x3e, 0x45, 0xff, 0x62, 0x3f, 0x83, 0x15, 0x7c, 0x3e,
            0x2f, 0x11, 0x23, 0x3e, 0x4e, 0xe6, 0x16, 0xbe, 0xeb, 0x57,
            0x9f, 0xbf, 0x44, 0xb2, 0x15, 0x3f, 0x19, 0x1e, 0xda, 0x3c,
            0xcf, 0xe3, 0xd4, 0xc0, 0x20, 0x5e, 0x95, 0xc0, 0x6a, 0x64,
            0x5c, 0x3d, 0x51, 0xda, 0xe4, 0xbd, 0x7d, 0x19, 0x0e, 0x3f,
            0x0b, 0x78, 0xdd, 0x3e, 0xdd, 0xa7, 0x8e, 0x40, 0x28, 0x86,
            0x40, 0xc1, 0xb5, 0xe9, 0xd0, 0xc0, 0x32, 0x78, 0xb5, 0xbe,
            0x78, 0x55, 0xa8, 0xbc, 0x77, 0x91, 0xf9, 0xbd, 0x6a, 0x6f,
            0xf8, 0x3d, 0x22, 0xbe, 0xe5, 0xbf, 0xbb, 0x9b, 0xfd, 0x3e,
            0xa7, 0xc6, 0x85, 0xbf, 0xe6, 0x52, 0x20, 0x3f, 0x58, 0x21,
            0xd3, 0xc0, 0x70, 0xdd, 0x14, 0xc0, 0x8e, 0x40, 0x51, 0x3e,
            0x57, 0x11, 0x19, 0x3e, 0x11, 0x95, 0xab, 0xbd, 0xde, 0xe8,
            0x4a, 0x3e, 0x71, 0x0e, 0x1e, 0x3f, 0x8b, 0x41, 0x70, 0x3e,
            0x06, 0x5f, 0xb1, 0xbb, 0x6f, 0x2b, 0x21, 0xbf, 0x79, 0xf4,
            0xf0, 0xbe, 0xed, 0x19, 0xe8, 0x3e, 0x0f, 0x69, 0x49, 0xc0,
            0xa7, 0x9c, 0x0a, 0x3f, 0x66, 0x5b, 0x18, 0xbe, 0xb2, 0x13,
            0x3e, 0xbe, 0x13, 0x50, 0xc9, 0xbd, 0x50, 0x4f, 0x63, 0x3e,
            0x24, 0xf7, 0xb7, 0x3d, 0x76, 0x1c, 0x71, 0xbd, 0x88, 0x23,
            0x76, 0x3e, 0x9a, 0x1e, 0x4a, 0xbd, 0x0d, 0x5c, 0x2b, 0xbe,
            0x96, 0x23, 0x96, 0x3d, 0x7f, 0xa7, 0x14, 0x3e, 0xea, 0x32,
            0xe7, 0xbd, 0xd7, 0x6f, 0x29, 0xbe, 0xd6, 0x55, 0x31, 0x3d,
            0x42, 0x58, 0x5d, 0xbd, 0xaa, 0x1e, 0xc7, 0xbd, 0xf9, 0xfb,
            0xd9, 0xbc, 0x83, 0xb2, 0xb6, 0x3a, 0x22, 0x21, 0x6c, 0xbe,
            0x18, 0xbd, 0x8a, 0x3d, 0x10, 0x8b, 0xd7, 0x3e, 0xad, 0x0c,
            0x35, 0xbd, 0x38, 0x49, 0x4c, 0x3e, 0xb7, 0x6b, 0x85, 0xbd,
            0x4f, 0xa4, 0x78, 0x3e, 0x8b, 0x3c, 0x50, 0xbd, 0xbd, 0x68,
            0x61, 0x3e, 0x9a, 0x08, 0x99, 0xbe, 0x63, 0x12, 0xee, 0x3d,
            0x21, 0x7f, 0x54, 0xbe, 0x9b, 0xec, 0xe0, 0xbe, 0x55, 0xca,
            0x8a, 0x3f, 0x7e, 0x5c, 0xd0, 0x3c, 0x89, 0xc8, 0xe9, 0xbe,
            0x61, 0xcc, 0x6e, 0x3f, 0x78, 0x8a, 0x8e, 0xbf, 0x7c, 0xce,
            0x2e, 0x3f, 0x1a, 0x5e, 0x2c, 0x3f, 0x9c, 0x25, 0x0c, 0x3f,
            0x8f, 0x8f, 0x00, 0x3f, 0xf7, 0x85, 0xe5, 0xbe, 0xd1, 0xbd,
            0x03, 0x3e, 0x9c, 0x49, 0x87, 0x3f, 0x67, 0xc9, 0x9d, 0xbd,
            0xca, 0x01, 0x56, 0xbd, 0x46, 0xad, 0x34, 0x3e, 0x74, 0x32,
            0x10, 0x3f, 0x46, 0x06, 0x3e, 0xbf, 0x35, 0xf6, 0x22, 0xbf,
            0x29, 0xfd, 0x4a, 0x3f, 0xa1, 0xb3, 0xd0, 0x3e, 0xfb, 0x9a,
            0x0c, 0x3e, 0x3a, 0xf8, 0x45, 0x3f, 0x86, 0xae, 0x4e, 0x3d,
            0x8e, 0xf0, 0x36, 0xbd, 0x79, 0x72, 0x0c, 0x3c, 0xe9, 0xd6,
            0xe8, 0x3d, 0x4f, 0x6a, 0xb6, 0x3e, 0x1e, 0x7a, 0x9f, 0xbe,
            0xd4, 0x29, 0x2f, 0xbe, 0x59, 0xef, 0x51, 0x3f, 0xb0, 0x40,
            0x13, 0x3f, 0xc1, 0xba, 0x9a, 0xbf, 0x82, 0x8c, 0x8d, 0xbe,
            0xeb, 0x65, 0x18, 0xbe, 0xa9, 0xfa, 0x4e, 0xbc, 0x76, 0x08,
            0x81, 0x3f, 0x5c, 0x2e, 0x31, 0x3f, 0xa1, 0xbf, 0xdc, 0xbd,
            0x6e, 0x78, 0x0e, 0xbe, 0x53, 0xb6, 0x39, 0x3e, 0xa0, 0xeb,
            0x2b, 0xbe, 0x07, 0xf3, 0x13, 0xbf, 0x23, 0x28, 0xb3, 0x3d,
            0x62, 0x26, 0xce, 0x3e, 0x54, 0x9f, 0xb0, 0xbb, 0x93, 0x67,
            0xbb, 0x3e, 0x67, 0x92, 0x6e, 0x3e, 0x50, 0xb0, 0x63, 0x3d,
            0x7a, 0x35, 0x13, 0x3e, 0xd7, 0x20, 0x69, 0xbd, 0x2c, 0x17,
            0xe9, 0x3e, 0xe1, 0x31, 0x87, 0x3e, 0x5d, 0x15, 0x1a, 0xbd,
            0x58, 0xde, 0x15, 0xbe, 0xbc, 0xa0, 0xb2, 0xbd, 0x5b, 0x6b,
            0x0e, 0xbe, 0xe0, 0x89, 0xec, 0xbd, 0xd3, 0x46, 0xe6, 0xbd,
            0x5a, 0x50, 0xd7, 0x3c, 0x6a, 0x6d, 0xc7, 0xbd, 0xc8, 0xf2,
            0x29, 0x3d, 0x6e, 0x8f, 0x01, 0xbf, 0x0f, 0x2f, 0xb2, 0x3e,
            0x04, 0xee, 0x27, 0xbe, 0xe7, 0x23, 0x06, 0x3f, 0xb6, 0xed,
            0x73, 0x3e, 0x51, 0xa0, 0x5f, 0xbe, 0x74, 0xdc, 0xc6, 0xbf,
            0x69, 0x40, 0xae, 0xbe, 0xab, 0xb9, 0xae, 0x3e, 0x62, 0x66,
            0x1c, 0xbf, 0xe1, 0x80, 0x32, 0xbe, 0xf5, 0xba, 0xb9, 0xbe,
            0xd9, 0x1a, 0xcf, 0x3d, 0x6f, 0xcc, 0xa0, 0xbe, 0xcf, 0x72,
            0xfb, 0x3d, 0x85, 0xdc, 0x75, 0x3e, 0x4b, 0x59, 0xec, 0x3e,
            0x0b, 0x48, 0xaa, 0xbd, 0x8f, 0x5d, 0x62, 0x3e, 0x17, 0x1a,
            0xaa, 0xbf, 0x65, 0xf8, 0x20, 0xbe, 0xf9, 0xf0, 0x81, 0xbe,
            0xe1, 0xef, 0x05, 0xbf, 0xa7, 0x88, 0x69, 0x3e, 0xba, 0xb8,
            0x80, 0x3e, 0x23, 0xa8, 0x9c, 0x3e, 0xee, 0x25, 0xd0, 0x3e,
            0x0b, 0x28, 0x53, 0xbe, 0xb6, 0xce, 0xd7, 0x3e, 0x2d, 0x67,
            0x26, 0x3f, 0x9e, 0xf6, 0x8e, 0xbe, 0x95, 0xa5, 0x49, 0xbe,
            0x80, 0xc7, 0x8c, 0xbe, 0xc6, 0xa7, 0x89, 0x3e, 0x70, 0xf9,
            0xe3, 0xbd, 0xa8, 0x47, 0x27, 0x3e, 0x27, 0xd6, 0x81, 0x3e,
            0xad, 0xd2, 0x9d, 0xbf, 0x26, 0x8b, 0xe7, 0x3f, 0x67, 0x12,
            0x91, 0x3a, 0xc8, 0x75, 0xec, 0xbe, 0xd4, 0x6f, 0x0a, 0x3e,
            0x63, 0x78, 0x15, 0xbf, 0x76, 0x77, 0xf5, 0x3e, 0xd4, 0x84,
            0x5a, 0xbe, 0x26, 0x58, 0xa2, 0x3e, 0xc2, 0xb9, 0x31, 0xbe,
            0x72, 0x7b, 0x81, 0xbf, 0xe8, 0x01, 0xad, 0xbd, 0x52, 0xba,
            0x0e, 0xbe, 0x26, 0xb6, 0x30, 0xbf, 0xb7, 0x41, 0x19, 0xbf,
            0xb0, 0xf0, 0x90, 0x3f, 0xd6, 0xbc, 0x1d, 0x3f, 0x98, 0x4e,
            0x2c, 0xbf, 0xc7, 0x42, 0x88, 0xbf, 0x97, 0x13, 0xae, 0xbf,
            0x13, 0x73, 0xe9, 0x3e, 0x8f, 0x63, 0x6e, 0x3f, 0x1c, 0x5b,
            0xda, 0x3c, 0xcc, 0x23, 0x96, 0x3e, 0x36, 0x9a, 0x99, 0x3e,
            0xad, 0x94, 0xf8, 0x3e, 0x91, 0x3e, 0x38, 0x3d, 0x84, 0xac,
            0x6e, 0xc1, 0xfb, 0x61, 0x1e, 0x3e, 0xcf, 0xb4, 0x82, 0xbf,
            0x2c, 0xc5, 0x35, 0xbe, 0x2f, 0xa0, 0xe7, 0xbd, 0x6c, 0xbb,
            0x87, 0xbd, 0x93, 0x95, 0x0d, 0x3f, 0x47, 0xf4, 0x8a, 0xbe,
            0xd3, 0xee, 0x3b, 0x3e, 0x75, 0x66, 0xa4, 0xbe, 0xb8, 0xa1,
            0x76, 0x3f, 0x03, 0x41, 0xb3, 0xbd, 0x55, 0xf2, 0x50, 0x3f,
            0x85, 0x45, 0xb9, 0x3d, 0x7d, 0xb2, 0x86, 0x3e, 0x5a, 0xe1,
            0x6e, 0x3e, 0xe9, 0x07, 0x96, 0xbe, 0x79, 0x58, 0xdc, 0x3c,
            0x7d, 0xc2, 0xc6, 0x3e, 0x09, 0x8b, 0xdc, 0xbd, 0x1f, 0xf2,
            0x43, 0xbe, 0x3c, 0x94, 0x65, 0x3e, 0xd4, 0x28, 0x08, 0x3e,
            0xfc, 0x61, 0x0c, 0xbe, 0x6d, 0x60, 0x48, 0x3e, 0x76, 0x92,
            0xdb, 0x3e, 0x47, 0x96, 0x46, 0x3e, 0xf0, 0x8b, 0x8a, 0x3e,
            0x52, 0x4c, 0x20, 0x3e, 0x2c, 0xff, 0x17, 0x3e, 0xd0, 0xd3,
            0x85, 0x3e, 0xc8, 0x94, 0xbf, 0x3e, 0xf8, 0xd2, 0xcc, 0x3e,
            0xe5, 0xe5, 0xbb, 0x3e, 0x7b, 0x11, 0xf6, 0xbe, 0x05, 0xf2,
            0xde, 0x3e, 0x5d, 0x8d, 0xb2, 0x3d, 0x4d, 0x60, 0x98, 0x3c,
            0x15, 0x24, 0x8e, 0xbe, 0x59, 0xa5, 0xae, 0xbc, 0x34, 0x63,
            0x4f, 0x3f, 0xd7, 0x68, 0x9e, 0xbe, 0x4c, 0x46, 0x91, 0x3e,
            0xf8, 0x8d, 0x56, 0xbf, 0x66, 0x2f, 0x9d, 0x3e, 0xa2, 0xa6,
            0x07, 0xbd, 0xa1, 0xed, 0x87, 0xbe, 0x5d, 0x33, 0x8d, 0x3e,
            0x79, 0x5f, 0x29, 0xbe, 0x32, 0x07, 0x26, 0xbd, 0x65, 0x85,
            0x29, 0x3e, 0x2a, 0x56, 0xa9, 0xbe, 0xc2, 0x27, 0x96, 0xbd,
            0x00, 0x07, 0xe4, 0x3d, 0x3c, 0xbf, 0x9d, 0xbe, 0xd9, 0xc2,
            0x01, 0x3d, 0xbc, 0xf5, 0xdb, 0x3e, 0x9c, 0xaa, 0xb9, 0x3e,
            0x9b, 0xae, 0xd4, 0x3e, 0xfd, 0x80, 0x88, 0xbe, 0x0a, 0xc4,
            0x22, 0x3f, 0x50, 0x58, 0xbe, 0x3e, 0x86, 0xc4, 0xad, 0x3e,
            0xa2, 0x06, 0x31, 0xbd, 0x49, 0x34, 0x4e, 0xbe, 0x11, 0x92,
            0xe2, 0x3e, 0x3a, 0x7c, 0x14, 0xbf, 0x42, 0x76, 0xf1, 0x3c,
            0x20, 0x57, 0x4f, 0xbe, 0x57, 0x69, 0x9e, 0x3d, 0xd6, 0x84,
            0xc3, 0xbd, 0xda, 0x5c, 0xc9, 0x3e, 0x5f, 0x79, 0x9b, 0x3d,
            0xd3, 0x31, 0xa2, 0x3d, 0x16, 0x47, 0x98, 0xbc, 0x3b, 0x30,
            0x7e, 0xbe, 0x0a, 0x2f, 0xfa, 0xbd, 0x4a, 0xeb, 0xd1, 0x3c,
            0x0b, 0xf4, 0x89, 0xbb, 0x7d, 0x14, 0x64, 0x3e, 0xc8, 0xc7,
            0xd7, 0x3e, 0x32, 0x03, 0x82, 0x3e, 0x73, 0x95, 0x84, 0x3d,
            0x71, 0xcc, 0xae, 0x3c, 0x70, 0x09, 0xa9, 0xbd, 0x0f, 0xf5,
            0xf5, 0xbd, 0xcd, 0x56, 0x9d, 0xbe, 0x5f, 0xb7, 0x0c, 0x3d,
            0xa6, 0xf6, 0x00, 0x3e, 0x0c, 0x9e, 0xf5, 0x3d, 0x6b, 0x0f,
            0x2b, 0x3e, 0x65, 0x3c, 0x00, 0xbd, 0xf7, 0xed, 0xa3, 0xbd,
            0x06, 0x54, 0xd1, 0xbd, 0x90, 0x83, 0x87, 0xbd, 0x6c, 0x07,
            0x2b, 0xbe, 0x31, 0xb2, 0x13, 0x3e, 0x12, 0x98, 0x3a, 0x3c,
            0x60, 0xc5, 0x5b, 0x3c, 0xc9, 0x55, 0x72, 0x3d, 0xfc, 0xf3,
            0x37, 0xbe, 0xfd, 0x3e, 0x80, 0xbd, 0xef, 0x91, 0x0e, 0xbf,
            0x83, 0x7c, 0x59, 0xbe, 0x8f, 0xaf, 0x00, 0x3f, 0x7e, 0xd2,
            0x37, 0xbe, 0xb8, 0xf8, 0x83, 0x3e, 0xec, 0x1d, 0x8c, 0xbf,
            0x89, 0xe7, 0x8b, 0xbe, 0x81, 0x34, 0x03, 0x3d, 0xe6, 0x01,
            0x46, 0xbb, 0x05, 0x7c, 0xfb, 0x3e, 0x0e, 0xaf, 0x06, 0xbe,
            0x93, 0x3c, 0x39, 0x3e, 0xa9, 0x53, 0xcb, 0x3e, 0xc4, 0x83,
            0x5c, 0xbe, 0x46, 0x06, 0x92, 0x3e, 0x76, 0x99, 0xa1, 0x3d,
            0x84, 0xa4, 0x74, 0xbf, 0x03, 0x64, 0xe7, 0x3e, 0x33, 0x75,
            0x08, 0x3f, 0x08, 0x98, 0x12, 0x3e, 0x19, 0xc8, 0x4b, 0x3f,
            0xaa, 0xc0, 0xe7, 0xbd, 0x88, 0x2c, 0xeb, 0x3e, 0xcd, 0x0e,
            0xc4, 0x3e, 0x65, 0xb8, 0x7c, 0x3e, 0x92, 0x4a, 0x8f, 0xbe,
            0x64, 0x1f, 0x76, 0x3e, 0x45, 0xa4, 0x6b, 0x3f, 0xd4, 0x6a,
            0x21, 0xbf, 0xbb, 0xa5, 0x9e, 0xbe, 0x8f, 0x89, 0x7a, 0x3e,
            0x02, 0x94, 0x9c, 0xbd, 0xb8, 0x30, 0xf3, 0xbc, 0x3b, 0x7f,
            0x3f, 0xbd, 0x6d, 0x54, 0x6e, 0xbe, 0x4c, 0x13, 0x06, 0xbd,
            0xa5, 0x44, 0x9a, 0xbe, 0xd0, 0x4f, 0xca, 0x3d, 0x64, 0xeb,
            0x2e, 0xbe, 0xf1, 0xa8, 0x81, 0xbe, 0xb9, 0xa6, 0xa9, 0xbe,
            0x26, 0xa0, 0x11, 0xbe, 0x75, 0xf3, 0x9c, 0xbc, 0xeb, 0x51,
            0x80, 0x3d, 0x25, 0x43, 0x83, 0xbd, 0x49, 0x8d, 0xc0, 0x3d,
            0xc2, 0xae, 0xe1, 0x3d, 0x62, 0xeb, 0x87, 0x3e, 0x02, 0xd2,
            0x44, 0xbe, 0x1f, 0x20, 0x84, 0x3e, 0x2d, 0xc0, 0xa2, 0xbe,
            0x8a, 0x8a, 0x46, 0xbe, 0x9e, 0x8e, 0x0d, 0xbd, 0x08, 0x04,
            0x38, 0x3e, 0x95, 0xf1, 0x4f, 0xbc, 0x2d, 0xab, 0x8a, 0xbe,
            0xb5, 0x4c, 0x81, 0x3e, 0x90, 0xd1, 0x97, 0xbe, 0x25, 0xff,
            0x1f, 0xbe, 0x18, 0xa9, 0x0b, 0xbe, 0x1d, 0x73, 0x06, 0x3e,
            0xaf, 0x7b, 0x82, 0x3e, 0xb9, 0x6b, 0x75, 0xbe, 0xae, 0xff,
            0x8c, 0xbd, 0x64, 0x3a, 0x60, 0xbe, 0x9b, 0xa0, 0x90, 0x3e,
            0x6b, 0x5e, 0xab, 0x3e, 0x9d, 0x21, 0x47, 0x3d, 0x01, 0xfe,
            0x90, 0x3d, 0x42, 0xd9, 0x15, 0xbe, 0xba, 0x50, 0x50, 0x3d,
            0x52, 0x2f, 0x87, 0xbb, 0x30, 0xbd, 0x67, 0xbe, 0x9c, 0xea,
            0xad, 0x3e, 0xdd, 0x92, 0xce, 0x3b, 0xad, 0xfb, 0xaa, 0xbd,
            0x1d, 0xdd, 0x6b, 0x3e, 0x22, 0x44, 0x47, 0xbc, 0x54, 0x01,
            0x8a, 0x3e, 0xe8, 0x00, 0x54, 0xbe, 0x52, 0x40, 0xa9, 0xbe,
            0xc9, 0xa2, 0xf3, 0xbc, 0xe5, 0xb7, 0xd0, 0x3d, 0x57, 0x68,
            0x2d, 0x3d, 0xb9, 0x2a, 0x2c, 0x3e, 0xaf, 0x96, 0xe5, 0xbd,
            0x85, 0x2f, 0x9d, 0x3e, 0xf2, 0x53, 0xa5, 0x3e, 0x38, 0x8f,
            0xfd, 0x3c, 0xdb, 0xeb, 0xda, 0xbd, 0x5d, 0x8f, 0xa8, 0xbd,
            0x09, 0xbe, 0x97, 0x3d, 0x76, 0x89, 0x95, 0xbe, 0x4e, 0x9d,
            0x81, 0x3e, 0x90, 0x04, 0x8a, 0xbe, 0xcc, 0x51, 0x10, 0xbe,
            0x22, 0xf2, 0x88, 0x3e, 0x0e, 0x0d, 0xa7, 0x3e, 0x9d, 0xe2,
            0x03, 0x3e, 0xea, 0x9c, 0xf8, 0xbd, 0xf5, 0xef, 0x03, 0x3f,
            0xd0, 0x29, 0x83, 0xbe, 0xfa, 0x59, 0x0f, 0x3f, 0x89, 0x84,
            0xea, 0x3c, 0x7a, 0xc5, 0xce, 0x3e, 0xec, 0x6d, 0x3d, 0xbe,
            0x94, 0x65, 0x1d, 0x3c, 0xb6, 0x2d, 0xc1, 0x3a, 0x4c, 0xd4,
            0x81, 0x3e, 0xb6, 0xd1, 0xf9, 0xbd, 0x26, 0x9f, 0xa0, 0xbe,
            0xd1, 0xb7, 0xb2, 0x3e, 0xf1, 0xc4, 0x0d, 0xbe, 0x16, 0x5e,
            0x85, 0x3d, 0x10, 0xb2, 0xbe, 0xbb, 0x2c, 0x39, 0x3d, 0x3e,
            0x32, 0xa9, 0x15, 0x3e, 0x37, 0x53, 0x22, 0xbe, 0xa5, 0x5d,
            0xab, 0xbd, 0xc7, 0xd8, 0x07, 0x3e, 0x82, 0x6f, 0xb2, 0x3e,
            0xc8, 0xfb, 0x55, 0xbe, 0x25, 0x7d, 0x20, 0x3f, 0x34, 0x09,
            0x2a, 0x3e, 0x2b, 0x6b, 0x6f, 0xbf, 0x61, 0x5c, 0xfc, 0x3d,
            0x3f, 0xb1, 0xf7, 0xbc, 0xe5, 0x79, 0x33, 0x3d, 0x3f, 0x97,
            0x6d, 0x3f, 0x51, 0x5c, 0x3f, 0xbf, 0x9d, 0xac, 0x95, 0x3e,
            0x90, 0x0b, 0xab, 0x3e, 0x40, 0xba, 0x0a, 0x3f, 0xd2, 0x48,
            0x22, 0xbe, 0xa3, 0xb3, 0x11, 0x3f, 0x3c, 0x50, 0x11, 0x3f,
            0xb2, 0xc2, 0x1b, 0x3f, 0x26, 0x02, 0x04, 0x3f, 0xb6, 0x17,
            0x54, 0xbf, 0xff, 0x7d, 0x9e, 0x3d, 0x5f, 0x2a, 0x91, 0x3e,
            0xe3, 0x05, 0x27, 0x3f, 0x83, 0x3a, 0x04, 0x3c, 0xd5, 0xee,
            0xb9, 0x3f, 0x58, 0xe3, 0x6f, 0x3f, 0x27, 0x43, 0xe5, 0xbe,
            0x3a, 0xda, 0xeb, 0x3e, 0xb2, 0x26, 0xed, 0x3e, 0x37, 0xd1,
            0x66, 0x3e, 0x10, 0xa1, 0x07, 0x3e, 0xf1, 0x28, 0x6e, 0x3f,
            0xdc, 0x97, 0x08, 0x3e, 0xce, 0x3f, 0x7d, 0x3d, 0x92, 0xeb,
            0xee, 0x3c, 0x17, 0x38, 0xd7, 0x3d, 0x2e, 0x41, 0xf5, 0xbd,
            0xd6, 0xac, 0x1e, 0xbf, 0x0c, 0xc3, 0x2a, 0xbb, 0x03, 0x8a,
            0x02, 0xbe, 0xa2, 0x85, 0xa2, 0xbe, 0x1a, 0x37, 0x3e, 0x3e,
            0x23, 0xf2, 0xd8, 0xbd, 0x29, 0xf3, 0x0a, 0x3e, 0xc1, 0xc6,
            0x04, 0xbe, 0x2d, 0xae, 0x10, 0x3f, 0xdf, 0xff, 0x33, 0x3e,
            0x11, 0x08, 0x02, 0x3f, 0x55, 0x92, 0x2d, 0x3e, 0x38, 0x71,
            0x02, 0x3f, 0x9c, 0x04, 0x75, 0x3e, 0x46, 0xda, 0x9f, 0xbe,
            0xcd, 0x55, 0xc2, 0x3b, 0xe1, 0xc2, 0x85, 0x3e, 0xa2, 0x8d,
            0x82, 0xbd, 0x70, 0x91, 0x65, 0xbe, 0x97, 0x58, 0x3c, 0x3f,
            0x00, 0x91, 0x8b, 0xbf, 0x28, 0x44, 0x98, 0xbe, 0x58, 0xb2,
            0x81, 0x3e, 0xc5, 0x1e, 0xb3, 0x3e, 0x02, 0xb5, 0x39, 0x3f,
            0x15, 0x52, 0xc0, 0x3c, 0x52, 0x3e, 0xf9, 0x3d, 0x53, 0x1b,
            0x86, 0xbc, 0xb9, 0xc4, 0x0d, 0x3f, 0x4e, 0x57, 0xaa, 0x3d,
            0x11, 0x5e, 0xc4, 0x3e, 0xa2, 0xa1, 0xdf, 0xbd, 0x3a, 0xa1,
            0x71, 0xbf, 0x24, 0xa6, 0x21, 0x3f, 0x77, 0xca, 0xf6, 0x3d,
            0xc6, 0x8e, 0xa1, 0x3e, 0xd3, 0xdf, 0x15, 0x40, 0xb3, 0x1a,
            0x17, 0xbf, 0x54, 0xb2, 0x77, 0xbd, 0x0a, 0xd8, 0x37, 0x3f,
            0xbb, 0x2d, 0x16, 0x40, 0xfa, 0xf7, 0x0e, 0xbf, 0x45, 0x51,
            0x15, 0x40, 0xab, 0x95, 0xb1, 0xbe, 0x7f, 0xab, 0x69, 0x3f,
            0x42, 0x90, 0xa1, 0xbd, 0x48, 0x05, 0x30, 0x3e, 0x7d, 0xe8,
            0x4d, 0x3e, 0x67, 0xc9, 0x9e, 0x3f, 0x68, 0x3e, 0xde, 0xbf,
            0x11, 0xeb, 0x0f, 0xbf, 0xda, 0x3b, 0xc6, 0xbe, 0xad, 0xab,
            0xbb, 0xbf, 0xe0, 0xdc, 0x34, 0x3f, 0x12, 0x62, 0x50, 0x3f,
            0x3b, 0xe0, 0x76, 0x3e, 0x04, 0xfa, 0x79, 0xbe, 0x2a, 0x7a,
            0x0f, 0xbe, 0xee, 0xd7, 0x3f, 0x3f, 0x49, 0x6c, 0xf0, 0x3e,
            0x58, 0x8d, 0x47, 0x3e, 0x54, 0xc1, 0xd4, 0xbe, 0x4d, 0x66,
            0xe5, 0x3e, 0x48, 0x7d, 0x93, 0x3f, 0xe8, 0x4c, 0xcf, 0xbf,
            0xb5, 0xb3, 0x99, 0x3e, 0x75, 0x01, 0x52, 0xbe, 0x3c, 0x43,
            0x32, 0xbf, 0x44, 0xa5, 0x2c, 0x3e, 0x4b, 0xe6, 0xf7, 0xbe,
            0x76, 0xcf, 0xa4, 0x3e, 0xf6, 0xd1, 0x5e, 0x3e, 0x48, 0xc6,
            0xc5, 0x3e, 0x8d, 0x0a, 0xf3, 0xbd, 0xfd, 0xe5, 0x4b, 0x3f,
            0x84, 0x12, 0x3f, 0x3e, 0xbb, 0xb5, 0x17, 0x3f, 0x7c, 0x1d,
            0x16, 0x3e, 0x55, 0xb9, 0x63, 0x3e, 0xc9, 0x88, 0x6c, 0x3e,
            0xcf, 0xfb, 0x13, 0x3f, 0x52, 0x3c, 0xc3, 0x3d, 0x6c, 0x0c,
            0x63, 0xbe, 0x5a, 0x53, 0x99, 0x3f, 0x30, 0xbf, 0x90, 0xbd,
            0x11, 0xed, 0x84, 0xbd, 0x57, 0x24, 0x85, 0x3e, 0x90, 0x0d,
            0xe4, 0x3e, 0xf2, 0x61, 0x23, 0x3f, 0x6b, 0x8d, 0x7f, 0xbe,
            0xc4, 0x27, 0xaa, 0x3d, 0xe3, 0x2c, 0xad, 0x3e, 0xb0, 0x49,
