#include "nn1_data.h"

ai_handle ai_nn1_data_weights_get(void)
{

  AI_ALIGNED(4)
  static const ai_u8 s_nn1_weights[ 21232 ] = {
    0x80, 0xd3, 0x36, 0x43, 0x01, 0x91, 0xa4, 0x3e, 0x1e, 0x1c,
    0x94, 0x3e, 0xff, 0x07, 0x9a, 0x3e, 0x03, 0xbb, 0x61, 0x3e,
    0x28, 0x6f, 0x31, 0x3e, 0xcb, 0x2d, 0x6c, 0x40, 0x4d, 0x75,
    0xf1, 0x40, 0xc5, 0x14, 0x3a, 0xc3, 0x6c, 0x2f, 0xb0, 0xc3,
    0x65, 0x85, 0x8b, 0xc3, 0xef, 0x1e, 0x71, 0xc3, 0xc4, 0x28,
    0x9f, 0xc3, 0xa7, 0x58, 0x37, 0xc3, 0x9d, 0x57, 0x42, 0xc3,
    0xe7, 0x71, 0x0e, 0xc3, 0x3c, 0x74, 0x20, 0x3e, 0x80, 0x4f,
    0x37, 0xbc, 0x5e, 0xfe, 0x45, 0xbd, 0xe0, 0xad, 0xed, 0x3c,
    0x25, 0x32, 0x97, 0x3d, 0x51, 0xb0, 0xde, 0xbc, 0x26, 0x4e,
    0x15, 0xbd, 0x39, 0xfd, 0x09, 0x3e, 0xa4, 0x49, 0x46, 0xbb,
    0xf5, 0x02, 0x77, 0xbc, 0xaa, 0x95, 0xec, 0xbd, 0x36, 0x46,
    0x9b, 0xbc, 0x41, 0x4a, 0x57, 0xbd, 0x36, 0x20, 0xf9, 0x3d,
    0x46, 0x07, 0xb4, 0xbd, 0x42, 0xad, 0xa0, 0x3d, 0xf6, 0x74,
    0x1a, 0xbe, 0x02, 0x34, 0xe2, 0x3e, 0x6d, 0x11, 0x25, 0xbe,
    0x6c, 0x1c, 0xb1, 0xbd, 0xe7, 0xeb, 0xe2, 0x3c, 0x4f, 0x7c,
    0x85, 0xbe, 0x1f, 0x56, 0x3f, 0x3e, 0x3a, 0x70, 0x92, 0xbe,
    0x8b, 0xb0, 0xcb, 0x39, 0xb2, 0x93, 0x82, 0xbd, 0x32, 0x9a,
    0x9d, 0x3e, 0xa3, 0xf6, 0xe7, 0x3c, 0x83, 0x26, 0xb7, 0x3d,
    0xca, 0x6c, 0xe6, 0xbc, 0x83, 0x37, 0xde, 0xbc, 0xc6, 0x9c,
    0xa5, 0xbd, 0xd3, 0x9c, 0xfa, 0xba, 0xc8, 0x77, 0x58, 0x3d,
    0x0c, 0xde, 0x07, 0xbd, 0xad, 0x51, 0xd5, 0x3b, 0x1a, 0xe9,
    0xb9, 0x39, 0xc1, 0xed, 0x9a, 0x3c, 0xa9, 0x8b, 0x55, 0xbc,
    0xbe, 0x03, 0x9c, 0x3c, 0xa5, 0xb1, 0x7a, 0x3b, 0x6a, 0x71,
    0xf2, 0x3c, 0xd1, 0x00, 0x9c, 0xbb, 0xa5, 0x31, 0x85, 0x3c,
    0x19, 0xa1, 0xaa, 0xbc, 0x15, 0x94, 0x12, 0x39, 0x9e, 0x37,
    0xc1, 0x3b, 0xed, 0x4a, 0x75, 0xbc, 0x77, 0xf7, 0x9f, 0x3d,
    0x32, 0xce, 0x59, 0xbe, 0x99, 0xc0, 0xaa, 0x3d, 0x3a, 0x39,
    0x3f, 0xbe, 0x32, 0xba, 0x0d, 0xbf, 0x3e, 0xbe, 0x8e, 0xbc,
    0xe1, 0x77, 0xc2, 0x3d, 0x95, 0xde, 0x72, 0xbc, 0x67, 0x63,
    0x94, 0x3c, 0x4b, 0x39, 0x8d, 0xbe, 0xa5, 0x4c, 0x17, 0x3f,
    0x13, 0xca, 0xdd, 0xba, 0x27, 0xb5, 0x89, 0x3c, 0x9d, 0x1f,
    0x0c, 0xbe, 0x94, 0xc9, 0xaa, 0xbd, 0x51, 0x77, 0x7a, 0xbe,
    0x19, 0x54, 0x83, 0xbd, 0x6c, 0xbb, 0xe5, 0x3d, 0x0d, 0x14,
    0xa3, 0xbe, 0xb4, 0x09, 0x41, 0xbe, 0x3c, 0x39, 0x44, 0xbf,
    0x73, 0x07, 0x5b, 0x3e, 0xa0, 0xf3, 0x03, 0xbe, 0x68, 0xca,
    0x03, 0x3d, 0x85, 0xb6, 0x11, 0x3d, 0xa4, 0x61, 0xf5, 0x3d,
    0xa5, 0x70, 0x56, 0x3d, 0x36, 0x39, 0x5f, 0x3d, 0x76, 0xfb,
    0x20, 0xbd, 0x56, 0x5e, 0x7c, 0xbd, 0x9e, 0xa4, 0x9a, 0x3b,
    0xc5, 0x7b, 0x2d, 0x3c, 0xa1, 0xe8, 0x19, 0x3f, 0x34, 0x7e,
    0xe0, 0x39, 0x6a, 0x57, 0x51, 0x3d, 0xd0, 0xe0, 0x5c, 0xbe,
    0x08, 0x0e, 0xc9, 0xbe, 0x17, 0x75, 0x6d, 0x3d, 0xdf, 0x35,
    0x3d, 0x3e, 0x19, 0xb3, 0x25, 0x3e, 0xff, 0x16, 0x0a, 0x3e,
    0x37, 0x4f, 0x70, 0x3e, 0x80, 0xa7, 0x81, 0xbe, 0x3a, 0x2e,
    0xbd, 0xbe, 0x6d, 0xcd, 0xb3, 0xbe, 0x0a, 0x1d, 0xb1, 0xbd,
    0x1a, 0x44, 0x81, 0x3e, 0xe9, 0x19, 0x11, 0xbe, 0xb1, 0xa2,
    0x28, 0xbd, 0x31, 0x46, 0x16, 0xbd, 0xeb, 0x95, 0x24, 0xbd,
    0x39, 0x4d, 0x04, 0xbc, 0xba, 0x89, 0x16, 0x3d, 0xc1, 0x01,
    0xfb, 0x3b, 0xa9, 0x10, 0x79, 0x3d, 0x5b, 0x61, 0x4e, 0x3c,
    0x12, 0xba, 0x29, 0x3e, 0x83, 0x19, 0x9e, 0xbe, 0xe3, 0x72,
    0xb4, 0x3e, 0x14, 0x9f, 0x2e, 0x3e, 0x49, 0x5a, 0xa2, 0x3d,
    0x3c, 0x2d, 0xaf, 0xbd, 0xda, 0xd7, 0x4f, 0x3e, 0x55, 0x10,
    0xe6, 0x3c, 0xa1, 0xcc, 0x2b, 0xbe, 0xbd, 0xf7, 0xa1, 0xbd,
    0xfe, 0xa2, 0x6b, 0xbd, 0x18, 0x64, 0x42, 0xbd, 0xc7, 0xc2,
    0x42, 0xbc, 0xec, 0x39, 0x34, 0x3e, 0x2b, 0x7c, 0x13, 0xbe,
    0xff, 0x78, 0x12, 0xbd, 0x66, 0x87, 0x57, 0xbd, 0x53, 0xea,
    0x16, 0xbd, 0xf1, 0xea, 0x52, 0x3d, 0x70, 0xb7, 0x44, 0xbf,
    0x5c, 0x57, 0xc1, 0xbe, 0xb2, 0xe4, 0xd3, 0xbd, 0xb2, 0x8f,
    0xd2, 0xbc, 0xc9, 0x54, 0x14, 0xbe, 0x11, 0xa3, 0x09, 0x3e,
    0xcb, 0x6e, 0xd5, 0xbb, 0xaa, 0x0e, 0x6f, 0x3e, 0x7a, 0x65,
    0x36, 0xbd, 0x42, 0x2e, 0x95, 0xbe, 0xa6, 0xc2, 0x4e, 0xbd,
    0xcf, 0x86, 0x34, 0x3d, 0xc5, 0x4b, 0xb2, 0xbc, 0x94, 0x99,
    0xff, 0x3c, 0xd5, 0x16, 0xe7, 0xbd, 0xb5, 0x49, 0x5f, 0x3e,
    0x85, 0xa9, 0x6a, 0x3d, 0x25, 0xd6, 0x40, 0xbd, 0xa9, 0x56,
    0x61, 0x3e, 0xa0, 0xfb, 0x5c, 0x3e, 0x24, 0x30, 0xbf, 0x3c,
    0x2f, 0x8f, 0xf4, 0x3c, 0xaf, 0xbd, 0x77, 0x3c, 0x67, 0xc4,
    0x18, 0xbc, 0x5d, 0x4b, 0x93, 0x3c, 0x4f, 0x78, 0xe1, 0xbc,
    0xaa, 0x35, 0x6b, 0x3d, 0x8c, 0x3c, 0x41, 0x3a, 0xd1, 0xf4,
    0x94, 0xbb, 0xbd, 0x1f, 0x60, 0x3b, 0x78, 0xaf, 0x04, 0xbc,
    0x4b, 0xb4, 0x01, 0x3d, 0xcd, 0xa6, 0x3e, 0xbb, 0x56, 0x91,
    0x4b, 0xbc, 0x6e, 0x1b, 0x47, 0x3c, 0xf2, 0x3c, 0xa5, 0x3a,
    0x52, 0xa7, 0xd5, 0xbb, 0x92, 0x66, 0x43, 0xbe, 0x96, 0x57,
    0xed, 0x3c, 0x12, 0xdb, 0x15, 0x3e, 0x84, 0xc5, 0x0f, 0xbf,
    0xbe, 0x10, 0x06, 0xbf, 0x7b, 0x7e, 0x43, 0x3e, 0x06, 0x10,
    0xc9, 0xbc, 0x6b, 0x5f, 0xc6, 0xbe, 0xd1, 0x74, 0x4b, 0x3d,
    0xb2, 0xbd, 0x81, 0x3d, 0xdc, 0xab, 0x1d, 0xbd, 0x99, 0xef,
    0x26, 0x3c, 0x98, 0x30, 0x15, 0x3d, 0xbe, 0x46, 0x67, 0x3c,
    0x4f, 0x2d, 0xbd, 0xbc, 0xc3, 0xa1, 0x4e, 0xbd, 0xaa, 0xe1,
    0x34, 0xbe, 0xdb, 0x2a, 0xb9, 0x3e, 0x8e, 0x1c, 0xd6, 0x3d,
    0xd9, 0x27, 0x51, 0x3e, 0xad, 0x8c, 0xca, 0x3e, 0xe7, 0x29,
    0x13, 0x3e, 0x57, 0x6f, 0xa6, 0x3b, 0x78, 0x8b, 0x18, 0x3d,
    0xa0, 0xf7, 0x52, 0x3d, 0x08, 0x91, 0x32, 0xbd, 0xf7, 0xa1,
    0xd2, 0x3c, 0x4d, 0xc8, 0x51, 0x3b, 0x44, 0xd4, 0x79, 0xbd,
    0x47, 0x2e, 0x7b, 0x3d, 0x5a, 0x3d, 0x10, 0x3c, 0x7e, 0x73,
    0xb4, 0xbc, 0x9b, 0x89, 0x16, 0x3d, 0x17, 0x00, 0xdf, 0x3c,
    0xa9, 0xed, 0xed, 0x3c, 0x47, 0x97, 0x15, 0xbd, 0x6c, 0x1f,
    0x8d, 0x3c, 0x8b, 0x1a, 0x86, 0xbd, 0xcf, 0x03, 0xc1, 0xbc,
    0xd2, 0x17, 0xe6, 0x3c, 0x14, 0x27, 0x8e, 0x3b, 0x59, 0xb2,
    0x7e, 0xbc, 0xe3, 0xff, 0x09, 0x3c, 0x90, 0xbb, 0xa0, 0x3c,
    0x8c, 0x3a, 0x06, 0x3d, 0x68, 0x20, 0xd6, 0x3c, 0x58, 0xf6,
    0x48, 0xbb, 0x57, 0xe0, 0xaf, 0xbc, 0x77, 0x1f, 0x6c, 0x3c,
    0xfa, 0x54, 0x64, 0xbd, 0x99, 0x7d, 0x07, 0x3e, 0x39, 0x6e,
    0xb1, 0xbd, 0x83, 0x09, 0x90, 0x3e, 0x6c, 0xf9, 0x02, 0xbe,
    0x5c, 0x49, 0xb6, 0xbc, 0x7d, 0x37, 0xf7, 0x3c, 0xce, 0x71,
    0xa6, 0x3d, 0x04, 0xf4, 0x45, 0x3d, 0x1b, 0x8a, 0xd6, 0xbd,
    0x25, 0x3d, 0x90, 0x3d, 0x4c, 0xb4, 0x29, 0xbd, 0x2e, 0xc7,
    0x67, 0x3e, 0xb7, 0x8a, 0x5c, 0xbe, 0x39, 0xec, 0xac, 0x3d,
    0xf5, 0x39, 0xb1, 0x3d, 0x5f, 0xb3, 0x6e, 0x3b, 0x00, 0x0f,
    0xb6, 0xbd, 0xe0, 0xc2, 0xde, 0xbe, 0x86, 0x87, 0x02, 0xbd,
    0xaa, 0x62, 0x14, 0xbe, 0xf4, 0x1f, 0xcb, 0x3c, 0x43, 0xce,
    0x0c, 0x3e, 0x12, 0x04, 0x2a, 0x3e, 0x55, 0xe2, 0x69, 0xbe,
    0x62, 0x3e, 0x93, 0xbe, 0x0c, 0xd0, 0x66, 0x3e, 0xec, 0xfa,
    0x3d, 0xbe, 0xfe, 0x2b, 0x1d, 0x3f, 0xd2, 0x07, 0x72, 0x3d,
    0xd1, 0x45, 0x2f, 0x3d, 0x19, 0x41, 0x60, 0xbd, 0xc9, 0xa2,
    0xaf, 0xbe, 0x63, 0x00, 0x2e, 0x3e, 0x4b, 0x6b, 0x55, 0x3e,
    0xa6, 0xfc, 0x05, 0x3e, 0x5a, 0xce, 0xab, 0x3e, 0x10, 0xf4,
    0x23, 0xbe, 0x55, 0x4a, 0xd3, 0x3d, 0x1f, 0x76, 0xd2, 0x3d,
    0x19, 0xb1, 0x29, 0xbe, 0x31, 0x6d, 0xe8, 0x3e, 0x1b, 0xaf,
    0x3e, 0x3e, 0xf9, 0xb3, 0xa3, 0xbe, 0x09, 0x9a, 0xa8, 0x3e,
    0x6b, 0xe8, 0x6a, 0x3e, 0x4e, 0xa1, 0xbf, 0xbd, 0xb4, 0x42,
    0xe8, 0xba, 0xc4, 0x57, 0xdc, 0x3c, 0xbe, 0x8e, 0x9c, 0x3a,
    0x46, 0xa1, 0x13, 0x3c, 0xec, 0x65, 0x8f, 0x3c, 0x0c, 0x9e,
    0x76, 0x3c, 0x5c, 0x91, 0x6f, 0xbb, 0x5b, 0xf6, 0x44, 0xbc,
    0x89, 0xe0, 0x62, 0xbd, 0xde, 0x2f, 0xb2, 0x3b, 0xbf, 0xc5,
    0x04, 0x3b, 0x4d, 0x33, 0x9f, 0x3d, 0x3c, 0xa2, 0x11, 0x3e,
    0xe1, 0xfc, 0x9b, 0x3b, 0x47, 0xcb, 0x8c, 0xbc, 0x25, 0xb0,
    0xf2, 0xbc, 0xc1, 0xab, 0x3d, 0xbd, 0x56, 0xe2, 0x03, 0x3d,
    0xbe, 0xee, 0x03, 0x3f, 0x2c, 0x37, 0xc0, 0xbd, 0x79, 0xb9,
    0x04, 0xbf, 0x33, 0x28, 0x01, 0xbe, 0xc4, 0x53, 0x59, 0x3e,
    0xbb, 0x1a, 0x81, 0xbe, 0x92, 0xf6, 0x9e, 0x3c, 0xdc, 0x8b,
    0xa1, 0xbe, 0xd6, 0xad, 0xe9, 0x3d, 0x99, 0x3d, 0xdd, 0xbd,
    0xc7, 0x9e, 0x81, 0xbe, 0x71, 0xc5, 0x32, 0xbe, 0x9b, 0xcb,
    0x5f, 0x3e, 0x78, 0xbd, 0x70, 0xbd, 0xbb, 0xee, 0xfa, 0xbc,
    0xd7, 0x78, 0x91, 0xbb, 0x46, 0x21, 0x0a, 0xbe, 0xc1, 0xeb,
    0x3c, 0xbd, 0x83, 0xf6, 0xc7, 0x3d, 0x22, 0x3a, 0xc0, 0x3b,
    0x04, 0xca, 0x59, 0x3c, 0xf5, 0xb7, 0x16, 0x3c, 0xbc, 0x05,
    0x5e, 0x3e, 0xbe, 0xab, 0xf5, 0xbe, 0x77, 0x63, 0x90, 0x3d,
    0xfb, 0xf4, 0x93, 0xbe, 0xf0, 0xbe, 0x14, 0xbe, 0xf8, 0xc5,
    0xad, 0x3e, 0xdc, 0xc5, 0x0f, 0x3d, 0x22, 0x06, 0x3e, 0x3e,
    0x71, 0x04, 0x79, 0x3b, 0x6e, 0x9c, 0x91, 0x3c, 0x9c, 0x56,
    0x3d, 0xbd, 0x95, 0x3f, 0x0d, 0xbd, 0xc1, 0xe8, 0x93, 0x39,
    0x90, 0x7a, 0xfa, 0x3c, 0xd1, 0x14, 0xc0, 0x3c, 0xbc, 0xf8,
    0xe4, 0xbc, 0x30, 0xc9, 0x13, 0xbd, 0xf1, 0xf2, 0xe2, 0x3c,
    0x94, 0x8e, 0xa1, 0xbd, 0xe4, 0xd5, 0x87, 0xbb, 0x59, 0x05,
    0xaa, 0x3c, 0x67, 0xcf, 0xa8, 0x3d, 0xf8, 0xd9, 0x04, 0xbb,
    0x34, 0x30, 0x98, 0x3c, 0x42, 0x8b, 0x1c, 0xbe, 0x73, 0x17,
    0xbd, 0xbc, 0x25, 0x9c, 0x9b, 0x3e, 0xb2, 0xa4, 0x11, 0xbf,
    0xe4, 0x34, 0x1b, 0xbe, 0xa1, 0x9e, 0x40, 0xbe, 0x01, 0xe6,
    0x7f, 0xbe, 0x82, 0x84, 0x9e, 0x3d, 0x97, 0x53, 0xae, 0xbe,
    0x04, 0x1a, 0xbc, 0x3e, 0x6c, 0x82, 0x47, 0x3e, 0x4f, 0x0a,
    0xc2, 0xbd, 0xec, 0x10, 0x77, 0x3e, 0xad, 0x07, 0xfd, 0xbd,
    0x7c, 0x1c, 0xab, 0x3e, 0x39, 0x61, 0x39, 0x3d, 0x8d, 0x66,
    0x5c, 0x3d, 0xab, 0x86, 0xdd, 0xbd, 0x1b, 0x98, 0x88, 0x3e,
    0x58, 0xb3, 0xc0, 0xbe, 0xaf, 0x47, 0x20, 0xbe, 0xce, 0xe3,
    0xf7, 0xbd, 0x97, 0xfc, 0x31, 0x3e, 0xa1, 0xca, 0x65, 0xbd,
    0x0b, 0xcd, 0x50, 0xbe, 0x05, 0xfd, 0xc5, 0x3d, 0xe1, 0x64,
    0xaf, 0x3d, 0xd3, 0x8b, 0xef, 0xbd, 0x0c, 0x7f, 0xc9, 0x3d,
    0x90, 0xb1, 0x3e, 0xbe, 0xd4, 0x8f, 0xcf, 0xbd, 0x3d, 0x10,
    0x00, 0xbe, 0xda, 0xde, 0x32, 0x3d, 0xcf, 0x68, 0x62, 0x3e,
    0x04, 0x10, 0x13, 0x3e, 0x0b, 0x11, 0xc0, 0x3d, 0x62, 0xf0,
    0x1d, 0xbd, 0x32, 0xcc, 0x21, 0xbd, 0xe4, 0x0e, 0xfe, 0x3c,
    0x44, 0x32, 0x1c, 0xbd, 0xb2, 0xf2, 0x3b, 0xbd, 0x9b, 0xe5,
    0xdb, 0xbc, 0xd5, 0xfd, 0x59, 0xbd, 0x1d, 0x76, 0x65, 0x3d,
    0xe3, 0x7d, 0x5d, 0x3d, 0xe5, 0xf6, 0xc5, 0x3d, 0x25, 0x48,
    0x34, 0x3d, 0x11, 0x9c, 0xb5, 0x3c, 0xf5, 0xbf, 0x5c, 0xbe,
    0x8e, 0xf7, 0x96, 0xbe, 0xc2, 0xf7, 0xe6, 0xbe, 0x23, 0x29,
    0x8b, 0xbe, 0xeb, 0x41, 0x83, 0x3e, 0xb7, 0xdc, 0x0b, 0x3f,
    0x74, 0xa3, 0xd9, 0xbd, 0xbc, 0x09, 0x48, 0x3d, 0xf7, 0xda,
    0x43, 0xb9, 0x66, 0xa4, 0xae, 0x3b, 0xec, 0x54, 0x58, 0x3d,
    0x6f, 0x1e, 0xa7, 0x3a, 0xa0, 0xc4, 0x70, 0xbc, 0x9b, 0xba,
    0xc2, 0xbc, 0x65, 0x59, 0x20, 0xbc, 0xbf, 0xa6, 0x03, 0x3b,
    0x35, 0xc9, 0xce, 0xbc, 0x83, 0x0e, 0x52, 0x3d, 0xe0, 0x9e,
    0xca, 0xbd, 0x02, 0xbd, 0x27, 0xbd, 0xc1, 0x3c, 0x66, 0x3d,
    0xb9, 0x6d, 0xb4, 0xbc, 0x38, 0x8d, 0xef, 0xbb, 0x40, 0xb3,
    0xfb, 0xb9, 0x55, 0xe1, 0x39, 0xbd, 0xf6, 0x26, 0x6e, 0xbd,
    0x2b, 0xfa, 0xd5, 0x3e, 0xb4, 0xa8, 0x5b, 0xbd, 0x60, 0xfd,
    0x68, 0x3e, 0x08, 0xb1, 0x65, 0xbe, 0x12, 0x86, 0x6d, 0xbc,
    0x38, 0xbb, 0xf2, 0x3d, 0xcc, 0x75, 0xe5, 0xbc, 0x59, 0x99,
    0x86, 0x3b, 0xf6, 0xba, 0xa0, 0x3c, 0xe7, 0x8d, 0x14, 0x3c,
    0x59, 0x61, 0x9f, 0x3b, 0x85, 0x18, 0x96, 0x3b, 0x45, 0xbe,
    0xb5, 0xbc, 0x5e, 0x75, 0xf9, 0xbb, 0xd2, 0x94, 0xfb, 0xbd,
    0xbe, 0x76, 0xcf, 0xbd, 0x04, 0x40, 0xaf, 0xbd, 0xc9, 0xa3,
    0x44, 0xbe, 0x01, 0x17, 0xe0, 0x3d, 0x11, 0xde, 0x86, 0xbc,
    0xa2, 0xc2, 0x10, 0x3f, 0x72, 0x9f, 0x83, 0xbe, 0xe7, 0xbe,
    0xd0, 0x3b, 0x1a, 0x5a, 0x9e, 0x3b, 0xdd, 0x7b, 0x27, 0x3d,
    0x6e, 0x29, 0x23, 0x3c, 0x70, 0xa3, 0xaf, 0x3b, 0xa9, 0x5a,
    0x76, 0xba, 0x42, 0xf3, 0x16, 0xba, 0xe1, 0x4a, 0xd8, 0xbb,
    0xfd, 0x2e, 0x79, 0x3d, 0x21, 0x15, 0x7c, 0x3d, 0xa5, 0xcf,
    0x62, 0x3b, 0x2a, 0xef, 0x96, 0xbe, 0x21, 0xb7, 0x97, 0xbe,
    0x83, 0x56, 0x99, 0x3e, 0x13, 0x9e, 0x5b, 0xbe, 0x99, 0x28,
    0x75, 0x3d, 0xf5, 0xf2, 0x01, 0xbd, 0x7b, 0x1a, 0x00, 0x3e,
    0x4d, 0xdc, 0xf0, 0x3e, 0xd4, 0x85, 0x00, 0xbf, 0xdd, 0xa3,
    0x01, 0xbf, 0x3e, 0xd5, 0x99, 0xbe, 0x00, 0x91, 0x54, 0x3e,
    0x4d, 0xf2, 0xb1, 0x3d, 0x94, 0x6e, 0x78, 0x3d, 0x46, 0x53,
    0x55, 0xbe, 0x2e, 0x2f, 0xa0, 0x3e, 0x39, 0x03, 0xcc, 0xbd,
    0x1e, 0xc0, 0xeb, 0x3d, 0xf2, 0xdd, 0x80, 0x3e, 0xfd, 0xdc,
    0xbf, 0x3e, 0x3f, 0x27, 0x8f, 0xbe, 0x5f, 0x11, 0x16, 0xbe,
    0x74, 0x93, 0xe4, 0x3e, 0xca, 0xd7, 0x04, 0xbe, 0x39, 0x33,
    0x38, 0x3e, 0x7f, 0x31, 0xb1, 0x3a, 0x7d, 0xc7, 0xe5, 0xbd,
    0xac, 0xb5, 0x79, 0xbd, 0xd3, 0xb8, 0x8e, 0xbd, 0xaf, 0xbd,
    0x32, 0xbc, 0x44, 0xd2, 0x06, 0x3f, 0x31, 0x27, 0xae, 0x3e,
    0xa0, 0xd0, 0x3d, 0xbe, 0xeb, 0x7e, 0xde, 0xbe, 0xa7, 0x60,
    0x86, 0xbe, 0x47, 0xe3, 0xb2, 0xbe, 0xbf, 0x2d, 0x34, 0xbe,
    0x93, 0xfb, 0xa2, 0x3e, 0x40, 0x78, 0x75, 0x3e, 0xe7, 0x28,
    0x79, 0x3d, 0xb2, 0xfd, 0x64, 0x3e, 0x56, 0x6e, 0x16, 0xbd,
    0x71, 0x76, 0xcb, 0xbb, 0x74, 0xe3, 0xa9, 0x3e, 0x50, 0xc5,
    0xbd, 0x3c, 0xad, 0x03, 0x4b, 0xbe, 0x7e, 0x32, 0xa7, 0xbe,
    0xcb, 0x54, 0x8c, 0x3e, 0x2b, 0xb8, 0x14, 0xbe, 0x1b, 0x27,
    0x67, 0x3e, 0xc5, 0xf7, 0x51, 0x3d, 0xb9, 0x2b, 0x7b, 0xbd,
    0x80, 0x07, 0xe1, 0xbd, 0x7a, 0x4d, 0xec, 0xbb, 0xd7, 0x21,
    0x76, 0x3e, 0xd8, 0x86, 0xdd, 0x3d, 0xf9, 0x95, 0xa0, 0x3e,
    0x36, 0xf1, 0xd5, 0x3b, 0xba, 0x63, 0x8b, 0x3e, 0x1d, 0xad,
    0x25, 0x3d, 0x12, 0x7f, 0xe9, 0x3d, 0xe2, 0xac, 0x11, 0x3e,
    0x2b, 0x82, 0xf8, 0xbc, 0x4d, 0xa4, 0x85, 0x3d, 0x9f, 0x3c,
    0xa5, 0xbd, 0xd6, 0xfb, 0xe6, 0x3d, 0xc8, 0x53, 0x65, 0x3e,
    0x13, 0xb2, 0x01, 0x3e, 0x1f, 0xd2, 0xea, 0xbd, 0xd8, 0x0d,
    0xcc, 0xbe, 0x63, 0x86, 0x50, 0xbe, 0xec, 0x01, 0x4f, 0xbe,
    0x10, 0xe4, 0x86, 0xbf, 0xe5, 0xdd, 0xe5, 0xbe, 0x65, 0x9d,
    0x07, 0x3e, 0x18, 0x6f, 0x2d, 0x3e, 0x95, 0xd2, 0x32, 0xbd,
    0x06, 0x67, 0x36, 0xbc, 0x27, 0x19, 0x3b, 0xbc, 0x27, 0x2b,
    0x17, 0x3d, 0x7c, 0x6a, 0x84, 0xbc, 0xbf, 0x03, 0xa6, 0xbc,
    0x60, 0x79, 0xeb, 0xbc, 0x28, 0x56, 0x3d, 0xbb, 0x88, 0x0f,
    0xdd, 0xbb, 0x19, 0x02, 0xb1, 0x40, 0x2e, 0x5c, 0xab, 0x40,
    0xa9, 0x06, 0x8a, 0x40, 0xf3, 0xfa, 0x20, 0x40, 0xd9, 0xd0,
    0x2e, 0x40, 0x32, 0x44, 0x28, 0x40, 0xd0, 0x54, 0xd1, 0x40,
    0x05, 0x16, 0xdc, 0xbf, 0x10, 0x24, 0x89, 0xc0, 0x14, 0x38,
    0x67, 0x40, 0xb3, 0xf8, 0xd3, 0xc0, 0x24, 0x0c, 0x11, 0x40,
    0x93, 0xe0, 0x98, 0x40, 0xfe, 0x4a, 0x8c, 0x40, 0x1c, 0xe1,
    0xaf, 0x40, 0xe0, 0x9d, 0x94, 0x40, 0xe4, 0x94, 0xe6, 0x40,
    0x36, 0x7c, 0x27, 0xc1, 0x6b, 0x44, 0x59, 0x40, 0x85, 0x09,
    0x67, 0x40, 0xeb, 0x33, 0x4b, 0x40, 0xc5, 0x98, 0x70, 0x40,
    0x3b, 0x53, 0xc6, 0xbf, 0x1a, 0x15, 0x87, 0x40, 0x9e, 0x03,
    0x7d, 0x40, 0xd9, 0x7a, 0x23, 0x40, 0x05, 0xa7, 0x67, 0x40,
    0xf5, 0x38, 0x07, 0x41, 0xf2, 0x16, 0xa2, 0x40, 0x39, 0xe7,
    0x43, 0x40, 0x02, 0x68, 0x5a, 0x3f, 0x50, 0xb2, 0xaf, 0x3f,
    0xe3, 0x27, 0x53, 0x40, 0xf7, 0x20, 0x5d, 0x40, 0x60, 0xed,
    0x98, 0x3f, 0xd5, 0x15, 0xa4, 0x40, 0xe7, 0x45, 0x71, 0x40,
    0xf9, 0x4c, 0x60, 0x40, 0xc4, 0xea, 0x7b, 0x40, 0x0b, 0xc8,
    0x6e, 0x40, 0x2b, 0x18, 0xbf, 0x40, 0x45, 0x08, 0x4f, 0x40,
    0x66, 0x53, 0xfb, 0xc0, 0x0c, 0xf9, 0x70, 0x40, 0xb3, 0xc3,
    0xea, 0x40, 0x8c, 0xa8, 0x56, 0x40, 0x83, 0x71, 0x71, 0xc0,
    0x25, 0x8d, 0x54, 0x40, 0x4e, 0x02, 0x33, 0x40, 0x54, 0x24,
    0x63, 0x3f, 0xee, 0xcd, 0x45, 0x40, 0x25, 0x7d, 0x1b, 0x3e,
    0x46, 0x07, 0x4b, 0x40, 0x4c, 0xd1, 0x07, 0xc0, 0x06, 0xd6,
    0x2c, 0xc1, 0x9b, 0x60, 0x52, 0x3f, 0xde, 0x5a, 0xa1, 0x40,
    0xae, 0x8f, 0x4b, 0xc0, 0xc2, 0xf5, 0x0a, 0xc0, 0xf3, 0x66,
    0x80, 0x40, 0xc8, 0x6a, 0xd7, 0xbf, 0x20, 0x89, 0x03, 0xc1,
    0x13, 0x2f, 0x8b, 0xc0, 0xd5, 0x7c, 0x2f, 0x40, 0x41, 0x63,
    0xaa, 0xbe, 0xbf, 0xea, 0x23, 0x3e, 0x22, 0x5a, 0x92, 0x3d,
    0xf6, 0xc8, 0x67, 0x3e, 0x81, 0xfe, 0x04, 0x3f, 0xfa, 0x33,
    0x17, 0x3f, 0xf4, 0xe3, 0x66, 0x3e, 0xdc, 0x81, 0xac, 0x3c,
    0xcd, 0x3c, 0xbe, 0xbd, 0x8f, 0x1d, 0x09, 0x3e, 0x4f, 0xfc,
    0x4e, 0xbd, 0x5e, 0x02, 0xc7, 0x3d, 0x8a, 0x1f, 0xa9, 0x3e,
    0x9a, 0x68, 0xa4, 0x3e, 0x8c, 0x68, 0xaf, 0xbe, 0x14, 0xff,
    0x30, 0xbc, 0x47, 0xa4, 0x20, 0xbe, 0x0d, 0xd3, 0x22, 0x3f,
    0x7d, 0xc9, 0xfc, 0x3e, 0x9e, 0x40, 0xee, 0x3c, 0x56, 0x3d,
    0xb7, 0x3e, 0x7f, 0x66, 0xb2, 0x3d, 0xa2, 0x54, 0x56, 0xbd,
    0x3a, 0xc2, 0xa4, 0x3e, 0x21, 0x8c, 0xb6, 0x3e, 0xb7, 0x52,
    0x58, 0x3f, 0x5f, 0x62, 0x5a, 0xbe, 0xb7, 0x07, 0x1c, 0xbd,
    0x93, 0x10, 0x4e, 0x3e, 0x1d, 0xd4, 0xc9, 0x3c, 0x56, 0xb8,
    0x1d, 0xbe, 0xd0, 0x4b, 0xe2, 0x3e, 0x5f, 0xf2, 0x8a, 0x3f,
    0x4d, 0x15, 0x86, 0x3e, 0xe8, 0x0a, 0x01, 0xbd, 0x00, 0x8c,
    0x0d, 0x3e, 0x13, 0x1c, 0x44, 0x3e, 0x37, 0xd3, 0xe1, 0x3e,
    0x56, 0xdb, 0x8a, 0x3e, 0xcf, 0xf9, 0x3f, 0x3e, 0xf8, 0xd5,
    0x0b, 0x3d, 0x61, 0x45, 0x64, 0x3e, 0x9f, 0x76, 0xf4, 0x3e,
    0xb3, 0x8c, 0x9d, 0x3d, 0x4b, 0xf2, 0x04, 0xbd, 0x16, 0xb0,
    0x80, 0x3e, 0x6d, 0x1f, 0x4a, 0xbc, 0x5d, 0x37, 0x94, 0xbd,
    0xa1, 0x72, 0xec, 0xbe, 0xab, 0xda, 0x9b, 0x3e, 0x9d, 0xaf,
    0x81, 0x3d, 0x5f, 0xf7, 0xf2, 0x3c, 0x89, 0xe5, 0xf6, 0x3d,
    0xe5, 0x52, 0xaf, 0xbd, 0xf8, 0x89, 0xcb, 0x3e, 0x8b, 0x7b,
    0x5b, 0x3c, 0x5f, 0x13, 0x25, 0xbd, 0x83, 0x67, 0xe4, 0x3d,
    0x2d, 0xe7, 0xd5, 0xba, 0x04, 0xc3, 0x53, 0xbe, 0x98, 0xb4,
    0xd0, 0x3e, 0x57, 0x99, 0xc9, 0x3e, 0xf1, 0xed, 0x24, 0xbd,
    0x6e, 0x48, 0x77, 0x3f, 0xd1, 0xa5, 0x90, 0xbe, 0x64, 0xd1,
    0x17, 0xbf, 0x52, 0x51, 0x96, 0x3e, 0x4d, 0x05, 0xbb, 0x3e,
    0xaa, 0x0c, 0x4d, 0x3e, 0xa7, 0x32, 0x8c, 0x3d, 0xe9, 0x8e,
    0xf9, 0x3e, 0xae, 0x36, 0x72, 0xbe, 0xd5, 0x92, 0x4f, 0xbd,
    0xf2, 0xf8, 0x91, 0xbd, 0xb1, 0x9b, 0x86, 0xbe, 0x78, 0xaa,
    0xfa, 0x3d, 0xbe, 0xc2, 0x94, 0x3e, 0x8d, 0x97, 0xb0, 0xbe,
    0xe8, 0x10, 0x92, 0x3e, 0x03, 0x87, 0x00, 0x3e, 0x01, 0x42,
    0x9b, 0x3d, 0x3b, 0x16, 0xb0, 0xbe, 0x12, 0x67, 0xb1, 0x3d,
    0xb0, 0xc0, 0x86, 0x3e, 0xff, 0xb1, 0xd0, 0x3e, 0x3e, 0xac,
    0xe9, 0xbe, 0xec, 0x1a, 0x1f, 0x3f, 0xf5, 0x40, 0xf0, 0xbe,
    0x64, 0xea, 0xbd, 0x3e, 0xef, 0x87, 0x99, 0x3e, 0x2f, 0x15,
    0xb8, 0x3e, 0xbc, 0x45, 0x5f, 0x3f, 0x8a, 0x1e, 0x8a, 0xbd,
    0x85, 0xf8, 0xa9, 0xbd, 0x67, 0xbb, 0x82, 0xbe, 0x76, 0x61,
    0x4f, 0xbd, 0x8a, 0xca, 0x3f, 0xbf, 0x81, 0x74, 0x1a, 0x3f,
    0x37, 0xfe, 0xb2, 0x3e, 0x7c, 0x13, 0x45, 0x3e, 0x01, 0x54,
    0x2e, 0xbf, 0xe1, 0x3c, 0x69, 0x3e, 0x6c, 0x54, 0x13, 0xbf,
    0x5b, 0xaf, 0x64, 0x3e, 0x44, 0xc7, 0x1e, 0x3d, 0xfa, 0xba,
    0xa4, 0xbd, 0x7a, 0x44, 0xe0, 0xbe, 0x2a, 0x87, 0x60, 0x3f,
    0xcf, 0xfc, 0xdb, 0xbe, 0xbf, 0x36, 0x4b, 0x3f, 0x8b, 0xa2,
    0x9b, 0x3d, 0x6e, 0x1c, 0xb6, 0x3e, 0xbb, 0xbc, 0xec, 0xbe,
    0x9a, 0xdf, 0xd8, 0x3b, 0xdb, 0xe8, 0xec, 0x3d, 0x45, 0x7c,
    0xc9, 0x3c, 0xa8, 0x0e, 0x71, 0xbe, 0xec, 0x59, 0x49, 0xbe,
    0x0e, 0xb9, 0x02, 0xbf, 0x44, 0xc6, 0x3e, 0xbd, 0x66, 0x9b,
    0xbf, 0xbe, 0xb1, 0x20, 0xcf, 0xbb, 0x99, 0xfd, 0xa3, 0x3d,
    0xa9, 0xf7, 0x68, 0xbd, 0xd4, 0x8c, 0x7a, 0xbd, 0x39, 0x59,
    0x1f, 0x3e, 0xdc, 0x36, 0x54, 0x3e, 0xa8, 0xde, 0x16, 0x3e,
    0x61, 0x61, 0x22, 0xc1, 0x42, 0x4f, 0x37, 0xbf, 0x53, 0xd5,
    0x89, 0x3c, 0xde, 0x19, 0x7b, 0xbe, 0xc7, 0xcb, 0x88, 0x3d,
    0x82, 0x61, 0x40, 0xbf, 0x53, 0x48, 0x9d, 0xbe, 0x2a, 0x89,
    0xff, 0xbe, 0x4e, 0xf5, 0xcc, 0x3e, 0x3a, 0xd5, 0xaf, 0x3d,
    0x23, 0x65, 0x4f, 0xbf, 0xed, 0xfb, 0x27, 0xbe, 0x64, 0x72,
    0xbe, 0xbd, 0x67, 0xca, 0xcc, 0xbf, 0xdf, 0xd6, 0x36, 0xbe,
    0xed, 0x68, 0xb1, 0x3e, 0xe1, 0x3d, 0xc7, 0xbd, 0xbe, 0x9a,
    0x5d, 0xbf, 0xd7, 0x05, 0x44, 0xbf, 0x75, 0x42, 0x14, 0xbf,
    0x5e, 0xd9, 0x3c, 0x3e, 0x87, 0x5b, 0x16, 0x3f, 0x35, 0xfc,
    0xe5, 0x3d, 0x78, 0x35, 0xec, 0x3e, 0x94, 0xe2, 0x4e, 0xbe,
    0x62, 0xee, 0xde, 0xbe, 0x2a, 0x2e, 0xea, 0xbe, 0x46, 0xff,
    0xb8, 0xbb, 0x2e, 0xcb, 0x42, 0xbe, 0x4b, 0x08, 0x67, 0xbd,
    0xf1, 0x04, 0x0e, 0x3f, 0xbf, 0x84, 0xa4, 0xbc, 0xe2, 0xeb,
    0x68, 0xbf, 0xa6, 0x3f, 0xe7, 0x3e, 0x96, 0xd9, 0xdb, 0x3e,
    0xbb, 0x4c, 0xae, 0xbe, 0xa1, 0x48, 0x58, 0x3f, 0xbb, 0xf9,
    0x8c, 0x3e, 0xcf, 0xc3, 0x99, 0xbf, 0xca, 0x9c, 0x05, 0xbf,
    0xbf, 0xe0, 0x1f, 0x3e, 0x8b, 0xaa, 0x37, 0x3d, 0xdc, 0x14,
    0x2a, 0xbe, 0x34, 0xc9, 0x5c, 0x3d, 0x1f, 0x78, 0x1e, 0x3f,
    0xe9, 0xa4, 0xa5, 0x3f, 0x8c, 0xd6, 0x46, 0xbe, 0x45, 0x71,
    0x7a, 0xbf, 0x15, 0xc8, 0x8d, 0xbf, 0xf2, 0x97, 0x68, 0x3e,
    0x10, 0x08, 0x99, 0xbe, 0x45, 0x9d, 0x86, 0x3c, 0x27, 0x2e,
    0x1b, 0xbe, 0xb6, 0xb2, 0x80, 0xbe, 0x57, 0x8d, 0x2c, 0xbd,
    0xea, 0x83, 0xbe, 0x3c, 0xe0, 0x45, 0x62, 0xbe, 0x4c, 0xfb,
    0x87, 0xbd, 0x9a, 0x58, 0x0e, 0xbe, 0xb6, 0x5f, 0xc7, 0xbc,
    0x23, 0x77, 0x64, 0xbe, 0x1e, 0xb3, 0x4d, 0x3f, 0x1e, 0x69,
    0x51, 0xbe, 0x65, 0x6f, 0xbb, 0x3e, 0xe7, 0x14, 0xbd, 0xbe,
    0xf4, 0xbb, 0x1a, 0x3f, 0x06, 0x0d, 0xac, 0x3e, 0x61, 0xe0,
    0x70, 0xbe, 0xa0, 0x5a, 0x81, 0x3e, 0xb4, 0xa4, 0x76, 0xbe,
    0x70, 0xaf, 0x83, 0x3d, 0x18, 0x2b, 0x6b, 0xbe, 0x46, 0x49,
    0x82, 0x3e, 0x44, 0x16, 0x50, 0xbe, 0xa6, 0x32, 0xff, 0xbd,
    0xa1, 0xcb, 0xdd, 0x3c, 0x69, 0x1a, 0x8e, 0x3e, 0x26, 0x92,
    0xc0, 0x3c, 0xf0, 0x66, 0x27, 0xbe, 0x75, 0xd6, 0x32, 0x3e,
    0x17, 0x4c, 0x54, 0xbe, 0x05, 0x92, 0xe0, 0xbe, 0xf6, 0xaf,
    0xa7, 0xbc, 0xf0, 0x68, 0x29, 0xbe, 0x73, 0x5c, 0xc3, 0xbd,
    0x69, 0xb5, 0xb4, 0xbe, 0xf8, 0x47, 0x84, 0x3e, 0xe8, 0x4b,
    0x91, 0xbe, 0x28, 0x6b, 0x70, 0x3f, 0xb8, 0x4f, 0x88, 0x3f,
    0x56, 0xd4, 0x33, 0x3f, 0x7c, 0xd7, 0x73, 0xbd, 0x3f, 0x93,
    0x4e, 0x3e, 0x94, 0xe6, 0x65, 0x3e, 0xcf, 0xe5, 0xc9, 0x3e,
    0x10, 0x1d, 0x96, 0xbe, 0x24, 0xb0, 0xfd, 0x3c, 0x16, 0x08,
    0x50, 0x3f, 0x40, 0xf1, 0x9e, 0x3e, 0x62, 0x7a, 0x9a, 0xbe,
    0xad, 0x6b, 0x9f, 0xbe, 0x1a, 0xd8, 0xd6, 0x3d, 0x23, 0x16,
    0x5c, 0xbe, 0x45, 0x9a, 0x11, 0x3e, 0x2b, 0xfe, 0x24, 0xbf,
    0xc2, 0x9c, 0xac, 0x3e, 0xa3, 0x49, 0x19, 0xbc, 0x19, 0xbf,
    0x7d, 0xbe, 0x17, 0xaa, 0x56, 0xbf, 0x82, 0xfa, 0x19, 0x3f,
    0x2d, 0x7a, 0x7d, 0xbc, 0x22, 0xe1, 0x0f, 0x3e, 0x2a, 0x46,
    0x0d, 0x3d, 0xbc, 0xc7, 0x98, 0xbb, 0x32, 0x9f, 0x36, 0xbe,
    0x09, 0xde, 0x46, 0x3d, 0x25, 0x05, 0x0e, 0x3f, 0x7e, 0xab,
    0x22, 0x3f, 0xfc, 0xb1, 0xc4, 0xbe, 0x66, 0x90, 0x09, 0x3d,
    0x7d, 0x20, 0xdc, 0x3c, 0x9f, 0xff, 0xfb, 0x3e, 0x49, 0xc3,
    0x00, 0xbd, 0x70, 0xd0, 0xac, 0x3d, 0xc9, 0x8d, 0xaf, 0xbe,
    0x24, 0x25, 0x6c, 0xbe, 0x92, 0xe5, 0xf8, 0x3e, 0x74, 0x9f,
    0xbe, 0x3e, 0x8b, 0x7a, 0x96, 0x3d, 0x90, 0x84, 0x3d, 0x3f,
    0xe3, 0x35, 0x91, 0xbe, 0x83, 0x2c, 0x4c, 0x3d, 0x6d, 0x9d,
    0x68, 0x3f, 0x22, 0x26, 0x82, 0x3f, 0x19, 0xc1, 0x9b, 0x3e,
    0x7a, 0x43, 0xd5, 0xbe, 0x1b, 0xc4, 0x8a, 0xbe, 0x65, 0x0c,
    0x34, 0x3f, 0x43, 0x5a, 0x90, 0xbe, 0xec, 0x10, 0xab, 0x3d,
    0x7e, 0x8f, 0x80, 0x3c, 0x1b, 0x16, 0x15, 0xbd, 0x8b, 0xf6,
    0xa1, 0x3e, 0xef, 0xbd, 0x88, 0x3d, 0x74, 0xea, 0x8d, 0x3d,
    0xf6, 0x6a, 0x03, 0x3f, 0x55, 0xce, 0x64, 0x3f, 0x35, 0x58,
    0xc5, 0x3d, 0x27, 0xf3, 0x59, 0xbe, 0x15, 0x94, 0x2d, 0x3f,
    0xa7, 0x4b, 0xa7, 0xbd, 0x38, 0x29, 0x05, 0xbe, 0x09, 0xfe,
    0x98, 0x3e, 0x0d, 0x61, 0x25, 0x3f, 0x09, 0x51, 0x28, 0xbe,
    0xd7, 0xa4, 0x41, 0x3e, 0x58, 0x04, 0xa2, 0xbe, 0x70, 0x6a,
    0xa9, 0xbd, 0x41, 0x22, 0x1a, 0xbe, 0xab, 0x8d, 0xb4, 0xbe,
    0x2c, 0x04, 0x85, 0x3d, 0x86, 0xb9, 0x30, 0x3f, 0xf4, 0xd5,
    0x9a, 0xbd, 0xac, 0x78, 0x93, 0x3e, 0x55, 0x14, 0xdc, 0xbe,
    0x27, 0x17, 0x68, 0x3e, 0x33, 0x34, 0x24, 0x3f, 0x5a, 0xf3,
    0x46, 0x3f, 0xfc, 0x0f, 0x07, 0x3d, 0x50, 0xac, 0x7b, 0xbe,
    0x12, 0x19, 0x14, 0xbd, 0x36, 0xb2, 0xe0, 0x3d, 0x1d, 0x07,
    0xf8, 0xba, 0x25, 0xe4, 0x02, 0x3f, 0x2e, 0x27, 0x06, 0x3f,
    0x92, 0xc0, 0xa8, 0xbc, 0x88, 0x1d, 0x2c, 0x3d, 0xd7, 0x37,
    0xcd, 0xbd, 0x6f, 0xfa, 0xf3, 0x3e, 0x36, 0x1e, 0xf9, 0x3c,
    0xc1, 0xa9, 0x93, 0x3e, 0x11, 0x39, 0x06, 0xbe, 0xc3, 0xc7,
    0xd0, 0xbd, 0x6d, 0xdd, 0x7a, 0x3e, 0xad, 0x90, 0xdf, 0xbe,
    0xfb, 0xdf, 0x1a, 0x3e, 0x39, 0x44, 0xac, 0x3d, 0x17, 0x7f,
    0xa3, 0x3e, 0x23, 0xda, 0x4d, 0x3c, 0xfe, 0x98, 0xff, 0xbe,
    0xe0, 0xbe, 0xe8, 0x3e, 0xb5, 0x1f, 0x18, 0x3f, 0x9d, 0x83,
    0x10, 0x3e, 0x9f, 0xd7, 0x9a, 0xbc, 0x71, 0x20, 0x57, 0x3e,
    0x4c, 0xf1, 0xe1, 0xbe, 0xa4, 0x6d, 0x05, 0xbf, 0x55, 0xfb,
    0xbc, 0xbe, 0x32, 0xb5, 0x38, 0xbd, 0xad, 0x47, 0x8d, 0x3e,
    0xd5, 0xbc, 0x6d, 0x3e, 0xd1, 0x6a, 0x68, 0x3f, 0x0e, 0x3a,
    0x80, 0x3d, 0x5a, 0x28, 0xb9, 0xbe, 0x16, 0xce, 0x05, 0xbe,
    0x1c, 0x54, 0xd2, 0xbe, 0x6a, 0x0a, 0xf0, 0xbe, 0xf5, 0xef,
    0xb4, 0x3e, 0xdc, 0x48, 0x6b, 0x3f, 0xc9, 0xd1, 0x80, 0xbe,
    0x59, 0x59, 0x82, 0xbe, 0xd4, 0x58, 0x66, 0x3d, 0xe4, 0x7c,
    0x3a, 0x3e, 0x79, 0x9a, 0xa0, 0xbe, 0x38, 0x76, 0xb9, 0xbd,
    0xa4, 0xdf, 0xa5, 0xbe, 0x1a, 0x31, 0xdb, 0xbe, 0xf8, 0x93,
    0x1b, 0x3e, 0x1b, 0x1a, 0x46, 0x3e, 0x19, 0xfb, 0xf2, 0x3c,
    0x22, 0xde, 0xf9, 0xbd, 0xf3, 0xcd, 0x1d, 0xbe, 0x34, 0x83,
    0x25, 0x3f, 0xf5, 0xa8, 0xd2, 0x3e, 0xaa, 0xcd, 0x18, 0x40,
    0x94, 0x4c, 0xab, 0xbe, 0x0b, 0xc6, 0xd9, 0x3e, 0x8a, 0x16,
    0xdf, 0xbc, 0x11, 0xf0, 0x88, 0x3f, 0xa0, 0x6e, 0x13, 0x3e,
    0x1a, 0xca, 0xd7, 0xbe, 0xc5, 0x96, 0x8d, 0x3f, 0xe3, 0x6b,
    0x03, 0x3f, 0x84, 0xf1, 0x1f, 0x3d, 0xe8, 0xfb, 0xb0, 0xbe,
    0xb4, 0x62, 0x81, 0x3e, 0x67, 0xe6, 0xb1, 0x3d, 0xf6, 0x47,
    0x4f, 0x3f, 0xf3, 0xe0, 0x06, 0xbe, 0x63, 0x7d, 0xdb, 0x3e,
    0xe8, 0x32, 0x29, 0xbf, 0xb8, 0x85, 0x94, 0xbe, 0x10, 0x4a,
    0x1c, 0xbf, 0xfc, 0x6d, 0x5c, 0xbd, 0x59, 0xa8, 0xc3, 0x3f,
    0x4a, 0x25, 0xac, 0xbd, 0xd5, 0x8a, 0x12, 0xbf, 0xa4, 0x1c,
    0x54, 0x3d, 0x2a, 0xc2, 0x6d, 0xbe, 0x58, 0x04, 0x01, 0x3e,
    0xcf, 0x8a, 0xb7, 0xbd, 0x62, 0x71, 0xd8, 0xbd, 0xd5, 0x60,
    0x0f, 0x3e, 0x68, 0xcd, 0xf9, 0xbe, 0x9f, 0x7d, 0x26, 0x3f,
    0x71, 0xe2, 0xac, 0x3f, 0xc5, 0xbc, 0xbb, 0x3e, 0xa7, 0x51,
    0x8b, 0x3f, 0xb8, 0x0f, 0x46, 0x3e, 0xbc, 0x25, 0x9d, 0x3e,
    0xa8, 0x5c, 0xb9, 0xbd, 0x40, 0x49, 0xf7, 0x3e, 0x8e, 0x37,
    0x20, 0x3e, 0x5e, 0xf7, 0xc8, 0xbc, 0x34, 0xc0, 0x8c, 0xbe,
    0xae, 0xdd, 0xa6, 0x3e, 0xb6, 0x5f, 0x83, 0x3e, 0x8b, 0x8a,
    0xe4, 0xbe, 0x52, 0x72, 0xf7, 0x3f, 0xaf, 0x85, 0xda, 0xbe,
    0x28, 0x0e, 0x80, 0x3e, 0xbd, 0x83, 0x81, 0x3e, 0xb7, 0x81,
    0x26, 0xbd, 0x9d, 0x6e, 0x79, 0xbf, 0x1e, 0x75, 0x27, 0x3d,
    0x45, 0xbb, 0x8b, 0x3f, 0x76, 0xf3, 0xd3, 0xbb, 0x2d, 0x74,
    0xb9, 0xbd, 0xa4, 0x78, 0x19, 0xbe, 0x4e, 0x19, 0x7d, 0xbe,
    0x74, 0x8f, 0x0c, 0x3f, 0x85, 0xba, 0x2f, 0x3f, 0x9f, 0x2b,
    0x43, 0xbe, 0xf5, 0xa9, 0xae, 0xbd, 0xfa, 0xe1, 0x05, 0x3e,
    0x9b, 0x64, 0xaf, 0x3e, 0x80, 0xf5, 0x18, 0x3e, 0x85, 0x67,
    0xbd, 0xbe, 0xb9, 0x1b, 0xc6, 0xbc, 0x4c, 0x1f, 0x2e, 0xbd,
    0x33, 0x57, 0x9e, 0x3e, 0x4b, 0xa0, 0xc3, 0xbe, 0x36, 0x4b,
    0xa6, 0xbf, 0x5a, 0xbc, 0xba, 0xbd, 0x14, 0x97, 0x3b, 0x3d,
    0xb5, 0x25, 0xb2, 0x3e, 0xc9, 0xc2, 0x33, 0xbc, 0xee, 0x2c,
    0x30, 0xbe, 0x8d, 0x8d, 0xfa, 0xbd, 0x5d, 0x9c, 0x16, 0xbe,
    0x07, 0xbb, 0xaa, 0xbe, 0x6e, 0xfd, 0xf6, 0x3e, 0x14, 0xa1,
    0x4a, 0x3f, 0x2a, 0x46, 0x5e, 0x3f, 0xd8, 0x68, 0xd7, 0xbc,
    0xa9, 0x0c, 0xd2, 0x3c, 0x3d, 0x10, 0xb8, 0x3d, 0x77, 0x40,
    0x74, 0x3e, 0xcf, 0x6d, 0xd7, 0x3e, 0x62, 0xa6, 0xed, 0xbe,
    0x45, 0x16, 0x83, 0x3e, 0x63, 0xd5, 0x07, 0xbe, 0x8e, 0xa5,
    0xa7, 0x3e, 0xb4, 0xf1, 0xd6, 0x3e, 0x65, 0xb9, 0xe1, 0xbe,
    0x9f, 0x63, 0xea, 0x3d, 0x6f, 0xf3, 0x0f, 0x3f, 0xba, 0x38,
    0xb5, 0xbd, 0x34, 0xd2, 0xca, 0xbd, 0x3e, 0xc7, 0x53, 0x3f,
    0x05, 0xc8, 0xa0, 0x3e, 0x7d, 0xd7, 0x5d, 0xbd, 0x37, 0x9a,
    0x6d, 0x3e, 0xac, 0x47, 0xac, 0x3d, 0x70, 0x2a, 0xf2, 0x3e,
    0x49, 0xb5, 0x07, 0x3e, 0xa4, 0x66, 0xbb, 0x3e, 0xf7, 0x5c,
    0x0e, 0xbe, 0xb1, 0xc3, 0xb6, 0x3d, 0xeb, 0xaf, 0x80, 0xbe,
    0x9f, 0x19, 0xd3, 0xbe, 0x0a, 0x84, 0x91, 0x3e, 0xb1, 0x8e,
    0x48, 0x3f, 0x9a, 0x55, 0xf2, 0xbd, 0xaf, 0xb9, 0x0a, 0x3f,
    0xb2, 0x5a, 0x72, 0x3d, 0x0c, 0xb2, 0x0f, 0x3f, 0x56, 0x99,
    0x55, 0xbb, 0x59, 0x11, 0x65, 0x3d, 0x1c, 0x22, 0x7c, 0x3f,
    0xe0, 0x56, 0x11, 0x3e, 0x9a, 0x59, 0x86, 0x3e, 0x48, 0xd2,
    0x75, 0x3d, 0x7f, 0x2f, 0x65, 0xbd, 0xd7, 0xb1, 0x0c, 0x3d,
    0xc4, 0x4a, 0xe8, 0x3c, 0x83, 0x87, 0xd6, 0xbd, 0x78, 0x1c,
    0x06, 0x3f, 0x49, 0x89, 0x55, 0x3e, 0x66, 0xc9, 0x8e, 0xbe,
    0x2a, 0xf1, 0x27, 0x3e, 0xf4, 0x99, 0xaf, 0xbd, 0x0f, 0x90,
    0x01, 0x3f, 0xdf, 0xd9, 0x0c, 0x3f, 0xf5, 0xe8, 0xdf, 0x3e,
    0xf4, 0xeb, 0x41, 0x3c, 0x98, 0xd4, 0x07, 0x3f, 0xfe, 0xcb,
    0x51, 0xbe, 0xfe, 0x7c, 0xaf, 0xbe, 0xfb, 0x7e, 0x03, 0x3f,
    0xe9, 0xd0, 0xcc, 0x3e, 0xe9, 0x9e, 0x9d, 0xbd, 0xa6, 0xe2,
    0xce, 0x3e, 0xa4, 0xe8, 0x84, 0x3e, 0x2e, 0x58, 0x23, 0x3e,
    0x79, 0x0a, 0x2e, 0x3e, 0xdd, 0xd3, 0xb0, 0x3d, 0x69, 0x71,
    0x3b, 0x3f, 0x8f, 0x58, 0x60, 0x3f, 0xc5, 0x4c, 0x11, 0x3e,
    0xe5, 0x76, 0x16, 0x3f, 0x74, 0x82, 0xc4, 0x3d, 0xec, 0x5a,
    0xb1, 0x3e, 0x1c, 0x4f, 0xd8, 0x3e, 0x17, 0x6d, 0x9c, 0x3e,
    0x05, 0x33, 0xc7, 0x3d, 0x2d, 0x97, 0x17, 0x3e, 0x65, 0x16,
    0xb0, 0x3d, 0xe4, 0xc0, 0x12, 0x3e, 0xe8, 0x93, 0x9c, 0x3e,
    0x9a, 0xb5, 0xd7, 0x3e, 0xcf, 0x2f, 0x8a, 0x3e, 0x3c, 0x9a,
    0xd6, 0x3d, 0x23, 0x0f, 0x0e, 0x3e, 0x6f, 0x61, 0x08, 0xbe,
    0x09, 0xcd, 0x4f, 0x3f, 0x5f, 0xf0, 0x0a, 0x3d, 0xeb, 0x46,
    0xca, 0xb9, 0xea, 0x34, 0x71, 0xbe, 0x13, 0x02, 0x14, 0xbe,
    0x38, 0x11, 0x39, 0xbe, 0xdc, 0xb2, 0x4d, 0xbd, 0xc0, 0xa0,
    0x0d, 0xbe, 0x59, 0xdc, 0x45, 0xbf, 0xb5, 0x6a, 0x18, 0x3e,
    0xde, 0x84, 0x2c, 0x3f, 0x7e, 0xf3, 0xb8, 0x3f, 0x8a, 0x6c,
    0xa8, 0x3e, 0xe3, 0x7c, 0xcb, 0x3d, 0x12, 0x3e, 0xf5, 0x3d,
    0x3c, 0xce, 0x71, 0xbd, 0x7b, 0xa9, 0x71, 0x3e, 0x66, 0xe4,
    0x40, 0x3e, 0xb7, 0x89, 0xe8, 0x3d, 0xbb, 0x07, 0x31, 0x3f,
    0xb7, 0xf6, 0xaf, 0xbe, 0x4a, 0x4a, 0x5e, 0xbe, 0x87, 0x9d,
    0xb6, 0xbd, 0x60, 0xea, 0x83, 0x3e, 0x8d, 0xb4, 0x84, 0x3f,
    0x8f, 0x35, 0x74, 0x3e, 0x48, 0x8b, 0x38, 0x3b, 0x50, 0xcf,
    0xbc, 0x3e, 0xfa, 0x0a, 0xa5, 0xbe, 0x63, 0x5f, 0x0d, 0xbf,
    0x93, 0x40, 0x19, 0x3f, 0x83, 0x1a, 0xa4, 0x3b, 0x9b, 0x02,
    0x04, 0x3f, 0x6b, 0x5b, 0x11, 0xbf, 0xf4, 0x0d, 0x98, 0x3e,
    0xe0, 0x9d, 0x05, 0x3d, 0x2f, 0x29, 0x2e, 0x3f, 0x60, 0x47,
    0xee, 0xbd, 0xfe, 0x64, 0x1e, 0x3f, 0x23, 0x48, 0x45, 0x3c,
    0x61, 0x49, 0x08, 0xbe, 0x92, 0x54, 0xf2, 0xbe, 0xb1, 0xb0,
    0xf4, 0x3d, 0xcc, 0xec, 0x0c, 0xbf, 0x29, 0x70, 0xb8, 0x3e,
    0x78, 0x67, 0x9c, 0xbe, 0x4a, 0x89, 0xb2, 0x3e, 0x12, 0xc4,
    0x7d, 0xbf, 0x22, 0xd6, 0xee, 0x3e, 0xc7, 0x26, 0x13, 0x3f,
    0x6d, 0xdc, 0xe6, 0xbd, 0x7c, 0x9b, 0x2e, 0x3f, 0x60, 0x09,
    0xd7, 0x3e, 0xb4, 0xa6, 0xd1, 0xbe, 0x8d, 0x37, 0xa4, 0x3e,
    0xd4, 0xb9, 0x94, 0x3e, 0x65, 0xf3, 0x98, 0x3e, 0x34, 0x0a,
    0x52, 0xbe, 0xd8, 0xdb, 0x04, 0xbf, 0x41, 0xa4, 0xdc, 0xbd,
    0xeb, 0xc3, 0x9c, 0xbe, 0x84, 0xc5, 0xb5, 0x3e, 0x81, 0x0b,
    0x7a, 0x3e, 0x88, 0x5a, 0xc1, 0x3d, 0x56, 0x2e, 0xe1, 0x3e,
    0xf0, 0xc1, 0x48, 0x3f, 0xd9, 0x27, 0x12, 0xbe, 0xbb, 0x65,
    0xcd, 0xbc, 0xe4, 0x74, 0xe9, 0x3f, 0xf7, 0xd9, 0xac, 0x3e,
    0xb6, 0x0f, 0x12, 0x3e, 0xd0, 0x04, 0x98, 0x3e, 0x15, 0xad,
    0x3b, 0x3e, 0x8d, 0x8e, 0x42, 0xbe, 0xb6, 0xa2, 0xe7, 0xbc,
    0x9d, 0xee, 0x08, 0xbf, 0xfa, 0x7e, 0x89, 0x3e, 0x26, 0x55,
    0x14, 0xbf, 0x1d, 0x73, 0x51, 0x3e, 0x23, 0xa5, 0x24, 0xbe,
    0x47, 0xff, 0x19, 0x3f, 0xd1, 0xa5, 0x78, 0xbe, 0xb8, 0x60,
    0xa2, 0x3d, 0xf0, 0xae, 0x41, 0x3e, 0xb3, 0x75, 0x14, 0xbf,
    0x73, 0xea, 0xa0, 0xbe, 0x9b, 0xf0, 0x99, 0xbd, 0x64, 0xcd,
    0x2b, 0x3f, 0x3d, 0x4a, 0x0f, 0x3f, 0xe8, 0x91, 0x79, 0x3d,
    0x82, 0x61, 0x7e, 0xbe, 0x19, 0x99, 0x0b, 0xbe, 0x52, 0x0b,
    0x8e, 0x3e, 0xa4, 0x02, 0x82, 0x3d, 0xcb, 0x91, 0x84, 0x3e,
    0xe6, 0x25, 0x3d, 0xbf, 0xd2, 0xee, 0x02, 0x3f, 0x2d, 0x25,
    0xa4, 0x3e, 0x00, 0xf2, 0x15, 0xbc, 0x82, 0x60, 0x0e, 0x3f,
    0x45, 0xb9, 0xd0, 0xbe, 0x44, 0xb3, 0x49, 0xbf, 0xc2, 0xf0,
    0x2f, 0x3f, 0x95, 0x99, 0xda, 0xbe, 0xcf, 0xa9, 0x95, 0xbd,
    0xbe, 0x7f, 0x6f, 0xbe, 0xe8, 0x07, 0xa9, 0x3e, 0x7e, 0x08,
    0xae, 0xbe, 0x36, 0x8a, 0x05, 0xbf, 0xe0, 0x4e, 0x33, 0x3e,
    0x1d, 0x11, 0x47, 0xbe, 0x74, 0x25, 0xcd, 0xbd, 0x7e, 0xc9,
    0x25, 0x3f, 0x16, 0x77, 0x75, 0x3f, 0x14, 0x8e, 0x72, 0xbe,
    0xbe, 0x84, 0x83, 0xbd, 0xe0, 0xce, 0x3e, 0xbd, 0x9c, 0x05,
    0xdb, 0x3d, 0x9c, 0x0c, 0x11, 0x3e, 0x77, 0x29, 0xdb, 0xbe,
    0x79, 0xe4, 0xb6, 0x3d, 0x08, 0x41, 0x7a, 0x3e, 0x55, 0xf2,
    0x0a, 0x3e, 0xd4, 0xa7, 0x5a, 0x3f, 0x57, 0xbf, 0x18, 0xbe,
    0xa7, 0x93, 0x8b, 0x3d, 0x63, 0x06, 0x30, 0x3e, 0xd4, 0x93,
    0x99, 0x3e, 0xf6, 0x8e, 0xd9, 0x3e, 0x86, 0x6e, 0x1a, 0x3e,
    0x40, 0x2d, 0x08, 0x3f, 0x1b, 0x6c, 0xb6, 0xbe, 0x59, 0x02,
    0x92, 0xbe, 0x59, 0x0d, 0x26, 0x3d, 0xb0, 0x2a, 0x05, 0xbd,
    0x0c, 0x1a, 0x1a, 0x3e, 0xbd, 0xba, 0xa1, 0x3e, 0xa1, 0xef,
    0xba, 0x3e, 0xa0, 0x78, 0xe5, 0x3e, 0x8b, 0x17, 0x9c, 0xbe,
    0x2c, 0x8d, 0x77, 0x3d, 0x30, 0x6b, 0x09, 0xbe, 0xbf, 0xa1,
    0x34, 0x3f, 0x42, 0xf5, 0x1d, 0x3f, 0xe5, 0xb0, 0x1a, 0x3e,
    0xb4, 0x87, 0x5c, 0xbd, 0xc5, 0x8c, 0x8b, 0xbd, 0xfd, 0xec,
    0xff, 0x3e, 0x28, 0x87, 0x6f, 0xbf, 0x09, 0xf7, 0x0b, 0xbf,
    0x33, 0xda, 0xa3, 0x3e, 0x8f, 0xc6, 0x8b, 0xbf, 0x10, 0x2f,
    0x1c, 0xbf, 0x10, 0x2d, 0x08, 0x3f, 0x83, 0x43, 0xba, 0xbe,
    0xa1, 0xf4, 0x36, 0xbf, 0xa3, 0xb8, 0xc0, 0xbb, 0x15, 0x97,
    0x08, 0xbe, 0x35, 0xd5, 0x57, 0x3f, 0x98, 0x10, 0x05, 0x3f,
    0xd4, 0x50, 0xd6, 0x3e, 0xbd, 0xe0, 0xdf, 0x3e, 0x0b, 0x21,
    0x18, 0xbe, 0x81, 0x2e, 0x5e, 0x3d, 0x37, 0x7e, 0xc4, 0x3e,
    0xa7, 0x04, 0xa3, 0xbe, 0xee, 0xe9, 0x26, 0x3f, 0x19, 0xf3,
    0xef, 0x3e, 0x74, 0x2e, 0x86, 0xbe, 0x0f, 0x5a, 0x9d, 0x3f,
    0x1a, 0x6d, 0x4e, 0xbc, 0xc2, 0xb4, 0x24, 0xbf, 0x6b, 0x51,
    0x48, 0x3d, 0x42, 0xd9, 0x62, 0x3e, 0x51, 0xd5, 0xa2, 0x3d,
    0x71, 0xa7, 0x9c, 0x3e, 0xc3, 0x40, 0x2d, 0x3e, 0x67, 0x71,
    0x3f, 0xbe, 0x16, 0x69, 0x1b, 0x3d, 0x7b, 0x90, 0x1c, 0x3d,
    0x13, 0xe4, 0xfe, 0x3e, 0xe8, 0x79, 0x74, 0x3f, 0xc0, 0xc0,
    0x94, 0xbe, 0xc1, 0x98, 0x7d, 0xbe, 0xbc, 0x9c, 0x30, 0xbd,
    0x7c, 0x16, 0x2d, 0xbe, 0x51, 0x2d, 0x0e, 0xbf, 0x4f, 0xc1,
    0x0d, 0x3f, 0x48, 0x42, 0x03, 0x3f, 0xbd, 0xbb, 0x80, 0x3e,
    0xc1, 0x0c, 0x64, 0xbf, 0x84, 0xfc, 0x03, 0xbf, 0xa0, 0xaf,
    0x17, 0xbe, 0xd8, 0xd6, 0x58, 0x3e, 0xbe, 0x32, 0x77, 0x3f,
    0xa4, 0x4c, 0x07, 0x3e, 0xa9, 0xe0, 0x2f, 0x3f, 0x82, 0x44,
    0x36, 0x3c, 0x6c, 0xef, 0x8d, 0xbe, 0x82, 0x3f, 0x3b, 0xbe,
    0xc5, 0x2b, 0x84, 0x3f, 0x04, 0xdb, 0xc5, 0x3e, 0x6b, 0xa0,
    0xae, 0x3e, 0xde, 0x60, 0x4b, 0xbe, 0xf8, 0xf0, 0x0b, 0x3e,
    0xc7, 0x75, 0x3e, 0x3d, 0x51, 0x72, 0x04, 0x3e, 0x67, 0x7f,
    0x57, 0xbc, 0x36, 0xf0, 0x97, 0x3e, 0x95, 0xbd, 0xd1, 0xbe,
    0xdd, 0x66, 0xc5, 0x3e, 0x84, 0x1a, 0x0d, 0x3e, 0x63, 0xdf,
    0x9b, 0xbd, 0x6a, 0x8d, 0x32, 0xbd, 0xed, 0xca, 0xb5, 0x3c,
    0x42, 0xdb, 0x45, 0x3f, 0xba, 0x33, 0x9a, 0xbe, 0xe1, 0x4c,
    0x0c, 0x3f, 0x66, 0xb1, 0x48, 0x3e, 0x69, 0x32, 0xaa, 0xbe,
    0xbd, 0x93, 0x36, 0xbe, 0x52, 0xc4, 0x68, 0x3d, 0x73, 0x7a,
    0x7d, 0x3e, 0xd7, 0xc2, 0x1a, 0x3f, 0xce, 0xc4, 0xe0, 0x3e,
    0x1d, 0x74, 0x13, 0x3e, 0x7d, 0xf4, 0x16, 0x3f, 0x08, 0xc9,
    0xb3, 0x3e, 0xa2, 0x87, 0xca, 0xbc, 0x42, 0x24, 0x93, 0xbe,
    0xfe, 0x29, 0x97, 0x3f, 0x14, 0xa6, 0x93, 0x3d, 0x80, 0x3f,
    0xee, 0xbc, 0xac, 0x45, 0x97, 0xbe, 0x4e, 0xe0, 0xcb, 0xbe,
    0x17, 0xee, 0x4a, 0xbe, 0x55, 0x94, 0x60, 0x3e, 0x10, 0x71,
    0x6e, 0xbe, 0xc6, 0x13, 0x7c, 0xbe, 0xa3, 0xa0, 0xf1, 0xbe,
    0x51, 0xdd, 0x39, 0xbf, 0xca, 0x97, 0xcd, 0xbe, 0x37, 0xe5,
    0x6f, 0xbe, 0xa9, 0x87, 0x8c, 0x3f, 0xad, 0x96, 0x6d, 0xbd,
    0x8a, 0xac, 0x79, 0xbe, 0x45, 0x97, 0x09, 0xbe, 0x86, 0x0e,
    0xbc, 0xbe, 0x77, 0xdf, 0x60, 0x3e, 0x02, 0x90, 0x11, 0x3e,
    0xec, 0x57, 0x7f, 0x3f, 0x64, 0x0b, 0xd2, 0xbd, 0x01, 0x66,
    0x19, 0xbf, 0x17, 0xbd, 0x08, 0xbe, 0x5c, 0x6b, 0xe5, 0x3e,
    0x97, 0xea, 0x60, 0xbe, 0x48, 0xc5, 0x4e, 0x3e, 0x5e, 0x3b,
    0x7f, 0x3e, 0xd0, 0xae, 0xde, 0x3c, 0xa8, 0x75, 0x24, 0x3f,
    0xa9, 0xee, 0xda, 0x3e, 0xa0, 0x38, 0xab, 0x3d, 0x26, 0x83,
    0x34, 0x3e, 0xfa, 0x0f, 0x01, 0xbe, 0xd9, 0xc7, 0x0b, 0x3f,
    0xd3, 0xd2, 0x02, 0x3f, 0xe1, 0x9b, 0x31, 0xbe, 0x96, 0xef,
    0x95, 0xbe, 0xb0, 0xc5, 0x69, 0x3f, 0x8c, 0x63, 0x1e, 0x3e,
    0x07, 0x0f, 0x04, 0x3e, 0xd3, 0x8d, 0xe7, 0x3d, 0x9a, 0xcf,
    0x6d, 0x3e, 0x7d, 0x61, 0x86, 0xbd, 0x35, 0xe8, 0x83, 0x3d,
    0x98, 0x06, 0x2e, 0x3e, 0x6a, 0x35, 0xc3, 0x3e, 0xfa, 0xa3,
    0x0c, 0xbe, 0x6a, 0x2f, 0x07, 0xbe, 0x03, 0xdf, 0xc5, 0x3e,
    0x4e, 0xbb, 0xa8, 0x3e, 0x68, 0xc8, 0x68, 0x3e, 0x29, 0x74,
    0x10, 0xbe, 0x2e, 0xce, 0x54, 0x3d, 0x40, 0xb7, 0x80, 0x3d,
    0xc1, 0xc3, 0x82, 0x3e, 0x06, 0x0e, 0x3c, 0x3e, 0x72, 0xb6,
    0x09, 0x3f, 0x1d, 0xda, 0x41, 0xbd, 0xcb, 0xca, 0x88, 0x3c,
    0x87, 0x3b, 0x9e, 0x3e, 0xb0, 0xb3, 0xed, 0xbe, 0xd6, 0x54,
    0x17, 0x3e, 0x4e, 0x90, 0xbe, 0x3e, 0xe2, 0xf5, 0x09, 0x3f,
    0xd4, 0x1a, 0x5b, 0x3d, 0x38, 0xa2, 0x5f, 0x3e, 0x31, 0x07,
    0xc6, 0xbc, 0x43, 0xc5, 0xa8, 0x3e, 0x16, 0xf5, 0x2e, 0x3d,
    0xa5, 0x42, 0xd5, 0xbd, 0x0d, 0x40, 0xcd, 0xbd, 0x88, 0x33,
    0xc7, 0xbe, 0xba, 0x8b, 0xd7, 0x3c, 0xb2, 0x76, 0x73, 0x3e,
    0xbc, 0x8d, 0x8b, 0x3e, 0xa6, 0x5f, 0xbb, 0x3e, 0xaf, 0x8d,
    0x95, 0x3e, 0xe2, 0xe4, 0x8f, 0x3c, 0x0c, 0xf0, 0x19, 0xbc,
    0x19, 0xb9, 0x20, 0xbd, 0x4e, 0x09, 0xad, 0xbe, 0xdd, 0x30,
    0x97, 0xbe, 0x6c, 0xd4, 0x30, 0xbe, 0x79, 0x2c, 0x06, 0x3e,
    0x9b, 0x54, 0x94, 0x3e, 0xef, 0x43, 0x76, 0xbe, 0x2d, 0x81,
    0x0c, 0x3c, 0xfd, 0x6c, 0x68, 0x3e, 0x37, 0x79, 0x18, 0x3f,
    0xfa, 0xf5, 0x1b, 0xbf, 0xb1, 0x41, 0x1b, 0x3f, 0x45, 0x97,
    0x53, 0xbe, 0xb7, 0x7e, 0x9b, 0x3e, 0xe5, 0xeb, 0x1b, 0x3f,
    0xd5, 0x9f, 0x37, 0x3e, 0xa8, 0xb0, 0x1e, 0xbf, 0xe6, 0x79,
    0x05, 0x3f, 0xb7, 0x66, 0xae, 0xbe, 0xa6, 0xbd, 0x0a, 0xbf,
    0xee, 0xb0, 0x0f, 0xbe, 0x06, 0x6d, 0x28, 0xbe, 0xc2, 0x35,
    0xa9, 0xbd, 0xe5, 0x6e, 0x5e, 0x3f, 0x4f, 0x94, 0xe9, 0x3d,
    0xfa, 0x7c, 0x74, 0xbe, 0x57, 0x0b, 0xb9, 0x3e, 0x2d, 0x98,
    0x64, 0x3f, 0x01, 0xdc, 0x35, 0x3f, 0x22, 0x81, 0xef, 0xbe,
    0xdd, 0x2f, 0x10, 0x3e, 0xe7, 0x33, 0x33, 0x3d, 0x92, 0xd4,
    0x09, 0xbf, 0x92, 0xcc, 0x3a, 0x3e, 0x7b, 0xe7, 0x38, 0x3f,
    0x08, 0x0d, 0x25, 0x3f, 0xbe, 0x43, 0x76, 0x3e, 0xa3, 0x9d,
    0x15, 0xbe, 0x84, 0x37, 0x85, 0x3c, 0x3c, 0xd1, 0xb9, 0x3d,
    0x65, 0xc3, 0x9c, 0x3e, 0x0d, 0xa0, 0x18, 0x3f, 0xb7, 0x04,
    0x2d, 0xbe, 0xd5, 0x71, 0xa1, 0x3d, 0xc3, 0x23, 0x85, 0x3e,
    0xfe, 0x52, 0x5b, 0x3f, 0xff, 0xca, 0x67, 0x3e, 0x50, 0xe7,
    0x99, 0x3e, 0xcf, 0x3f, 0x1b, 0x3e, 0x43, 0x1f, 0x55, 0xbd,
    0xb5, 0x9a, 0x70, 0xbe, 0x89, 0x66, 0x7c, 0x3e, 0x21, 0x37,
    0xc4, 0xbe, 0xeb, 0x0b, 0xf0, 0xbe, 0xfa, 0x1d, 0x14, 0xbf,
    0xf8, 0xfb, 0xe7, 0x3e, 0x74, 0x6d, 0xd5, 0x3e, 0x4d, 0x11,
    0xb2, 0xbe, 0x10, 0xfd, 0x96, 0xbe, 0xa3, 0xd4, 0x9f, 0x3f,
    0xeb, 0x0a, 0x71, 0xbe, 0x6c, 0x3b, 0x6b, 0x3f, 0x9b, 0x2a,
    0x91, 0xbc, 0x54, 0x56, 0xcc, 0x3d, 0x05, 0xe6, 0xb8, 0xbb,
    0x0f, 0xc9, 0x38, 0x3d, 0xae, 0x77, 0xd3, 0x3e, 0x87, 0x0a,
    0x4b, 0x3e, 0x67, 0xfc, 0xf3, 0x3e, 0x17, 0x1c, 0x0e, 0xbf,
    0x37, 0xd2, 0xd1, 0xbe, 0x34, 0xde, 0x55, 0x3e, 0x6b, 0x3b,
    0x06, 0xbe, 0x2f, 0x9e, 0xc2, 0x3d, 0xb3, 0x2a, 0x8c, 0x3f,
    0x2c, 0x59, 0xe1, 0x3b, 0x40, 0x82, 0x02, 0x3f, 0xe5, 0x7f,
    0x14, 0x3f, 0xb7, 0xf4, 0x26, 0x3f, 0xf2, 0x41, 0x45, 0x3e,
    0xe9, 0xe7, 0xd9, 0xbe, 0xd1, 0xba, 0x6a, 0x3b, 0xb4, 0xe2,
    0x8d, 0x3f, 0xa6, 0x1b, 0x48, 0xbf, 0xd5, 0xdf, 0xc9, 0xbe,
    0x5d, 0x84, 0x3c, 0x3f, 0x61, 0xf2, 0xc6, 0x3f, 0x2a, 0xd7,
    0x7e, 0x3e, 0x2f, 0xf6, 0x06, 0xbe, 0x1f, 0xe0, 0x7d, 0x3f,
    0xe7, 0xb6, 0x55, 0xbf, 0x1c, 0xad, 0x73, 0x3f, 0xd4, 0x16,
    0xc9, 0x3e, 0x23, 0x2b, 0xa6, 0x3c, 0x4b, 0x18, 0xcc, 0x3f,
    0x7e, 0x8e, 0x48, 0x3e, 0x68, 0x5a, 0x74, 0xbf, 0x8d, 0x7b,
    0x99, 0x3f, 0x60, 0xb1, 0x1a, 0x3f, 0x11, 0xd2, 0xc2, 0xbe,
    0x40, 0xf1, 0x5c, 0x3e, 0xe7, 0x17, 0xfc, 0xbc, 0x2d, 0x4b,
    0xad, 0xbe, 0x8e, 0x00, 0x28, 0x3f, 0xb9, 0x33, 0x4b, 0xbe,
    0xcc, 0x8d, 0x1a, 0x3e, 0x3b, 0xd3, 0x07, 0x3f, 0xff, 0xf1,
    0x0c, 0xbe, 0x6b, 0x23, 0xd7, 0xbe, 0x2a, 0xd6, 0x18, 0x3f,
    0xc2, 0x94, 0xd1, 0x3d, 0x4f, 0x25, 0xa1, 0x3e, 0xeb, 0x87,
    0x56, 0xbf, 0x13, 0xa3, 0xda, 0xbe, 0xeb, 0x72, 0x26, 0xbd,
    0x24, 0xe3, 0x48, 0xbf, 0xf4, 0xe1, 0xa2, 0x3e, 0x19, 0x6d,
    0xcb, 0x3e, 0x4b, 0x1a, 0x19, 0x3f, 0x39, 0x36, 0xaf, 0x3e,
    0xa2, 0xef, 0x40, 0x3f, 0xd7, 0x51, 0x17, 0xbe, 0x25, 0x8d,
    0x7f, 0xbd, 0x39, 0x5d, 0xba, 0x3d, 0x65, 0xb0, 0xa2, 0x3e,
    0x21, 0x46, 0x98, 0x3e, 0x1e, 0xd3, 0xb7, 0xbe, 0x5b, 0x4b,
    0x61, 0x3f, 0xff, 0x3c, 0xf9, 0xbe, 0x55, 0xb2, 0x30, 0xbe,
    0xaa, 0x7f, 0xb3, 0xbe, 0xf9, 0xe0, 0x02, 0xbf, 0xf7, 0x7e,
    0xfb, 0x3e, 0x00, 0xf6, 0x9c, 0xbe, 0x3e, 0x69, 0xe5, 0xbb,
    0xb2, 0x07, 0x71, 0x3e, 0xf1, 0x97, 0x93, 0x3e, 0xbd, 0x21,
    0xea, 0xbc, 0x19, 0xd8, 0x08, 0x3f, 0x94, 0x72, 0x4a, 0x3e,
    0x85, 0x7c, 0x8e, 0x3e, 0x39, 0xef, 0xbf, 0x3d, 0xee, 0xa7,
    0xc1, 0x3e, 0x64, 0x67, 0xdd, 0xbd, 0x3b, 0xfc, 0xd2, 0x3e,
    0xb7, 0x22, 0x64, 0xbe, 0x7c, 0xe3, 0x4e, 0x3f, 0x2d, 0x00,
    0xc3, 0xbe, 0xad, 0xd7, 0x64, 0x3b, 0x7d, 0x19, 0xfe, 0x3f,
    0xf8, 0x4c, 0x78, 0x3e, 0x3a, 0x5d, 0x5c, 0xbf, 0xb5, 0x67,
    0x1c, 0xbf, 0x16, 0x44, 0x35, 0x3f, 0x11, 0x03, 0xec, 0x3d,
    0xc2, 0xd2, 0xe2, 0x3f, 0x82, 0xf0, 0x13, 0x3f, 0x4b, 0x9a,
    0x6c, 0x3e, 0xb8, 0x25, 0x01, 0xbe, 0xe8, 0xfc, 0x95, 0x3e,
    0xb3, 0x75, 0x02, 0xbf, 0xd9, 0x46, 0x20, 0xbf, 0x0b, 0x25,
    0x88, 0x3f, 0x2c, 0x2d, 0xd8, 0xbd, 0xa2, 0x8f, 0x3c, 0x3c,
    0x35, 0x2a, 0x0d, 0xbe, 0xc0, 0x53, 0xfe, 0xbd, 0x84, 0x30,
    0x2c, 0xbe, 0xc7, 0x42, 0x37, 0x3f, 0xf7, 0x23, 0xc5, 0x3e,
    0x32, 0x4b, 0x2a, 0xbf, 0x86, 0x2e, 0x84, 0xbc, 0x1a, 0x7b,
    0x1d, 0xbe, 0xac, 0x62, 0x6b, 0x3e, 0x94, 0x0a, 0x83, 0x3e,
    0x72, 0x63, 0x6c, 0x3f, 0x1d, 0xcf, 0x36, 0xbb, 0xe2, 0x35,
    0x98, 0x3e, 0xa7, 0x52, 0x1e, 0x3e, 0xed, 0xa2, 0xa0, 0x3e,
    0xa9, 0xd2, 0xb4, 0x3d, 0xec, 0x33, 0x1f, 0x3e, 0xba, 0xf8,
    0x89, 0xbe, 0x52, 0x12, 0x85, 0x3e, 0x06, 0x67, 0x06, 0x40,
    0x5a, 0x8e, 0x8f, 0x3e, 0x03, 0xe3, 0x8b, 0x3e, 0xc7, 0xce,
    0x71, 0x3f, 0x9b, 0x36, 0xde, 0xbd, 0xae, 0x92, 0x83, 0x3f,
    0xa5, 0x2c, 0xaa, 0x3e, 0x96, 0xa3, 0x1e, 0x3f, 0x88, 0xaf,
    0x0e, 0x3e, 0x9f, 0xff, 0xee, 0xbd, 0x2b, 0xb7, 0x56, 0xbe,
    0x50, 0xc5, 0x58, 0xbd, 0xe2, 0x1d, 0x6d, 0x3e, 0x31, 0xb0,
    0xdc, 0xbd, 0xc4, 0x9a, 0xf8, 0xbd, 0x53, 0xd7, 0xbc, 0x3e,
    0x76, 0xaa, 0xc3, 0x3f, 0x87, 0xb7, 0x97, 0xbe, 0x63, 0x8a,
    0x0e, 0x3f, 0xbd, 0x76, 0x07, 0x3f, 0x51, 0xc7, 0xa0, 0x3c,
    0x2c, 0xd7, 0xd3, 0x3e, 0x46, 0xdc, 0x44, 0x3f, 0x49, 0xc4,
    0x64, 0x3e, 0x6e, 0xe3, 0x8c, 0x3e, 0x44, 0x0e, 0x7e, 0xbe,
    0x6c, 0x6d, 0x7a, 0xbc, 0x3c, 0x0b, 0xb8, 0x3e, 0x75, 0xe1,
    0x41, 0x3f, 0x8b, 0x4a, 0xcd, 0x3f, 0xdb, 0x21, 0x62, 0xbe,
    0xf8, 0xe4, 0xf6, 0xbc, 0x95, 0x36, 0x80, 0xbe, 0x00, 0x42,
    0x9c, 0xbe, 0x10, 0x82, 0xa0, 0xbd, 0x3c, 0x6c, 0xa0, 0x3e,
    0x23, 0xbc, 0x4f, 0x3f, 0x8f, 0x32, 0x76, 0x3d, 0xac, 0x1d,
    0x90, 0xbe, 0xfc, 0x2a, 0xdf, 0xbe, 0xd2, 0xa1, 0x0b, 0xbf,
    0x20, 0xa9, 0x1e, 0xbe, 0xf8, 0xdb, 0x57, 0x3f, 0x77, 0x04,
    0x91, 0xbd, 0x14, 0x1b, 0x99, 0x3f, 0x48, 0x2a, 0xee, 0x3e,
    0xcc, 0xcc, 0x7e, 0x3e, 0x8e, 0x16, 0xe7, 0x3d, 0x66, 0x68,
    0x49, 0xbe, 0xaf, 0x87, 0x86, 0x3f, 0x7b, 0x2e, 0x4a, 0xbd,
    0x9c, 0x7d, 0x9d, 0xbe, 0xeb, 0x51, 0xb7, 0x3e, 0xc7, 0x0d,
    0xd7, 0xbf, 0x77, 0xaf, 0xd6, 0x3e, 0xfe, 0x15, 0x6e, 0x3c,
    0x3b, 0xba, 0x66, 0x3e, 0x80, 0xca, 0x9f, 0x3e, 0x3d, 0x1c,
    0x65, 0x3d, 0xcf, 0x81, 0xb7, 0xbe, 0x51, 0x40, 0xb9, 0x3e,
    0x71, 0x21, 0x1a, 0xbe, 0xaf, 0x91, 0x7d, 0x3f, 0xf8, 0x93,
    0xd9, 0xbd, 0xe9, 0xa2, 0x71, 0x3f, 0xde, 0x7b, 0x87, 0xbe,
    0xb2, 0x7a, 0x4c, 0x3e, 0x51, 0x96, 0x05, 0x3f, 0x25, 0x8f,
    0x64, 0xbe, 0xc6, 0xe4, 0x5c, 0x3f, 0x7c, 0xb6, 0x04, 0xbf,
    0xbd, 0x69, 0x99, 0xbc, 0x1b, 0x37, 0x0f, 0x3d, 0x39, 0xfc,
    0xf5, 0xbe, 0xb3, 0x52, 0x7d, 0xbe, 0x0b, 0xf0, 0x8d, 0xbd,
    0x3f, 0x48, 0x93, 0xbd, 0x4c, 0x01, 0x5c, 0x3c, 0xcf, 0x1c,
    0x8d, 0xbe, 0x35, 0x7d, 0x7b, 0x3e, 0x69, 0x61, 0xdc, 0x3e,
    0xa2, 0xbe, 0x91, 0xbc, 0x99, 0x40, 0x38, 0x3e, 0x47, 0xd3,
    0xb3, 0x3d, 0x09, 0xcb, 0xa4, 0xbe, 0xab, 0x1b, 0x9d, 0x3e,
    0xbe, 0xf4, 0x70, 0x3f, 0xe9, 0xd9, 0x19, 0x3f, 0xa2, 0x7b,
    0xa5, 0x3e, 0x5c, 0xb0, 0x98, 0xbe, 0x4a, 0xde, 0x86, 0x3e,
    0xf4, 0xf0, 0x5d, 0xba, 0x70, 0x3f, 0x0c, 0xbe, 0xe2, 0x03,
    0x8b, 0x3f, 0x4f, 0x6e, 0x0f, 0x3e, 0xa8, 0x28, 0x61, 0xbe,
    0xb1, 0xfa, 0x2c, 0xbe, 0x23, 0xc5, 0xd2, 0x3e, 0x56, 0x61,
    0x09, 0xbf, 0x84, 0xd9, 0xb7, 0xbe, 0xdd, 0x8e, 0xee, 0x3e,
    0x17, 0x5d, 0xd6, 0x3e, 0x9d, 0x31, 0xc4, 0xbe, 0x63, 0xa8,
    0xbf, 0xbd, 0x25, 0x5b, 0x86, 0x3d, 0xe1, 0xb3, 0xd6, 0xbd,
    0x61, 0xb7, 0x1b, 0x3f, 0x93, 0x7a, 0x2c, 0x3f, 0x49, 0xe5,
    0xcf, 0xbd, 0xfc, 0xfc, 0x83, 0xbe, 0xac, 0x1f, 0x56, 0xbe,
    0xdc, 0x71, 0xf1, 0x3d, 0x99, 0xda, 0x88, 0x3f, 0x3a, 0xd1,
    0x99, 0x3e, 0x6b, 0xbc, 0x13, 0x3f, 0x69, 0xb1, 0x5a, 0xbe,
    0x53, 0xa2, 0xf9, 0xbe, 0x26, 0x5c, 0x19, 0x3f, 0xfe, 0xa4,
    0x11, 0x3d, 0x35, 0x1e, 0x19, 0x3f, 0x91, 0x82, 0xe0, 0x3e,
    0x36, 0x3d, 0xa3, 0x3e, 0x8b, 0x7c, 0x8b, 0x3d, 0xd3, 0x5c,
    0xb6, 0x3d, 0xb7, 0xe4, 0x03, 0x3a, 0xe1, 0xa0, 0x14, 0xbe,
    0x12, 0x3f, 0xa2, 0xbd, 0x26, 0x0e, 0x55, 0xbe, 0x87, 0xb8,
    0x3b, 0xbe, 0xe1, 0xcb, 0x53, 0xbe, 0x32, 0xa6, 0xa8, 0x3e,
    0xf1, 0xe2, 0xd9, 0x3e, 0xd4, 0x8e, 0x1d, 0x3e, 0x32, 0x93,
    0x72, 0x3e, 0x0a, 0x0f, 0x84, 0x3d, 0x53, 0xee, 0x9e, 0xbe,
    0x8d, 0xc1, 0x3b, 0xbe, 0x28, 0xf2, 0x06, 0xbe, 0x3e, 0x2c,
    0xbe, 0xbe, 0x56, 0x93, 0x24, 0xbe, 0xfc, 0xba, 0x14, 0xbf,
    0x9e, 0xbe, 0x13, 0xbe, 0xc3, 0xd3, 0xe0, 0xbe, 0x23, 0x9f,
    0x62, 0xbc, 0x87, 0x6b, 0x2d, 0x3f, 0x01, 0xb4, 0x27, 0x3f,
    0x75, 0x6e, 0xea, 0xbe, 0x70, 0x0f, 0x14, 0xbe, 0xb6, 0x34,
    0x35, 0x3e, 0xaa, 0x85, 0x49, 0xbe, 0xfa, 0x8d, 0x49, 0x3f,
    0x09, 0xc2, 0x57, 0x3e, 0xfc, 0xc4, 0x77, 0x3d, 0xc5, 0x96,
    0x21, 0x3c, 0x4b, 0x18, 0xff, 0xbd, 0xea, 0x59, 0x54, 0x3f,
    0xea, 0xb7, 0xd7, 0x3e, 0xa7, 0x79, 0x28, 0x3f, 0x00, 0x7f,
    0x33, 0xbb, 0x60, 0xa4, 0x48, 0xbe, 0x86, 0x4d, 0xf6, 0xbd,
    0x6d, 0x53, 0x02, 0xbf, 0x26, 0x16, 0xff, 0x3e, 0x97, 0xc6,
    0x31, 0xbc, 0xb6, 0x1d, 0x2b, 0xbf, 0xa7, 0xfa, 0xb7, 0xbe,
    0xc0, 0x57, 0x11, 0x3e, 0x9f, 0x5e, 0xba, 0xbd, 0xd2, 0x33,
    0x13, 0xbf, 0x3b, 0xda, 0x9c, 0xbd, 0x55, 0xbc, 0x96, 0x3f,
    0xaf, 0x23, 0x1f, 0xbe, 0x9c, 0x90, 0x00, 0x3f, 0x9d, 0x98,
    0x3f, 0x3f, 0x8b, 0x2f, 0x4e, 0x3d, 0x6b, 0x0a, 0x35, 0xbf,
    0x7d, 0x77, 0x09, 0xbf, 0xa9, 0x28, 0x97, 0xbf, 0xe0, 0x70,
    0x1f, 0x3f, 0x45, 0xe3, 0xc9, 0x3e, 0xb9, 0x4e, 0x53, 0x3e,
    0xe9, 0x7f, 0xbe, 0x3d, 0xd7, 0x94, 0xf0, 0xbd, 0x3f, 0xa8,
    0x10, 0x3e, 0x1b, 0x94, 0x8d, 0x3f, 0x66, 0xca, 0xe2, 0x3e,
    0xf9, 0x66, 0x99, 0x3d, 0xe6, 0xfb, 0xf4, 0x3e, 0xb3, 0x8b,
    0x36, 0x3f, 0x70, 0xcc, 0x1c, 0x3e, 0xc0, 0x92, 0x17, 0x3f,
    0x66, 0x22, 0x12, 0x3e, 0xf3, 0x0a, 0xfd, 0xbe, 0x36, 0x51,
    0x90, 0xbf, 0x67, 0xba, 0x42, 0xbf, 0x80, 0x5a, 0x66, 0x3f,
    0xfa, 0xba, 0x6f, 0xbe, 0x51, 0xf6, 0x4d, 0x3f, 0x9b, 0x5d,
    0x06, 0xbf, 0x7e, 0x5f, 0x43, 0xbd, 0xb8, 0xe3, 0x77, 0xbd,
    0xce, 0x18, 0xc5, 0x3c, 0x48, 0xf4, 0xd1, 0xbd, 0x42, 0x4a,
    0xc9, 0xbe, 0xea, 0xec, 0x25, 0xbd, 0xeb, 0xe1, 0x2f, 0x3f,
    0xe5, 0xff, 0x0b, 0xbe, 0x64, 0xa1, 0xf3, 0x3e, 0x31, 0x14,
    0x10, 0x3f, 0xfc, 0x59, 0x17, 0x3f, 0x73, 0x28, 0x18, 0x3f,
    0x24, 0xaa, 0x03, 0x3f, 0x89, 0x99, 0x31, 0xbe, 0xd2, 0x6a,
    0xc8, 0x3c, 0x7c, 0x20, 0x3e, 0x3f, 0x3f, 0x38, 0xc5, 0x3e,
    0xfc, 0x97, 0xe3, 0xba, 0xdf, 0x14, 0xa1, 0x3e, 0xea, 0x5c,
    0xe4, 0x3c, 0x16, 0x82, 0xbf, 0x3c, 0x92, 0x52, 0xdf, 0x3e,
    0x8b, 0xaf, 0x51, 0x3f, 0x82, 0xf5, 0xe7, 0xbd, 0x86, 0xb8,
    0x99, 0x3e, 0x40, 0xdb, 0x78, 0x3e, 0x88, 0x5c, 0xb6, 0x3e,
    0x8a, 0x64, 0xa7, 0xbe, 0x44, 0x49, 0x4c, 0x3d, 0x37, 0x9c,
    0x27, 0xbf, 0xee, 0x15, 0xcb, 0x3d, 0x4e, 0xd0, 0x3a, 0x3e,
    0x04, 0x23, 0x06, 0x3e, 0x3e, 0x6c, 0x60, 0x3d, 0xf6, 0xcd,
    0xea, 0xbd, 0x4d, 0xf3, 0x13, 0xbe, 0x55, 0xdd, 0x85, 0x3e,
    0xb8, 0x4b, 0x2a, 0x3f, 0x1a, 0xe7, 0xda, 0x3e, 0xd1, 0x61,
    0x4a, 0x3f, 0x3e, 0xe2, 0x1b, 0xbe, 0xb1, 0xc3, 0x42, 0x3e,
    0x19, 0xb2, 0xa9, 0x3d, 0xdb, 0x43, 0x5a, 0x3e, 0x9e, 0xd8,
    0x03, 0x3f, 0xff, 0x3a, 0xd8, 0x3d, 0x4e, 0x58, 0x84, 0x3f,
    0xb9, 0x54, 0xab, 0xbe, 0x22, 0x4a, 0x24, 0x3e, 0x37, 0x40,
    0xd9, 0x3e, 0xed, 0x65, 0x0a, 0x3f, 0xfa, 0x79, 0xe6, 0xbe,
    0xe3, 0x41, 0xd5, 0x3e, 0x6f, 0x81, 0x0b, 0x3e, 0x56, 0xb6,
    0x31, 0xbe, 0x4d, 0x86, 0xa1, 0x3f, 0x7c, 0xe3, 0xf9, 0x3e,
    0xfe, 0x4f, 0x40, 0x3e, 0x48, 0x59, 0x96, 0x3f, 0xe4, 0x1e,
    0x27, 0x3e, 0x03, 0x9a, 0xe9, 0x3e, 0xca, 0x05, 0xbd, 0xbb,
    0x64, 0x8c, 0xf7, 0xbe, 0xf2, 0x13, 0xb3, 0x3e, 0xf0, 0xaa,
    0x15, 0x3e, 0x20, 0x29, 0x45, 0x3e, 0xb7, 0xdd, 0xea, 0x3e,
    0x60, 0xfe, 0x04, 0x3f, 0x75, 0xec, 0x65, 0x3d, 0x0e, 0x5c,
    0x48, 0x3e, 0x8e, 0xeb, 0xd3, 0x3d, 0xd8, 0xde, 0x83, 0x3e,
    0xcd, 0x35, 0xbe, 0x3d, 0x07, 0x0a, 0xc4, 0x3e, 0x23, 0x9a,
    0x9c, 0x3e, 0xea, 0x6c, 0xaa, 0xbe, 0xc4, 0xc3, 0x9f, 0xbc,
    0x09, 0x58, 0x54, 0x3e, 0xe4, 0xb0, 0x4e, 0x3f, 0x77, 0x66,
    0x07, 0x3f, 0xc6, 0xc9, 0xa6, 0xbd, 0x45, 0x00, 0xd7, 0xbd,
    0xb3, 0x5d, 0xd2, 0x3d, 0x9a, 0x93, 0x21, 0xbf, 0x40, 0x29,
    0x1a, 0xbe, 0x1c, 0x6f, 0x90, 0x3e, 0xd0, 0xeb, 0x17, 0xbe,
    0x99, 0xae, 0xdf, 0x3e, 0xa1, 0xe2, 0x37, 0x3e, 0x4b, 0xca,
    0x5d, 0xbd, 0x78, 0x67, 0xa4, 0x3d, 0xf2, 0x40, 0xbc, 0x3e,
    0x59, 0x11, 0x1c, 0x3f, 0xa9, 0x2f, 0xbe, 0xbd, 0x59, 0xad,
    0x11, 0xbd, 0x6a, 0x12, 0x13, 0xbf, 0x77, 0x11, 0x04, 0xbe,
    0x87, 0xd9, 0x80, 0xbd, 0x18, 0x56, 0x47, 0x3e, 0x82, 0xb4,
    0x6b, 0x3f, 0x07, 0xa7, 0xd5, 0x3c, 0x81, 0xd5, 0xaf, 0x3d,
    0xaa, 0x4c, 0xae, 0x3d, 0xf3, 0x34, 0x29, 0xbe, 0x44, 0xf0,
    0x7d, 0xbe, 0xbd, 0x76, 0x66, 0x3d, 0x96, 0xaa, 0x2c, 0x3f,
    0x12, 0xc1, 0xd8, 0x3e, 0x63, 0x34, 0x5d, 0xbe, 0x08, 0x5d,
    0x07, 0xbe, 0x5f, 0x85, 0xa0, 0xbe, 0x2d, 0x7c, 0x90, 0xbe,
    0x1a, 0xda, 0x1e, 0x3f, 0xaa, 0x49, 0x17, 0x3d, 0x40, 0xc1,
    0x17, 0xbe, 0x5a, 0x78, 0x09, 0xbe, 0xa0, 0x27, 0xf4, 0x3e,
    0xe8, 0x46, 0x8c, 0x3e, 0x5c, 0xb9, 0x3c, 0xbe, 0xe5, 0x4e,
    0x6b, 0x3d, 0xe2, 0x2d, 0x86, 0x3e, 0xb5, 0x32, 0x93, 0x3e,
    0xa5, 0x53, 0xf3, 0x3d, 0xb6, 0x04, 0x29, 0x3d, 0x68, 0xfb,
    0xc1, 0x3d, 0xf8, 0xe9, 0x32, 0xbe, 0x2c, 0x49, 0x35, 0x3f,
    0xec, 0xea, 0x5f, 0x3e, 0x77, 0x36, 0x42, 0x3e, 0x1c, 0x17,
    0xae, 0x3e, 0xd5, 0x37, 0x3b, 0x3e, 0xc8, 0xfb, 0x45, 0xbc,
    0x42, 0x0f, 0x02, 0xbb, 0x2e, 0xd9, 0x33, 0x3e, 0xd5, 0xb3,
    0xe9, 0x3e, 0xb1, 0x5f, 0x18, 0x3d, 0x2c, 0x28, 0x5d, 0x3e,
    0x4d, 0x2c, 0x06, 0x3f, 0x36, 0x57, 0x35, 0xbe, 0x41, 0x26,
    0x49, 0x3e, 0x08, 0x15, 0x8a, 0xbc, 0xeb, 0x91, 0x37, 0xbe,
    0x2e, 0xd1, 0x47, 0x3f, 0x42, 0x94, 0x88, 0xbd, 0x10, 0x4a,
    0xa1, 0x3d, 0x8f, 0xa9, 0xc1, 0x3b, 0x83, 0xb8, 0x83, 0xbd,
    0x9d, 0xfa, 0x07, 0xbe, 0x75, 0x6b, 0xf9, 0xbd, 0x2e, 0xf6,
    0xdc, 0x3d, 0x46, 0x09, 0x6e, 0xbe, 0xe9, 0xee, 0xed, 0x3d,
    0xa7, 0x00, 0x9f, 0x3e, 0x8f, 0x48, 0xb8, 0xbc, 0x2d, 0x60,
    0x41, 0x3f, 0xd5, 0xd8, 0x68, 0xbd, 0x71, 0xdc, 0x1d, 0x3f,
    0xbe, 0x5b, 0xea, 0xbe, 0x82, 0x43, 0x91, 0xbe, 0x56, 0xbf,
    0x61, 0x3f, 0xe0, 0xe0, 0x35, 0xbd, 0x00, 0xf1, 0xfa, 0x3d,
    0xc2, 0x55, 0x7f, 0x3f, 0x1b, 0x14, 0xeb, 0xbf, 0x8e, 0xdf,
    0x3f, 0xbd, 0x09, 0x9b, 0x40, 0x3d, 0x5e, 0x57, 0x57, 0xbe,
    0xef, 0xf3, 0x44, 0xbe, 0x13, 0xce, 0x2f, 0xbe, 0x5c, 0xd0,
    0x7b, 0x3e, 0xfb, 0x1a, 0xdf, 0x3e, 0x80, 0xcd, 0x98, 0x3e,
    0x30, 0x4f, 0x4c, 0x3d, 0xea, 0x19, 0xb8, 0xbb, 0xee, 0x58,
    0x8c, 0xbc, 0x1d, 0x29, 0xa3, 0x3d, 0x9b, 0x54, 0x50, 0x3f,
    0x5b, 0xeb, 0x46, 0x3f, 0x8b, 0xa0, 0xf7, 0xbd, 0xf6, 0x3e,
    0xac, 0xbe, 0x8b, 0xc1, 0x81, 0xbe, 0x4f, 0x04, 0x0d, 0x3f,
    0x2a, 0xb6, 0x1f, 0x3f, 0x8b, 0xd5, 0x91, 0x3f, 0x64, 0x40,
    0x8a, 0xbc, 0x64, 0x9c, 0xb0, 0x3f, 0xc7, 0xd4, 0xb6, 0x3d,
    0x79, 0x16, 0xe8, 0x3d, 0xa8, 0x03, 0x01, 0x3f, 0x3d, 0x8f,
    0xde, 0xbd, 0xb9, 0x8f, 0xfe, 0x3c, 0x60, 0xf8, 0xa8, 0xbc,
    0xc0, 0x0f, 0x3e, 0x3d, 0xe8, 0x0b, 0x09, 0xbd, 0xd0, 0x0d,
    0xef, 0xbd, 0x07, 0x27, 0x90, 0xbe, 0xc8, 0x62, 0x7a, 0xbd,
    0x13, 0x6d, 0x85, 0x3e, 0x82, 0x30, 0xec, 0x3d, 0x8b, 0xec,
    0x3c, 0x3f, 0x21, 0x26, 0x24, 0xbe, 0xb6, 0xc5, 0x41, 0x3e,
    0x7d, 0x0b, 0xdd, 0xbe, 0x29, 0x8d, 0x32, 0x3e, 0x78, 0xf0,
    0x5c, 0x3e, 0xdb, 0x49, 0x4e, 0x3e, 0xac, 0xdc, 0xaf, 0x3d,
    0xd1, 0x83, 0x0d, 0x3f, 0xf7, 0x7f, 0x50, 0x3d, 0xf8, 0xf6,
    0x49, 0xbe, 0xf8, 0x9f, 0x0c, 0x3e, 0x96, 0x09, 0x03, 0xbe,
    0xf3, 0x8f, 0xfe, 0x3e, 0x33, 0xe6, 0x81, 0x3e, 0xd5, 0x9e,
    0x8e, 0x3c, 0x36, 0x75, 0x0f, 0x3f, 0x3e, 0x07, 0x9d, 0xbd,
    0x42, 0xa2, 0x90, 0x3c, 0x8d, 0xd7, 0x32, 0x3a, 0x4a, 0x42,
    0xec, 0xbe, 0x64, 0xf5, 0xb6, 0x3e, 0x6b, 0xe2, 0x13, 0xbe,
    0x7a, 0xa3, 0xd7, 0x3e, 0x6b, 0xeb, 0x00, 0x3f, 0x4e, 0x61,
    0x08, 0x3c, 0x4d, 0x4d, 0x6e, 0x3e, 0x2a, 0x5c, 0x9d, 0x3e,
    0xfc, 0x6a, 0xcd, 0x3e, 0xcc, 0x7f, 0xe0, 0x3e, 0x87, 0xed,
    0x8c, 0xbe, 0x29, 0x52, 0x3a, 0x3f, 0x34, 0x29, 0xc0, 0x3c,
    0x2e, 0x08, 0x29, 0x3e, 0x44, 0x5e, 0x83, 0x3e, 0xb2, 0x67,
    0x76, 0x3e, 0x91, 0xef, 0xf0, 0x3e, 0x43, 0x1b, 0x74, 0x3d,
    0xd2, 0x33, 0xcd, 0x3e, 0x0f, 0xa8, 0xb1, 0x3e, 0x64, 0x64,
    0x51, 0x3c, 0x66, 0x93, 0x08, 0x3f, 0xb4, 0xb6, 0x01, 0x3f,
    0xb4, 0x3d, 0x90, 0x3e, 0xfd, 0x37, 0x5d, 0x3e, 0xce, 0x7e,
    0xe1, 0x3d, 0x91, 0x19, 0x90, 0x3d, 0x5c, 0x7f, 0x3e, 0xbe,
    0xae, 0xa9, 0x9b, 0x3d, 0x92, 0x12, 0xee, 0xbe, 0xe6, 0x90,
    0xd7, 0xbe, 0x68, 0xd3, 0x8a, 0x3e, 0xe9, 0x40, 0xf2, 0x3c,
    0x05, 0x17, 0x1c, 0x3e, 0xd3, 0x50, 0x1e, 0x3e, 0xb9, 0xf3,
    0x07, 0x3f, 0xc5, 0x10, 0xa9, 0xbd, 0x5b, 0xe7, 0x1c, 0xbe,
    0xde, 0x91, 0x19, 0x3e, 0x96, 0xad, 0x00, 0x3e, 0x4c, 0x4b,
    0x67, 0x3d, 0x15, 0xdc, 0xdd, 0x3d, 0xc7, 0xaf, 0xd7, 0xbd,
    0xd7, 0xb6, 0x1d, 0xbf, 0xfd, 0x57, 0x73, 0xbe, 0x93, 0x2d,
    0x41, 0x3e, 0x7c, 0x34, 0x3c, 0x3f, 0xb0, 0x74, 0x2d, 0xbe,
    0xe6, 0xe4, 0x98, 0x3e, 0xd4, 0x3f, 0xd8, 0x3e, 0x1a, 0x28,
    0xcd, 0x3d, 0x27, 0x42, 0x08, 0x3f, 0xf0, 0x63, 0x8f, 0x3e,
    0x81, 0x7f, 0x3e, 0x3e, 0xde, 0xf5, 0xef, 0xbe, 0xc7, 0x63,
    0x2c, 0x3e, 0x7c, 0xd0, 0x1f, 0x3e, 0x66, 0xeb, 0x55, 0x3d,
    0xe8, 0xaf, 0x98, 0x3d, 0x8c, 0x1a, 0x83, 0xbe, 0x81, 0xe4,
    0x8b, 0x3d, 0x72, 0x32, 0x87, 0xbd, 0x8d, 0x7f, 0x60, 0x3e,
    0x9a, 0x4e, 0x9e, 0x3e, 0xfb, 0xb4, 0x4a, 0x3f, 0x72, 0x67,
    0x37, 0xbf, 0x48, 0x37, 0x68, 0x3e, 0x04, 0xc9, 0x98, 0x3e,
    0x1e, 0x4d, 0x85, 0x3d, 0xd8, 0x1f, 0x32, 0x3e, 0x76, 0x71,
    0x4e, 0xbf, 0x7b, 0xac, 0xb1, 0x3b, 0x5c, 0x63, 0x07, 0xbf,
    0x4b, 0x75, 0xd6, 0x3c, 0x67, 0x87, 0x88, 0xbe, 0x09, 0x81,
    0x86, 0x3e, 0x50, 0x91, 0x46, 0xbe, 0xd8, 0x19, 0x6a, 0x3e,
    0x21, 0x41, 0xae, 0xbd, 0xc1, 0x6b, 0xe8, 0x3e, 0x89, 0x30,
    0x6e, 0xbe, 0xd0, 0x5e, 0xb4, 0x3e, 0x8c, 0x6b, 0x7d, 0xbe,
    0x5d, 0xba, 0x12, 0x3e, 0x36, 0x49, 0xed, 0x3e, 0x54, 0x90,
    0x32, 0x3f, 0x88, 0xb9, 0xf4, 0xbd, 0xcd, 0xfd, 0x7a, 0x3e,
    0x1b, 0xa0, 0xe7, 0x3e, 0xa4, 0xd3, 0x9f, 0x3e, 0x0b, 0x1c,
    0x65, 0xbe, 0xa2, 0x97, 0xcb, 0xbd, 0x96, 0xaa, 0x07, 0x3f,
    0xfa, 0xda, 0x79, 0xbe, 0x3b, 0x6a, 0x57, 0x3d, 0x1c, 0x4f,
    0x89, 0xbe, 0x39, 0xd7, 0x46, 0xbe, 0x0a, 0xea, 0xa5, 0x3e,
    0x10, 0x4f, 0x54, 0xbe, 0xd9, 0x8b, 0x9f, 0x3f, 0xaf, 0xb1,
    0x85, 0x3d, 0x23, 0x48, 0xe2, 0x3c, 0xa0, 0xc6, 0x0c, 0xbe,
    0x53, 0x38, 0x3f, 0x3e, 0xca, 0x4c, 0x88, 0x3d, 0xdf, 0x89,
    0x05, 0x3e, 0xc6, 0xf4, 0x7b, 0x3e, 0x38, 0xfc, 0xd5, 0xbe,
    0x26, 0xe7, 0x4d, 0x3e, 0xe8, 0x8b, 0x2f, 0x3e, 0xc6, 0xdd,
    0xb5, 0x3e, 0x2c, 0xe3, 0x15, 0x3f, 0x9a, 0x03, 0x4b, 0x3f,
    0x5b, 0xb4, 0xf0, 0x3e, 0x27, 0xe2, 0xa8, 0x3e, 0x30, 0xb3,
    0x5a, 0x3f, 0x0c, 0x0c, 0x8b, 0x3e, 0x5e, 0xb0, 0x41, 0x3d,
    0x7a, 0x2a, 0x23, 0x3e, 0xd3, 0x69, 0x8e, 0xbe, 0xfc, 0xae,
    0x82, 0xbf, 0xcd, 0x3c, 0x57, 0xbe, 0xcb, 0x75, 0x5f, 0x3e,
    0x96, 0xeb, 0x81, 0x3e, 0xe9, 0x5d, 0xad, 0xbe, 0x88, 0x85,
    0x13, 0x3f, 0xad, 0x19, 0x0b, 0x3e, 0x72, 0x22, 0x5c, 0x3f,
    0x90, 0x7d, 0x5c, 0x3f, 0x54, 0x92, 0x1b, 0xbe, 0x4e, 0x1f,
    0x78, 0xba, 0x7b, 0xe2, 0xcf, 0x3d, 0x34, 0xd3, 0x77, 0xbe,
    0x3d, 0x5b, 0xc3, 0xbe, 0x56, 0x34, 0xe7, 0x3e, 0xe7, 0x97,
    0x6b, 0x3f, 0x44, 0x64, 0xbf, 0xbe, 0xf3, 0xcb, 0xda, 0x3e,
    0xbe, 0xd4, 0xb0, 0xbe, 0x66, 0xfa, 0xa1, 0x3e, 0xda, 0x89,
    0xc0, 0xbd, 0x20, 0x65, 0xe8, 0xbd, 0x59, 0x60, 0x49, 0x3e,
    0x51, 0x49, 0x08, 0x3f, 0xdb, 0x3a, 0x67, 0x3f, 0x9b, 0x24,
    0x1b, 0xbf, 0x7c, 0x06, 0x10, 0xbe, 0xef, 0x34, 0xa3, 0xbe,
    0x21, 0xea, 0xc9, 0xbd, 0x07, 0x00, 0xd3, 0x3e, 0xaa, 0x1a,
    0x1c, 0x3f, 0xf8, 0xa3, 0xa8, 0x3d, 0x72, 0xc1, 0x28, 0xbe,
    0x65, 0xd4, 0xba, 0x3c, 0xfe, 0xcb, 0x2a, 0x3f, 0x62, 0x4f,
    0x1f, 0xbf, 0xcc, 0x45, 0x32, 0xbe, 0xb4, 0x70, 0xce, 0xbe,
    0x1f, 0x60, 0x91, 0xbe, 0x9b, 0x15, 0x28, 0xbf, 0x07, 0xee,
    0x8a, 0x3e, 0xe8, 0x3f, 0x91, 0xbf, 0x83, 0x29, 0x1c, 0xbe,
    0xb9, 0x4a, 0x97, 0xbe, 0xeb, 0xba, 0x09, 0x3e, 0x75, 0x4d,
    0xab, 0xbe, 0x71, 0xa8, 0x87, 0xbe, 0x5c, 0x40, 0x2c, 0x3e,
    0x2b, 0xf8, 0xba, 0x3a, 0x53, 0x47, 0xb9, 0x3d, 0x5c, 0x89,
    0x71, 0xbe, 0x12, 0x03, 0xfa, 0x3d, 0xe0, 0x6c, 0x85, 0xbe,
    0x6c, 0xef, 0x1c, 0xbc, 0xed, 0x5c, 0x4b, 0xbe, 0x2c, 0x32,
    0x72, 0x3d, 0xd4, 0x0d, 0x73, 0xbd, 0x93, 0x81, 0x0d, 0xbe,
    0x89, 0x79, 0x35, 0x3e, 0xf4, 0x52, 0x8c, 0x3d, 0xf9, 0x13,
    0x16, 0x3e, 0xb9, 0x30, 0xfe, 0xbd, 0x2a, 0x10, 0x40, 0x3e,
    0xec, 0xb4, 0x51, 0x3d, 0x15, 0x0c, 0x00, 0x3d, 0x04, 0x34,
    0xf1, 0x3e, 0x31, 0xef, 0x2f, 0xbc, 0xb5, 0xb6, 0x3c, 0x3d,
    0xbb, 0x72, 0xd8, 0x3e, 0xc1, 0x29, 0x66, 0xbe, 0xa3, 0xae,
    0xec, 0x3d, 0x75, 0xf6, 0x90, 0x3e, 0xe4, 0x67, 0xc8, 0x3e,
    0x04, 0x5f, 0x79, 0xbe, 0x7d, 0x39, 0x3d, 0x3f, 0x45, 0xb9,
    0xf0, 0x3c, 0x39, 0x08, 0x28, 0xbe, 0x91, 0xf5, 0x73, 0x3e,
    0xa4, 0x29, 0xb6, 0xbd, 0x4e, 0x1d, 0xb8, 0x3d, 0x54, 0x25,
    0xc5, 0x3e, 0xad, 0xbc, 0x48, 0xbb, 0xd4, 0x09, 0xbf, 0xbe,
    0x63, 0xaa, 0x71, 0xbe, 0xd0, 0xa8, 0x59, 0x3e, 0xc4, 0x20,
    0xf8, 0x3d, 0xc8, 0x47, 0x0c, 0x3e, 0x04, 0x30, 0x25, 0x3f,
    0xf8, 0x50, 0x22, 0xbd, 0xf2, 0x98, 0xd4, 0x3d, 0x0f, 0xb9,
    0x8a, 0x3e, 0x9d, 0xbd, 0xa6, 0x3e, 0x61, 0xe7, 0xa5, 0x3e,
    0x2b, 0x73, 0x8c, 0x3e, 0x93, 0xe0, 0x9c, 0xbe, 0xe2, 0x4a,
    0x83, 0x3d, 0x74, 0x35, 0x21, 0x3e, 0x7b, 0x47, 0xc5, 0x3d,
    0xcc, 0x6f, 0x95, 0x3e, 0x0c, 0x4a, 0x08, 0xbe, 0xb6, 0x94,
    0xe9, 0xbe, 0xa0, 0x43, 0xa9, 0x3d, 0xe3, 0xbf, 0x80, 0x3e,
    0x57, 0xfd, 0x4b, 0x3e, 0x8d, 0xb2, 0xde, 0x3e, 0xa5, 0x67,
    0x06, 0x3e, 0xa3, 0x2c, 0x1c, 0x3e, 0xb1, 0x3e, 0x55, 0x3f,
    0x50, 0x22, 0x8f, 0xbe, 0x8b, 0xaa, 0x70, 0x3e, 0xe2, 0x77,
    0x87, 0x3d, 0x60, 0x21, 0x89, 0xbc, 0x7d, 0x9c, 0xc2, 0xbd,
    0x9a, 0x49, 0x09, 0x3e, 0x95, 0xad, 0x9f, 0xbe, 0xd5, 0x63,
    0x7d, 0x3e, 0x7f, 0xaa, 0x4d, 0x3d, 0xfe, 0x39, 0x6d, 0x3e,
    0xec, 0x6c, 0x34, 0x3e, 0xf3, 0x17, 0xde, 0xbe, 0x1d, 0xc2,
    0x08, 0x3d, 0xb7, 0x28, 0x41, 0x3e, 0x44, 0x9e, 0x4e, 0xbe,
    0x0b, 0x27, 0x01, 0x3f, 0xf8, 0xc0, 0x1d, 0x3f, 0xca, 0x03,
    0xa5, 0x3e, 0x12, 0x0e, 0xf3, 0x3e, 0x56, 0x26, 0x46, 0x3d,
    0xa8, 0x44, 0x03, 0xbe, 0x1f, 0x66, 0x6c, 0x3d, 0x70, 0x92,
    0xfa, 0xbd, 0xcd, 0x94, 0x79, 0x3f, 0xe3, 0xe6, 0xf5, 0xbe,
    0x57, 0x32, 0x23, 0xbe, 0x45, 0x0c, 0x96, 0x3e, 0x59, 0x18,
    0x2a, 0x3c, 0xee, 0x93, 0xc9, 0x3e, 0x85, 0x78, 0x07, 0xbe,
    0x85, 0x87, 0x07, 0x3f, 0xa5, 0x5d, 0xcf, 0x3e, 0x26, 0x16,
    0x99, 0xbe, 0x3e, 0x28, 0x47, 0xbe, 0xdf, 0x1e, 0xb0, 0xbe,
    0xbd, 0xe6, 0xb3, 0x3e, 0x3a, 0x82, 0x98, 0x3e, 0x67, 0x92,
    0x85, 0x3c, 0x49, 0x71, 0xec, 0xbc, 0x97, 0xf2, 0xa8, 0x3e,
    0xf8, 0x30, 0xb5, 0xbc, 0xd3, 0xb2, 0x7b, 0x3e, 0xc6, 0x9c,
    0x53, 0x3e, 0x07, 0xc1, 0xe5, 0x3e, 0x67, 0xbf, 0x58, 0x3b,
    0x1a, 0xc1, 0x37, 0xbe, 0x2b, 0x39, 0x89, 0x3e, 0xc6, 0xee,
    0xa5, 0x3d, 0xfa, 0x0d, 0xcb, 0x3e, 0xcc, 0x3c, 0x1b, 0xbd,
    0xe8, 0x1a, 0x1c, 0x3e, 0xdf, 0x99, 0x6c, 0x3d, 0x63, 0x2f,
    0xa0, 0x3c, 0x37, 0x24, 0xee, 0x3e, 0x21, 0xbb, 0x04, 0x3f,
    0x88, 0x88, 0x92, 0xbe, 0x9e, 0x19, 0x11, 0x3e, 0x40, 0x4a,
    0x08, 0xbe, 0x4b, 0xb4, 0x40, 0x3e, 0x25, 0x48, 0xb0, 0xbd,
    0x87, 0xf2, 0x60, 0xbd, 0x69, 0x02, 0x1c, 0x3f, 0xd5, 0x53,
    0x8d, 0xbe, 0x1a, 0xe2, 0xeb, 0x3e, 0x96, 0x75, 0xc9, 0x3e,
    0x2e, 0x2d, 0x31, 0x3e, 0x39, 0x32, 0x8e, 0xbe, 0xe6, 0x72,
    0x23, 0xbd, 0x29, 0xd8, 0xe1, 0x3e, 0x8f, 0x22, 0x3e, 0x3f,
    0x89, 0x86, 0x9c, 0xbd, 0x61, 0x12, 0xb7, 0xbe, 0x9d, 0xd1,
    0x34, 0xbe, 0x9b, 0x6d, 0x3c, 0x3e, 0xac, 0x75, 0xb5, 0x3f,
    0xf8, 0xcd, 0x27, 0x3e, 0x34, 0xb2, 0x60, 0x3e, 0x0c, 0x22,
    0x7b, 0xbe, 0x6e, 0x5a, 0x49, 0xbd, 0x64, 0x34, 0xae, 0xbd,
    0xa9, 0x51, 0xbf, 0xbf, 0xb5, 0xb7, 0x1b, 0x3e, 0x2e, 0xe4,
    0x72, 0x3d, 0x85, 0xbe, 0x61, 0xbd, 0xdf, 0x48, 0x3f, 0xbf,
    0x0e, 0x89, 0x35, 0xbd, 0x1d, 0x5d, 0x37, 0x3e, 0xe8, 0x65,
    0x3f, 0x3f, 0xd1, 0x1b, 0x2d, 0x3e, 0xcd, 0x41, 0xa4, 0x3e,
    0x3e, 0x75, 0x9b, 0xbd, 0xa4, 0xbf, 0x03, 0x3e, 0xd1, 0x5a,
    0x8d, 0xbe, 0xcd, 0x9b, 0x22, 0xbe, 0x71, 0xfa, 0x33, 0xbe,
    0xea, 0xec, 0x0a, 0x3f, 0x03, 0xe6, 0x2c, 0x3f, 0x48, 0xd6,
    0x67, 0xbe, 0x46, 0x3c, 0xed, 0xbe, 0x57, 0x5f, 0x35, 0xbd,
    0xb3, 0x8c, 0xf4, 0xbe, 0x17, 0x5f, 0xdb, 0x3d, 0x4b, 0xfe,
    0xe7, 0x3d, 0xd8, 0xf9, 0xdf, 0x3d, 0xe6, 0x1d, 0x8d, 0xbe,
    0x3d, 0x8f, 0xa9, 0xbe, 0xc1, 0x58, 0x88, 0x3e, 0xcb, 0xa2,
    0xdb, 0xbd, 0x5e, 0x0b, 0xa6, 0xbd, 0x91, 0xd6, 0x55, 0x3e,
    0x95, 0xf8, 0xfb, 0x3e, 0x39, 0x30, 0xf7, 0xbf, 0xfc, 0x7e,
    0xba, 0x3e, 0x1a, 0x55, 0x14, 0xbf, 0x0b, 0x7d, 0x3e, 0x3e,
    0x01, 0x01, 0xdc, 0x3c, 0x58, 0xe2, 0x25, 0x3d, 0xd0, 0x3f,
    0x39, 0x3f, 0x72, 0xf6, 0xa0, 0x3e, 0x6e, 0xc1, 0xdb, 0x3d,
    0x87, 0xdf, 0xe7, 0x3e, 0xd1, 0x16, 0x8e, 0xbe, 0x90, 0x2a,
    0x0a, 0xbf, 0x12, 0x15, 0x03, 0xbe, 0xc0, 0xa9, 0xd9, 0x3c,
    0x60, 0x55, 0x11, 0xbf, 0x06, 0xa3, 0xb6, 0x3d, 0x19, 0x00,
    0xa4, 0xbe, 0x46, 0x2a, 0xc2, 0xbd, 0xa0, 0x55, 0x9a, 0x3e,
    0x6e, 0x43, 0x15, 0x3d, 0x00, 0x10, 0x8a, 0x3e, 0xdf, 0x13,
    0xba, 0x3d, 0x36, 0x3c, 0xee, 0xbd, 0x83, 0x58, 0x1d, 0x3e,
    0x01, 0x05, 0x67, 0x3d, 0x74, 0x16, 0x82, 0xbd, 0x48, 0x49,
    0x0c, 0x3f, 0xc5, 0x33, 0x6e, 0xbf, 0xa4, 0x6f, 0xd6, 0xbe,
    0x6f, 0x0c, 0x3a, 0x3f, 0x4c, 0xae, 0x59, 0xbb, 0x30, 0xa7,
    0x87, 0x3e, 0x91, 0x89, 0xc4, 0x3e, 0x0d, 0x34, 0x6d, 0xbe,
    0xec, 0x0d, 0x48, 0xbe, 0xf2, 0x61, 0x7c, 0x3e, 0x03, 0x6b,
    0xeb, 0xbe, 0x55, 0x1f, 0xf2, 0x3d, 0x5c, 0xa3, 0x2f, 0xbd,
    0x77, 0xbb, 0x40, 0xbd, 0xf1, 0xbd, 0xe2, 0xbf, 0x0e, 0x95,
    0x4b, 0x3e, 0x52, 0x2c, 0xc8, 0xbe, 0x54, 0x35, 0x26, 0xbf,
    0x2a, 0x01, 0x50, 0xbe, 0x01, 0x9e, 0xc7, 0x3e, 0xda, 0x8e,
    0x7a, 0x3f, 0x49, 0x8b, 0x75, 0x3f, 0x32, 0xd5, 0x38, 0xbe,
    0xdd, 0xec, 0x09, 0x3f, 0x14, 0x69, 0x4e, 0x3e, 0xd7, 0x31,
    0xda, 0x3e, 0xa1, 0x37, 0x71, 0x3e, 0xca, 0x80, 0x42, 0x3f,
    0x5c, 0xa0, 0x0d, 0xbe, 0x0a, 0x77, 0x58, 0xbe, 0xcb, 0x2a,
    0x1d, 0xbe, 0x54, 0x41, 0x4f, 0x3e, 0xa0, 0xb8, 0x12, 0x3f,
    0x68, 0x37, 0x24, 0xbf, 0x2a, 0x32, 0x18, 0x3f, 0x54, 0xb3,
    0x8e, 0xbd, 0x10, 0x87, 0x99, 0x3e, 0xac, 0x77, 0x1d, 0x3f,
    0xfd, 0x9e, 0xb2, 0xbe, 0xd4, 0x3f, 0x12, 0x3e, 0x3e, 0x30,
    0xa0, 0xbf, 0xb4, 0x0a, 0xcf, 0x3e, 0xe7, 0xef, 0x8b, 0x3e,
    0x3c, 0xa1, 0xa7, 0x3e, 0xb0, 0x77, 0x66, 0xbd, 0xc0, 0xff,
    0x5d, 0xbc, 0x14, 0xe3, 0x3b, 0x3e, 0x2f, 0x2b, 0xd5, 0x3d,
    0xb4, 0xe8, 0x38, 0x3e, 0x4e, 0x4d, 0x06, 0x40, 0x09, 0xb1,
    0x96, 0x3f, 0x89, 0x6b, 0x87, 0xbe, 0x9d, 0xa2, 0x5a, 0xbe,
    0xbf, 0xeb, 0x00, 0xbe, 0x08, 0x13, 0x45, 0x3e, 0x33, 0xb7,
    0x01, 0xbf, 0xd2, 0x30, 0xef, 0xbd, 0x34, 0x88, 0x64, 0xbe,
    0x18, 0xcf, 0x4c, 0xbe, 0xdd, 0xee, 0x0c, 0xbd, 0x0b, 0x23,
    0xb0, 0x3d, 0x98, 0xc2, 0x86, 0xbe, 0x78, 0x99, 0x06, 0xbf,
    0x3c, 0xaf, 0xfc, 0xbd, 0x67, 0xaa, 0xd4, 0x3e, 0xcb, 0xfd,
    0x46, 0x3f, 0x26, 0xb7, 0x27, 0xbd, 0x46, 0xa6, 0xdb, 0x3e,
    0xcb, 0xc3, 0xa2, 0x3d, 0xae, 0xd6, 0x4c, 0x3d, 0x30, 0x2c,
    0x1b, 0x3f, 0x5b, 0x78, 0x50, 0x3e, 0x3d, 0x6c, 0x74, 0x3e,
    0x8c, 0x89, 0xda, 0x3e, 0xc1, 0xc9, 0xcd, 0x3d, 0x35, 0xd2,
    0xc4, 0x3e, 0xb6, 0xc1, 0xa6, 0x3d, 0x1c, 0xeb, 0xd1, 0xbb,
    0x4c, 0x96, 0x28, 0xbe, 0x1a, 0xfc, 0x52, 0x3e, 0x12, 0x73,
    0x60, 0xba, 0xf0, 0x2e, 0xe8, 0x3d, 0x2d, 0x89, 0xcb, 0xbd,
    0xc1, 0x4d, 0x04, 0x3f, 0x1b, 0xf6, 0xcb, 0x3d, 0xa5, 0x16,
    0x35, 0x40, 0x12, 0x66, 0x94, 0x3e, 0xa3, 0x5b, 0x22, 0x3f,
    0x61, 0x1f, 0x76, 0xbd, 0x7d, 0xf2, 0x52, 0xbf, 0x12, 0xe7,
    0x0d, 0x3f, 0xf9, 0xc1, 0x05, 0xbe, 0x17, 0x01, 0x28, 0x3e,
    0x29, 0x53, 0x1c, 0xbe, 0x57, 0x0f, 0xc0, 0x3c, 0x6a, 0xd0,
    0xe3, 0x3d, 0x3a, 0x82, 0x9b, 0xbe, 0x99, 0xdd, 0x2b, 0x3f,
    0x4c, 0x1c, 0xb2, 0x3f, 0x3c, 0xac, 0x40, 0x3e, 0xc6, 0x40,
    0x32, 0x3d, 0x97, 0x17, 0x74, 0xbe, 0x67, 0x43, 0x9a, 0xbd,
    0x46, 0x8a, 0x5e, 0x3e, 0x33, 0x94, 0x20, 0xbe, 0x22, 0x3b,
    0x9f, 0x3f, 0x9a, 0x33, 0xcc, 0x3c, 0x8c, 0xed, 0xdf, 0xbd,
    0x35, 0x20, 0x43, 0x3e, 0xbd, 0x85, 0xdf, 0x3e, 0x16, 0x79,
    0xf7, 0xbd, 0x05, 0xa5, 0x8c, 0x3e, 0xb1, 0xed, 0xe3, 0x3e,
    0xa7, 0x48, 0x80, 0x3f, 0xd5, 0xbd, 0xae, 0xbd, 0x3f, 0x12,
    0x46, 0xbc, 0x2a, 0xa5, 0x7b, 0x3d, 0xea, 0xc2, 0x03, 0x3d,
    0x21, 0x00, 0xb0, 0x3f, 0x42, 0x8a, 0xce, 0x3e, 0x54, 0x8a,
    0xeb, 0x3e, 0x1a, 0x73, 0x07, 0xbe, 0x63, 0xb7, 0x0c, 0xbe,
    0x4f, 0x13, 0xcd, 0x3e, 0x4e, 0x0c, 0xbb, 0xbe, 0xba, 0xab,
    0xe2, 0xbe, 0xda, 0x39, 0xac, 0x3e, 0xc3, 0x00, 0x46, 0x3e,
    0xd1, 0x21, 0x06, 0xbe, 0x20, 0x87, 0x72, 0x3e, 0x9e, 0x67,
    0xcd, 0xbf, 0x98, 0xcf, 0xc7, 0xbf, 0xa7, 0x08, 0x7c, 0xbe,
    0x4f, 0x59, 0x26, 0xbc, 0x84, 0x2a, 0x08, 0x40, 0x9f, 0xbc,
    0x37, 0x3f, 0x03, 0x9a, 0xd6, 0xbd, 0xcc, 0x9e, 0x04, 0x3e,
    0x00, 0xe5, 0xc9, 0xbc, 0x0a, 0x6f, 0x2c, 0xbf, 0x25, 0x23,
    0x1d, 0xbe, 0xb7, 0x39, 0x17, 0x3f, 0xdb, 0x3d, 0xd2, 0xbf,
    0x77, 0x8c, 0xec, 0x3b, 0x90, 0xa3, 0x96, 0xbd, 0x88, 0x8e,
    0xb1, 0x3e, 0x80, 0x6e, 0x99, 0xbe, 0x66, 0x6c, 0x62, 0x3e,
    0x39, 0xb8, 0x4f, 0xbe, 0x97, 0x5b, 0x36, 0x3f, 0xd3, 0x8c,
    0xc0, 0xbd, 0xcc, 0xfd, 0x22, 0xbf, 0x10, 0x15, 0xa8, 0x3d,
    0x3c, 0xd8, 0x11, 0x3e, 0x79, 0x37, 0xe8, 0x3e, 0xff, 0x6f,
    0x2a, 0x3e, 0x99, 0xad, 0xda, 0xbf, 0x89, 0xcc, 0x33, 0x3f,
    0xe4, 0x21, 0x14, 0xbf, 0xa7, 0x32, 0x0e, 0x3e, 0x60, 0x77,
    0x15, 0xbf, 0x4f, 0x78, 0x8a, 0xbe, 0xca, 0x32, 0x5b, 0x3e,
    0x35, 0xc5, 0x4d, 0xbc, 0x42, 0x17, 0x1d, 0x3e, 0x2d, 0xe1,
    0x42, 0x3e, 0x47, 0x5b, 0xa8, 0xbe, 0x9c, 0x98, 0xb0, 0x3e,
    0xaf, 0xba, 0xaa, 0x3e, 0xd1, 0x7c, 0x34, 0xbf, 0x9d, 0x9b,
    0xc8, 0x3e, 0xf9, 0xdc, 0xa6, 0x3e, 0x84, 0xad, 0x59, 0x3d,
    0xad, 0x75, 0x7e, 0x3e, 0xa5, 0xf9, 0x60, 0xbe, 0x9f, 0xe6,
    0xa4, 0xbe, 0xa7, 0x07, 0x67, 0x3d, 0x84, 0x23, 0x02, 0x3e,
    0xda, 0xa6, 0x8f, 0xbe, 0x25, 0x56, 0x07, 0x3f, 0xdb, 0xf4,
    0x8c, 0xbf, 0xc1, 0xdf, 0xd3, 0xbe, 0x1c, 0xdb, 0x6e, 0xbe,
    0x17, 0xc1, 0xe9, 0xbe, 0x29, 0x1a, 0xa2, 0xbe, 0x11, 0x2f,
    0xd5, 0x3e, 0x0b, 0xc3, 0x2f, 0xbe, 0x01, 0x49, 0x84, 0xbe,
    0x91, 0x3f, 0xe7, 0x3e, 0xf0, 0xef, 0x0a, 0xbe, 0x76, 0x7d,
    0xb5, 0x3d, 0x82, 0xa9, 0x8f, 0xbe, 0x1f, 0x01, 0x4b, 0xbd,
    0xca, 0x56, 0xd9, 0xbd, 0x98, 0xbf, 0x5f, 0x3e, 0xe4, 0xbe,
    0x61, 0x3e, 0x7a, 0x68, 0x10, 0xbe, 0xf2, 0x67, 0x0c, 0x3e,
    0xdf, 0xaf, 0x09, 0x3f, 0x1e, 0xd8, 0xe1, 0x3e, 0x31, 0x4b,
    0xc5, 0x3e, 0x2b, 0x3b, 0x93, 0x3e, 0x80, 0x37, 0x47, 0x3e,
    0x17, 0xd4, 0xb8, 0xbd, 0x7c, 0xad, 0xf1, 0xbc, 0xc6, 0x1a,
    0x62, 0x3e, 0x9b, 0xdb, 0x0e, 0xbe, 0x8c, 0x68, 0x1e, 0x3f,
    0x0b, 0xfa, 0x83, 0xbc, 0x64, 0x92, 0xa7, 0x3e, 0x4d, 0x23,
    0xb9, 0x3e, 0xd9, 0x22, 0x19, 0x3f, 0x51, 0x5d, 0x45, 0xbf,
    0x45, 0xe2, 0x83, 0x3e, 0x64, 0x74, 0x3b, 0x3e, 0xe1, 0xce,
    0x38, 0x3e, 0x28, 0x98, 0x17, 0xbd, 0xf1, 0xb0, 0x3e, 0xbf,
    0x94, 0xe7, 0x49, 0x3f, 0x18, 0x56, 0x54, 0x3e, 0xae, 0x07,
    0x81, 0x3e, 0xcc, 0x0e, 0x91, 0x3e, 0xcc, 0x18, 0x1a, 0xbe,
    0xa6, 0xf7, 0xf4, 0xbe, 0xa4, 0x9b, 0x4e, 0x3e, 0xda, 0x3e,
    0x14, 0x3f, 0xee, 0xfd, 0x80, 0x3f, 0x88, 0xe1, 0x83, 0x3e,
    0xb7, 0x68, 0xaf, 0x3e, 0x65, 0xa2, 0xa1, 0x3e, 0x21, 0x90,
    0xd9, 0x3e, 0xf0, 0xef, 0x04, 0x3e, 0xff, 0x0e, 0x0d, 0xbe,
    0x5d, 0x8f, 0xaa, 0x3e, 0xb4, 0x8e, 0x1e, 0xbd, 0xb3, 0xcb,
    0x15, 0xbe, 0x0b, 0x0a, 0x88, 0x3e, 0x74, 0xc2, 0xca, 0x3e,
    0x60, 0x16, 0x89, 0x3d, 0xff, 0x53, 0xf0, 0x3d, 0x94, 0x66,
    0x35, 0xbe, 0xe6, 0x9e, 0x99, 0xbb, 0x44, 0x24, 0x82, 0x3e,
    0x78, 0x92, 0x0f, 0x3e, 0x7d, 0x04, 0x81, 0xbd, 0x3f, 0x5b,
    0xad, 0xbd, 0x7d, 0x01, 0x7f, 0x3e, 0xad, 0x6d, 0x84, 0xbd,
    0x3c, 0xee, 0x02, 0x3e, 0x1d, 0xb5, 0x77, 0x3e, 0xce, 0x64,
    0xa0, 0xbe, 0xdf, 0x90, 0xe5, 0xbd, 0x57, 0x61, 0xeb, 0x3e,
    0xfa, 0xc2, 0x56, 0xbe, 0x28, 0xad, 0x87, 0x3e, 0x36, 0x6a,
    0x24, 0x3d, 0xe5, 0x2d, 0xb4, 0x3e, 0x76, 0x8b, 0x0a, 0x3f,
    0x94, 0xa8, 0x1a, 0x3d, 0x2b, 0x32, 0x55, 0xbe, 0x2f, 0x96,
    0x8d, 0x3e, 0x28, 0x4a, 0xf0, 0x3e, 0x5b, 0xcf, 0x00, 0x3f,
    0xa0, 0x9e, 0x11, 0x3f, 0xbe, 0xb2, 0x94, 0x3c, 0x0f, 0xe3,
    0x81, 0x3e, 0xaa, 0x3c, 0x0c, 0x3e, 0x58, 0x38, 0xea, 0x3e,
    0xfe, 0x15, 0xbe, 0xbe, 0xd7, 0x3f, 0x08, 0xbe, 0x8b, 0x76,
    0x4a, 0x3f, 0x13, 0x8f, 0x83, 0x3d, 0x18, 0x50, 0xac, 0xbe,
    0xcd, 0x90, 0x5a, 0x3d, 0x7d, 0x2f, 0x86, 0x3b, 0x28, 0x01,
    0x3a, 0x3f, 0x6c, 0xaa, 0x99, 0x3e, 0x74, 0x21, 0x73, 0x3f,
    0x5c, 0xdb, 0x63, 0x3e, 0x2d, 0x72, 0xe1, 0x3e, 0xa7, 0xef,
    0xd9, 0x3e, 0xb7, 0x74, 0x93, 0x3e, 0x0e, 0x15, 0x44, 0x3e,
    0x87, 0xe0, 0x42, 0x3f, 0x00, 0xac, 0x1f, 0x3e, 0x7c, 0x68,
    0x44, 0x3e, 0x2a, 0x37, 0x41, 0xbd, 0xe9, 0xf6, 0x08, 0xb9,
    0xd9, 0x24, 0x8b, 0xbe, 0xc9, 0x1a, 0xed, 0x3e, 0x8d, 0x37,
    0x26, 0x3f, 0xe7, 0x7d, 0xb2, 0xbe, 0x11, 0x30, 0x27, 0x3e,
    0x0b, 0xd7, 0x67, 0x3e, 0x39, 0xd7, 0x92, 0x3d, 0xb2, 0xbe,
    0x33, 0x3d, 0x44, 0x0e, 0x3e, 0x3f, 0x99, 0xbd, 0xc0, 0xbe,
    0xb3, 0xe1, 0x0f, 0x3e, 0xb9, 0xa5, 0xb9, 0x3e, 0x9e, 0x5c,
    0x08, 0x3f, 0x6a, 0xfb, 0x54, 0x3e, 0x41, 0x69, 0xa0, 0xbd,
    0x3c, 0x3d, 0x24, 0xbe, 0x62, 0x62, 0x48, 0xbc, 0xb9, 0x38,
    0x77, 0x3f, 0xd8, 0x1c, 0x1d, 0xbf, 0x9b, 0x4b, 0xd4, 0x3d,
    0xc9, 0x66, 0xe4, 0x3e, 0x4e, 0xc5, 0x42, 0xbe, 0x82, 0xd4,
    0x83, 0x3f, 0x37, 0xc9, 0x94, 0xbe, 0x39, 0x29, 0x91, 0x3d,
    0x21, 0x1a, 0x61, 0xbe, 0x2d, 0x73, 0x21, 0xbe, 0x4f, 0x7c,
    0xeb, 0xbc, 0x1d, 0xef, 0xd2, 0xbd, 0xf7, 0x82, 0xde, 0xbd,
    0x04, 0x92, 0x9c, 0x3d, 0x14, 0x29, 0x06, 0x3e, 0xcd, 0xfd,
    0x80, 0x3d, 0xea, 0x10, 0x37, 0x3f, 0x38, 0x3a, 0x12, 0xbf,
    0xce, 0x61, 0x30, 0x3d, 0x51, 0xdf, 0xe7, 0xbd, 0xeb, 0x44,
    0x02, 0xbf, 0x49, 0x6c, 0x8f, 0xbe, 0x37, 0x10, 0x8c, 0xbf,
    0x9f, 0x69, 0xc3, 0xbd, 0xaa, 0x1b, 0x8b, 0x3f, 0xd9, 0x6a,
    0x30, 0x3c, 0xa8, 0x63, 0xb2, 0x3f, 0x8c, 0xd0, 0xa1, 0x3c,
    0x2e, 0x00, 0x95, 0x3e, 0x7c, 0xa2, 0xf7, 0x3e, 0x8f, 0xb1,
    0xa4, 0x3e, 0x2c, 0x4a, 0xc3, 0x3e, 0x97, 0x9b, 0x82, 0x3e,
    0xc7, 0xc3, 0x90, 0x3d, 0x63, 0x77, 0x6f, 0x3e, 0xfd, 0xe5,
    0x79, 0xbf, 0xf7, 0x79, 0xe0, 0x3e, 0xae, 0x95, 0x5e, 0x3e,
    0xee, 0xd0, 0x09, 0x3f, 0x9b, 0xf4, 0x10, 0x3f, 0x9d, 0x47,
    0x28, 0xbf, 0xfa, 0x1e, 0xaa, 0x3d, 0x26, 0xfa, 0xf3, 0xbd,
    0x2e, 0x95, 0xa1, 0x3e, 0xbf, 0x67, 0x9f, 0x3e, 0x0c, 0x22,
    0xb2, 0x3d, 0x81, 0x25, 0x96, 0x3d, 0xda, 0x42, 0xf2, 0xbc,
    0x5f, 0x4b, 0x8e, 0x3e, 0xf4, 0xbe, 0xcc, 0x3f, 0x8c, 0x44,
    0x20, 0xbf, 0xc8, 0xfb, 0xa4, 0x3d, 0x5e, 0x95, 0x82, 0x3d,
    0xc3, 0x4f, 0x33, 0x3e, 0xfe, 0xfa, 0xd5, 0x3d, 0x41, 0xc4,
    0xd5, 0x3d, 0x2b, 0x63, 0x43, 0x3f, 0x32, 0x88, 0x33, 0x3d,
    0xee, 0x80, 0x45, 0xbe, 0x57, 0x41, 0x2b, 0xbf, 0x6c, 0xe4,
    0x00, 0x3e, 0x79, 0x8c, 0xd4, 0x3c, 0xef, 0xa1, 0x03, 0xbf,
    0x72, 0x62, 0x88, 0xbd, 0x02, 0xb2, 0xd0, 0x3c, 0x94, 0x75,
    0xa2, 0xbf, 0xa8, 0x84, 0x67, 0xbe, 0x9c, 0xa8, 0xaf, 0x3e,
    0xe1, 0x33, 0x93, 0x3d, 0xb6, 0x08, 0x91, 0x3f, 0x62, 0x25,
    0xaf, 0x3e, 0xa7, 0x0b, 0x0c, 0x3e, 0x5b, 0x36, 0xc1, 0xbd,
    0x05, 0x15, 0xa4, 0xbd, 0xcb, 0x46, 0x32, 0x3e, 0x7d, 0x85,
    0x90, 0xbe, 0xfe, 0xbb, 0xd3, 0xbe, 0xad, 0xae, 0x1c, 0xbf,
    0xe9, 0xe5, 0x46, 0xbe, 0x36, 0xe2, 0x16, 0x3e, 0x49, 0x32,
    0xb0, 0x3e, 0xf6, 0xcc, 0xa4, 0xbe, 0xe2, 0xb6, 0x10, 0x3f,
    0x29, 0x36, 0xa3, 0x3e, 0x2a, 0xc0, 0x5e, 0x3e, 0x29, 0xcd,
    0x9d, 0xbd, 0x8f, 0xe6, 0x0a, 0x3f, 0xe6, 0x27, 0xcf, 0xbb,
    0xcd, 0xb3, 0x8d, 0x3e, 0x67, 0xea, 0x01, 0xbe, 0x7a, 0x0c,
    0x81, 0x3c, 0xe6, 0x36, 0x7d, 0x3e, 0x74, 0xe5, 0x85, 0x3e,
    0x9d, 0xab, 0x94, 0x3e, 0x9f, 0x26, 0x26, 0xbe, 0x30, 0xd3,
    0xcf, 0x3e, 0x3f, 0x53, 0x5c, 0x3e, 0x80, 0x9e, 0x68, 0xbe,
    0xee, 0x31, 0xf2, 0x3e, 0x1a, 0x97, 0xd4, 0x3a, 0xe8, 0xaa,
    0xf2, 0xbe, 0x53, 0x1e, 0x0a, 0x3c, 0xc4, 0x48, 0x51, 0xbd,
    0xa3, 0x8e, 0x04, 0xbd, 0xfa, 0xa0, 0xcc, 0x3c, 0x98, 0x15,
    0x11, 0x3e, 0x1a, 0x38, 0x24, 0xbd, 0x5a, 0x22, 0xea, 0x3d,
    0x33, 0x96, 0xf9, 0xbe, 0xf3, 0x93, 0xa7, 0x3e, 0x20, 0x83,
    0xe1, 0x3d, 0x74, 0xcb, 0xd0, 0xbd, 0x0b, 0xf3, 0x93, 0x3e,
    0x26, 0x1b, 0x93, 0xbe, 0xa5, 0xf5, 0x18, 0x3f, 0x92, 0xd6,
    0x7a, 0xbd, 0xc8, 0x7e, 0xb3, 0x3d, 0x8f, 0xe5, 0x42, 0x3f,
    0x8a, 0xf1, 0x17, 0xbf, 0x2b, 0x60, 0xf7, 0xbe, 0x1b, 0x00,
    0x03, 0x3f, 0xa6, 0xd5, 0x31, 0x3f, 0xfa, 0x16, 0x90, 0x3e,
    0x2b, 0xe9, 0xfa, 0x3d, 0x66, 0x2b, 0xb5, 0x3d, 0xe4, 0xbe,
    0xef, 0xbd, 0x77, 0xbc, 0x29, 0x3f, 0xb5, 0x10, 0x09, 0x3f,
    0x4a, 0x86, 0x7d, 0xbd, 0xfb, 0xf6, 0x13, 0x3f, 0xda, 0x88,
    0x19, 0x3e, 0x14, 0xfc, 0xe0, 0x3e, 0x24, 0x54, 0xba, 0x3c,
    0x9a, 0x8d, 0x1c, 0x3e, 0x9a, 0x05, 0x8d, 0xbe, 0x0c, 0x32,
    0x33, 0x3e, 0x73, 0x08, 0x10, 0x3e, 0xe2, 0xc3, 0x89, 0xbe,
    0x37, 0xf0, 0x6c, 0x3e, 0x0d, 0x4e, 0x47, 0x3e, 0x09, 0xd2,
    0x7f, 0xbe, 0x3d, 0xd4, 0x3d, 0xbe, 0x36, 0xf7, 0xf4, 0x3e,
    0xe8, 0x40, 0x49, 0x3e, 0x3f, 0xb5, 0x91, 0x3f, 0x25, 0x01,
    0xc9, 0xbe, 0xd0, 0x35, 0x6e, 0x3e, 0x1d, 0xdf, 0xbf, 0x3e,
    0xff, 0xae, 0xc4, 0x3e, 0xdb, 0xa7, 0xea, 0x3e, 0xae, 0x86,
    0x73, 0x3e, 0x1a, 0xb8, 0x1f, 0xbe, 0x6b, 0x5a, 0xa7, 0xbc,
    0xec, 0xb0, 0x48, 0x3e, 0x67, 0xaf, 0x6c, 0xbd, 0xcf, 0x71,
    0x09, 0x3c, 0x04, 0x06, 0x9b, 0x3e, 0xf7, 0x38, 0xeb, 0xbe,
    0x40, 0xff, 0x23, 0x3e, 0x7c, 0x00, 0x7a, 0x3d, 0x05, 0x97,
    0x4b, 0x3d, 0x25, 0x5e, 0xa4, 0x3e, 0x65, 0x75, 0x36, 0x3e,
    0x19, 0x62, 0xa0, 0x3f, 0xf3, 0x4f, 0xf8, 0x3d, 0x7e, 0x96,
    0xbb, 0xbc, 0x12, 0x4f, 0x65, 0xbc, 0x21, 0xb4, 0x90, 0x3c,
    0xf6, 0xbd, 0xe7, 0x3e, 0x20, 0xb4, 0x3c, 0x3f, 0x6b, 0x79,
    0x65, 0x3e, 0xe2, 0xea, 0xd3, 0x3e, 0xe1, 0x2b, 0x7f, 0xbd,
    0x55, 0xa3, 0x13, 0x3e, 0x9c, 0x62, 0xf6, 0xbe, 0x43, 0x57,
    0x5e, 0x3e, 0xae, 0x86, 0x06, 0xbc, 0xc6, 0xb9, 0x04, 0x3f,
    0xe4, 0xb0, 0x9a, 0x3e, 0x3d, 0x6e, 0x89, 0xbe, 0x6a, 0xe0,
    0x5a, 0x3e, 0x92, 0x52, 0x11, 0xbc, 0x1e, 0x5d, 0x7d, 0x3e,
    0x75, 0x91, 0xb0, 0xbd, 0x54, 0xa6, 0x13, 0xbd, 0x74, 0x84,
    0x04, 0x3e, 0x66, 0xbf, 0x40, 0xbe, 0x8d, 0xe1, 0x6a, 0xbe,
    0xe4, 0x96, 0xd8, 0x3e, 0xad, 0x63, 0x3b, 0xbd, 0x2b, 0x05,
    0x2a, 0x3e, 0xb3, 0x52, 0x9a, 0xbe, 0x97, 0xfd, 0x4b, 0x3f,
    0xf0, 0xf1, 0x33, 0xbf, 0x44, 0x2f, 0x85, 0x3e, 0x9d, 0xf0,
    0x04, 0x3f, 0x80, 0xde, 0xc1, 0xbe, 0xfc, 0xbb, 0x59, 0x3d,
    0x15, 0x22, 0x79, 0xbe, 0x93, 0xbe, 0xd6, 0xbd, 0x70, 0x8b,
    0xfc, 0x3d, 0x58, 0x54, 0x57, 0x3a, 0xc4, 0x17, 0x3a, 0x3d,
    0x29, 0x93, 0xd6, 0x3c, 0xe9, 0x95, 0x3f, 0x3e, 0x2c, 0xbf,
    0xc3, 0xbd, 0xea, 0x8d, 0xfa, 0x3e, 0xbe, 0x12, 0xfe, 0x3e,
    0xfa, 0x95, 0xf5, 0x3e, 0xfe, 0x9c, 0x9c, 0xbe, 0x15, 0x8a,
    0x47, 0x3f, 0x57, 0x70, 0x82, 0x3e, 0x48, 0xc1, 0xdf, 0x3e,
    0xb8, 0xf5, 0x10, 0x3f, 0x16, 0xea, 0xf2, 0x3e, 0x0b, 0x24,
    0xdc, 0xbe, 0x5b, 0x84, 0x4e, 0x3e, 0x7a, 0x96, 0x3b, 0xbd,
    0x05, 0x38, 0x09, 0x3f, 0xa8, 0x59, 0xce, 0xbe, 0x54, 0xfc,
    0x5b, 0xbd, 0xa9, 0xc9, 0xeb, 0x3e, 0x58, 0x65, 0x3e, 0x3f,
    0x22, 0x6d, 0x09, 0x3b, 0x1d, 0x8b, 0x8e, 0x3e, 0xfe, 0xce,
    0x08, 0x3f, 0xf5, 0x0f, 0x3b, 0xbd, 0x92, 0x33, 0x90, 0x3e,
    0x29, 0x7a, 0xb2, 0x3f, 0x40, 0xcd, 0x7e, 0x3e, 0xd3, 0xd2,
    0x2b, 0x3e, 0xf9, 0x18, 0xfc, 0xbd, 0x05, 0xa8, 0x53, 0x3d,
    0xe5, 0x00, 0x8b, 0x3e, 0x37, 0x8b, 0x30, 0x3d, 0x25, 0x51,
    0x6e, 0x3d, 0xb5, 0xed, 0x49, 0xbd, 0x1b, 0xb1, 0xe9, 0xbd,
    0x6b, 0xf7, 0x5a, 0x3b, 0x03, 0x8a, 0xd6, 0xbe, 0x8a, 0xd6,
    0xfc, 0xbc, 0x2f, 0x20, 0x57, 0x3f, 0xf6, 0x03, 0x87, 0xbe,
    0x82, 0x7d, 0xcd, 0x3e, 0xd4, 0x13, 0xe7, 0x3e, 0xd0, 0xd5,
    0x19, 0x3f, 0xc2, 0xe8, 0x9d, 0x3e, 0x27, 0x4f, 0x44, 0x3e,
    0x2b, 0xda, 0x25, 0x3f, 0x6f, 0xa3, 0x03, 0x3e, 0x1b, 0xa7,
    0xda, 0x3d, 0xf5, 0x8b, 0x47, 0x3e, 0xd0, 0xe1, 0x51, 0xbd,
    0xcf, 0x9a, 0x41, 0xbe, 0xce, 0x1b, 0xf7, 0x3e, 0xa4, 0x49,
    0x0a, 0xbf, 0x3b, 0x33, 0x6d, 0x3e, 0x62, 0xeb, 0x8b, 0xbf,
    0x18, 0x80, 0x81, 0x3e, 0x9f, 0xd2, 0xce, 0x3e, 0x91, 0xf8,
    0x1d, 0x3e, 0xeb, 0x92, 0x1b, 0x3f, 0x2f, 0x18, 0x44, 0xbc,
    0x10, 0xe2, 0xe8, 0xbd, 0x5c, 0x98, 0x29, 0x3e, 0x04, 0xe7,
    0xf5, 0xbe, 0x0b, 0xee, 0xca, 0x3d, 0x03, 0x9a, 0xba, 0xbd,
    0x80, 0x29, 0xa2, 0x3e, 0x4a, 0xd4, 0x33, 0xbc, 0x32, 0xc3,
    0xde, 0x3d, 0xfe, 0x7f, 0xb7, 0x3e, 0x87, 0x15, 0x11, 0x3f,
    0xcc, 0x49, 0xdc, 0xbd, 0x46, 0x16, 0x39, 0xbe, 0xaf, 0x1f,
    0x80, 0x3d, 0xb2, 0xd3, 0xdb, 0x3e, 0xa3, 0x70, 0x10, 0x3f,
    0x80, 0xea, 0x24, 0x3f, 0x8f, 0x28, 0x38, 0xbe, 0xc4, 0x15,
    0x1c, 0x3e, 0x9b, 0x56, 0x92, 0x3d, 0x2e, 0x22, 0x73, 0xbe,
    0x55, 0x02, 0xf3, 0x3d, 0x02, 0xe5, 0x2c, 0x3e, 0xc2, 0xde,
    0x22, 0xbe, 0x56, 0x06, 0x2c, 0x3e, 0xf2, 0xaf, 0x95, 0xbd,
    0x8b, 0x98, 0x81, 0x3e, 0x30, 0xfd, 0xbf, 0x3e, 0xef, 0xca,
    0x2a, 0x3f, 0x0f, 0xaf, 0x87, 0xbe, 0x5f, 0xd1, 0x9f, 0x3f,
    0xb2, 0x14, 0xa2, 0x3e, 0x33, 0xb7, 0x1d, 0x3e, 0x9d, 0xb9,
    0x82, 0x3e, 0xfc, 0xe3, 0xc3, 0x3e, 0x32, 0xd2, 0xd7, 0x3e,
    0x19, 0x58, 0x06, 0x3f, 0x4f, 0x01, 0xb7, 0x3d, 0x32, 0x0a,
    0x15, 0x3e, 0x70, 0x2d, 0x71, 0x3e, 0xdf, 0xac, 0x0b, 0x3e,
    0xce, 0x15, 0x3e, 0xbe, 0x8c, 0x67, 0xbe, 0x3e, 0x57, 0xf6,
    0xb9, 0x3f, 0xe0, 0xc5, 0x46, 0x3f, 0x19, 0x90, 0x09, 0x3f,
    0xe1, 0x7c, 0x25, 0xbe, 0x8d, 0xf8, 0x6f, 0x3f, 0x27, 0xef,
    0x8a, 0xbd, 0x24, 0x42, 0x9b, 0xbb, 0xc6, 0x58, 0x44, 0x3f,
    0xd6, 0x1f, 0x3a, 0x3d, 0x76, 0x08, 0x8a, 0x3c, 0xfd, 0xe2,
    0x08, 0x3f, 0x2e, 0x58, 0xd6, 0xbc, 0x57, 0x78, 0x2a, 0x3e,
    0x4d, 0x24, 0x4a, 0x3e, 0x10, 0x0b, 0xb3, 0xbc, 0xbd, 0x99,
    0x62, 0x3e, 0x63, 0xda, 0xc8, 0x3e, 0xad, 0x38, 0x36, 0x3e,
    0x15, 0x70, 0xdd, 0x3c, 0xd2, 0xdf, 0xbc, 0x3e, 0x6f, 0x6e,
    0x2e, 0x3f, 0x7c, 0xf0, 0xfe, 0x3d, 0x8e, 0x31, 0x10, 0x3e,
    0xf3, 0xf4, 0x6d, 0xbd, 0x53, 0x0f, 0x77, 0xbe, 0xaf, 0xf1,
    0xe7, 0x3d, 0x9d, 0xa2, 0x69, 0xbe, 0x84, 0xe2, 0x6a, 0xbe,
    0xc1, 0x7e, 0x09, 0x3f, 0xb8, 0x67, 0x46, 0x3e, 0xc8, 0xda,
    0xc9, 0x3e, 0x60, 0x79, 0x8f, 0x3e, 0xae, 0xcc, 0x08, 0x3f,
    0xa3, 0x8c, 0xac, 0x3e, 0xdd, 0x20, 0x20, 0xbe, 0x3e, 0xec,
    0x4e, 0x3f, 0xb3, 0x2f, 0x99, 0x3f, 0x46, 0x38, 0xbf, 0x3e,
    0xe7, 0xcf, 0xb4, 0x3e, 0x2b, 0xe6, 0x28, 0xbe, 0x7b, 0x15,
    0x2b, 0xbe, 0xc3, 0x91, 0x2f, 0x3f, 0x40, 0x17, 0xe6, 0xbe,
    0x9a, 0x07, 0x19, 0x3d, 0x5f, 0xa4, 0xcc, 0xbc, 0x81, 0x53,
    0x17, 0x3f, 0xbc, 0xf2, 0x4c, 0xbc, 0xbe, 0x1b, 0xd0, 0xbe,
    0xf3, 0x8c, 0x64, 0xbd, 0x2e, 0x55, 0x6b, 0xbf, 0x54, 0x04,
    0x05, 0x3f, 0x58, 0xe8, 0x3a, 0x3f, 0x30, 0x53, 0xc5, 0x3d,
    0xda, 0xc0, 0xc4, 0xbd, 0x3d, 0x47, 0xdc, 0x3d, 0x7e, 0x0e,
    0x96, 0x3e, 0x97, 0xcb, 0xd1, 0x3e, 0x00, 0x36, 0x06, 0x3f,
    0x62, 0xf1, 0x91, 0xbe, 0x8d, 0x2d, 0x30, 0x3d, 0xb9, 0x59,
    0x84, 0x3e, 0x5e, 0x6c, 0x96, 0x3d, 0x08, 0xd4, 0x7a, 0x3e,
    0x0b, 0x02, 0xef, 0xbe, 0x53, 0x59, 0x62, 0x3e, 0x87, 0x71,
    0x3b, 0xbe, 0x22, 0x8f, 0xbc, 0x3e, 0xd3, 0x2f, 0x84, 0xbe,
    0x5d, 0xea, 0x47, 0xbf, 0xac, 0x16, 0xac, 0xbe, 0xfb, 0xca,
    0x14, 0x3e, 0xd2, 0xf7, 0xb9, 0x3e, 0x24, 0x24, 0x15, 0x3e,
    0x5a, 0x09, 0xf2, 0x3c, 0x86, 0x2e, 0x42, 0xbe, 0x9d, 0x15,
    0x16, 0x3e, 0x54, 0x3a, 0x72, 0x3c, 0x3f, 0x00, 0x43, 0x3e,
    0xaa, 0x54, 0x3b, 0x3e, 0x3b, 0x5c, 0xff, 0x3e, 0x95, 0xf8,
    0x8f, 0xbe, 0xda, 0x3d, 0xf1, 0xbe, 0xf3, 0x38, 0xc8, 0x3e,
    0x23, 0xc5, 0xd2, 0xbb, 0xfe, 0x25, 0x6f, 0x3f, 0x0c, 0x96,
    0xc3, 0xbe, 0x24, 0xd3, 0x95, 0x3e, 0xdd, 0x18, 0x1a, 0xbe,
    0x2e, 0xad, 0xde, 0x3d, 0xf4, 0xc3, 0xd4, 0xbe, 0x25, 0x0c,
    0x63, 0xbe, 0xe5, 0x00, 0x51, 0x3d, 0x92, 0x23, 0xeb, 0xbc,
    0x29, 0x22, 0xb9, 0x3e, 0x23, 0x24, 0x08, 0x3e, 0x8c, 0xd5,
    0x82, 0x3f, 0x59, 0x69, 0x09, 0xbf, 0xdc, 0x5a, 0x27, 0xbf,
    0x1b, 0xe8, 0xb6, 0x3e, 0x09, 0x24, 0xd2, 0x3c, 0xf8, 0x39,
    0x53, 0x3f, 0xcb, 0x67, 0xa7, 0xbd, 0xab, 0xf7, 0x31, 0x3d,
    0x6f, 0x42, 0x80, 0xbd, 0xdc, 0x75, 0xaa, 0xbd, 0xe9, 0xfb,
    0x5b, 0x3f, 0x1c, 0x4b, 0x42, 0x3e, 0x20, 0x44, 0xa0, 0xbd,
    0x79, 0x25, 0xe0, 0xbe, 0x4e, 0x60, 0xd0, 0xbd, 0x39, 0x8a,
    0xe0, 0x3d, 0xaf, 0xe1, 0x71, 0xbd, 0xbd, 0x8e, 0x40, 0x3e,
    0x33, 0xe6, 0x0b, 0xbf, 0x6a, 0x77, 0x40, 0x3f, 0x16, 0x29,
    0x21, 0x3d, 0x09, 0xfc, 0x79, 0x3d, 0x03, 0xe7, 0x08, 0x3e,
    0x18, 0x8c, 0x2a, 0xbe, 0x00, 0x9a, 0x36, 0xbf, 0x67, 0x68,
    0x8f, 0x3f, 0xce, 0x1d, 0x17, 0x3f, 0xa2, 0xac, 0xde, 0xbb,
    0x54, 0xb9, 0x8a, 0x3e, 0xda, 0xd7, 0x12, 0x3f, 0x5d, 0x98,
    0xe5, 0x3d, 0xfc, 0x35, 0x56, 0x3e, 0xde, 0x88, 0x3d, 0x3e,
    0xc3, 0x36, 0x15, 0xbe, 0xe2, 0x6c, 0x5b, 0x3e, 0x8a, 0x04,
    0x52, 0x3e, 0xcb, 0xe0, 0xd5, 0x3d, 0x73, 0xbb, 0xeb, 0x3e,
    0xff, 0x2f, 0x11, 0xbe, 0x5f, 0x4d, 0x1d, 0xbe, 0x80, 0x4a,
    0xaf, 0x3e, 0xaa, 0xe7, 0xd9, 0x3e, 0x67, 0xfd, 0x96, 0xbe,
    0xb2, 0x05, 0x8e, 0x3e, 0xd5, 0x01, 0x77, 0xbe, 0xe9, 0xe3,
    0x8f, 0x3e, 0x52, 0x5c, 0x87, 0xbd, 0x42, 0xee, 0x5c, 0xbf,
    0x5d, 0xf9, 0x80, 0xbd, 0x3b, 0xcd, 0x1e, 0x3f, 0x4f, 0x0f,
    0x0b, 0x3e, 0x1f, 0x02, 0x0e, 0x3f, 0x21, 0x42, 0xaf, 0xbe,
    0x21, 0x6f, 0xb4, 0x3e, 0x07, 0x2b, 0x3a, 0x3e, 0x74, 0x43,
    0xff, 0x3e, 0x51, 0x7a, 0x73, 0x3e, 0x54, 0xc0, 0x03, 0xbf,
    0x84, 0x4d, 0x48, 0x3c, 0x9a, 0x32, 0xca, 0xbd, 0x7f, 0x3b,
    0x07, 0xbd, 0x9d, 0xc0, 0x80, 0xbd, 0xfb, 0x41, 0x4b, 0x3d,
    0xe1, 0x76, 0x56, 0x3e, 0x71, 0x90, 0xdc, 0x3f, 0x77, 0xfc,
    0x9f, 0xbe, 0x32, 0xfe, 0xa7, 0x3e, 0x00, 0x7b, 0x89, 0xbd,
    0x16, 0x17, 0xa3, 0x3e, 0x13, 0x96, 0x10, 0x40, 0xde, 0x15,
    0xa5, 0x3f, 0xac, 0x86, 0x19, 0x3e, 0x25, 0xba, 0xde, 0x3d,
    0x47, 0xa2, 0x8a, 0xbe, 0x12, 0x6e, 0x59, 0x3f, 0x3b, 0xf1,
    0x82, 0x3f, 0xe3, 0xc1, 0x67, 0x3e, 0x8e, 0x70, 0xd3, 0xbf,
    0xd9, 0x8f, 0xd8, 0x3f, 0x63, 0x77, 0x4e, 0x3f, 0x9e, 0x85,
    0x6d, 0x3e, 0x1a, 0xd4, 0x81, 0xbd, 0xe6, 0x2c, 0x8d, 0x3f,
    0xfc, 0x72, 0x97, 0x3f, 0x37, 0xb5, 0x89, 0x3f, 0x5f, 0xb8,
    0x0d, 0xbf, 0x91, 0x9e, 0xb0, 0xbe, 0xac, 0x13, 0x2f, 0xbe,
    0x93, 0xc8, 0x9e, 0xbf, 0x9e, 0xbd, 0xc1, 0x3f, 0xc6, 0x88,
    0xf3, 0x3f, 0xa9, 0x73, 0x81, 0x3f, 0x2f, 0x11, 0x01, 0xbf,
    0xee, 0xac, 0xff, 0x3e, 0x1a, 0x9f, 0xcf, 0xbd, 0xae, 0x29,
    0xca, 0xbe, 0xd8, 0x86, 0xca, 0x3e, 0xbb, 0x06, 0x53, 0x3f,
    0xd3, 0x87, 0x84, 0x3f, 0x39, 0x2b, 0x07, 0xbe, 0x37, 0x81,
    0x08, 0x3f, 0x9f, 0xd6, 0x23, 0xbf, 0x18, 0xdd, 0xc2, 0x3e,
    0xc9, 0x31, 0xc0, 0xbe, 0x90, 0xeb, 0xcc, 0x3f, 0x44, 0x07,
    0x00, 0xbf, 0x60, 0x4c, 0xe7, 0x3c, 0xcb, 0x73, 0x33, 0xbf,
    0x3a, 0xc4, 0x3b, 0xbb, 0xd9, 0x5c, 0xf4, 0xbe, 0x8f, 0xc6,
    0xb9, 0xbc, 0x24, 0x3f, 0x2e, 0x3c, 0xc6, 0xc0, 0x9c, 0x3f,
    0x1a, 0x37, 0x9a, 0x3f, 0x6c, 0x98, 0x22, 0xbf, 0x07, 0x9c,
    0x74, 0x3f, 0x1a, 0xbe, 0x10, 0x3d, 0xdb, 0xe0, 0x07, 0x40,
    0x41, 0xf7, 0x4b, 0x3e, 0x30, 0x2a, 0x80, 0xbc, 0xfa, 0x2b,
    0xdc, 0xbd, 0xa7, 0xae, 0x8c, 0xbe, 0xa3, 0xc2, 0x8f, 0xbc,
    0x1c, 0x52, 0x36, 0x3d, 0xaf, 0xc2, 0x70, 0x3e, 0x5e, 0xa7,
    0xe2, 0xbe, 0x65, 0x62, 0x2e, 0xbf, 0x77, 0xb8, 0x27, 0xbc,
    0x41, 0xe5, 0xe5, 0x3e, 0xeb, 0x66, 0xf1, 0xbe, 0x77, 0x59,
    0xbe, 0x3e, 0x9a, 0x52, 0x0a, 0x3f, 0x23, 0x39, 0x51, 0x3f,
    0x56, 0x95, 0x49, 0x3f, 0xc6, 0x21, 0x3b, 0x3f, 0x72, 0xae,
    0x49, 0xbe, 0x1c, 0xfa, 0xd5, 0xbd, 0xe7, 0xab, 0x98, 0x3d,
    0x38, 0x22, 0xab, 0x3e, 0x99, 0x2e, 0x3f, 0xbf, 0xc3, 0x09,
    0x1f, 0xbe, 0x86, 0xff, 0x5d, 0x3f, 0x2d, 0x88, 0xdb, 0x3e,
    0x64, 0x94, 0x3b, 0xbe, 0x3c, 0xcb, 0x30, 0xbe, 0x90, 0xb5,
    0x28, 0x3d, 0x2f, 0xca, 0x49, 0xbf, 0x7b, 0x1a, 0xff, 0xbe,
    0xbf, 0x9c, 0x8d, 0xbc, 0xdd, 0xe1, 0x07, 0x3e, 0x6d, 0x23,
    0x8f, 0x3f, 0xa2, 0x23, 0x94, 0x3e, 0x85, 0x4f, 0x81, 0xbf,
    0x4e, 0x9b, 0x7f, 0xbe, 0xef, 0x21, 0x56, 0xbb, 0x01, 0x48,
    0x58, 0xbf, 0x55, 0xa6, 0x00, 0x3f, 0x9b, 0x54, 0xc6, 0x3e,
    0x28, 0x86, 0x17, 0x3e, 0x71, 0xd5, 0x02, 0xbf, 0xd3, 0xba,
    0x5b, 0xbd, 0x57, 0x67, 0xc8, 0xbe, 0x9b, 0xf5, 0x5f, 0x3e,
    0xf6, 0x44, 0x8a, 0xbe, 0xc0, 0x32, 0x92, 0xbd, 0x24, 0x5f,
    0x05, 0x3e, 0x87, 0x24, 0x59, 0x3f, 0x6a, 0x79, 0xab, 0x3f,
    0xb2, 0xf8, 0xa4, 0xbe, 0x2f, 0x17, 0xe7, 0x3c, 0x3b, 0x0a,
    0x1c, 0xbd, 0x16, 0x1b, 0xd7, 0x3e, 0x0e, 0xef, 0xd9, 0xbe,
    0x31, 0x0e, 0x95, 0xbc, 0x74, 0xf7, 0x3a, 0xbc, 0x48, 0x14,
    0x91, 0x3e, 0x0e, 0xbc, 0xd4, 0x3e, 0xca, 0xb4, 0xd3, 0xba,
    0xb6, 0x29, 0x66, 0x3e, 0xdf, 0x5d, 0x46, 0x3f, 0xf2, 0x07,
    0x3e, 0x3d, 0x1d, 0x53, 0x20, 0x3f, 0x0f, 0x7b, 0xb5, 0xbe,
    0x65, 0x5c, 0xd8, 0xbe, 0xf3, 0xdb, 0xfc, 0x3e, 0xff, 0x2a,
    0xb5, 0xbe, 0xa3, 0xcf, 0xb3, 0x3d, 0x67, 0x8a, 0x73, 0x3e,
    0x8a, 0x2d, 0xe5, 0x3e, 0xb1, 0xcd, 0x55, 0x3e, 0xf6, 0x4d,
    0x8d, 0x3c, 0x45, 0x48, 0xf8, 0x3d, 0x8c, 0x47, 0x3e, 0x3f,
    0x5e, 0x6f, 0x29, 0xbe, 0x9f, 0x13, 0x25, 0xbd, 0xde, 0x8a,
    0x2a, 0xbe, 0x19, 0x04, 0x4c, 0xbd, 0x49, 0xca, 0x35, 0x3f,
    0xb2, 0x1d, 0xce, 0x3e, 0x82, 0x68, 0xba, 0x3e, 0x48, 0x87,
    0x0a, 0xbf, 0x22, 0x50, 0xc2, 0xbd, 0xd1, 0x1a, 0x0a, 0x3f,
    0xe4, 0x92, 0x18, 0x3f, 0x62, 0xe8, 0x4f, 0x3e, 0xb2, 0x3d,
    0xa0, 0xbd, 0xbe, 0xa3, 0x3b, 0x3e, 0x5f, 0x82, 0xce, 0xbe,
    0xa3, 0xa1, 0x90, 0xbb, 0xa0, 0x29, 0x02, 0xbf, 0xed, 0xa9,
    0x6b, 0xbf, 0xe9, 0x9a, 0xa5, 0xbe, 0xcb, 0x68, 0xb0, 0x3f,
    0xaf, 0x6a, 0xeb, 0xbd, 0xb3, 0x80, 0x50, 0x3f, 0xe9, 0xa8,
    0xd7, 0x3e, 0xef, 0x68, 0x70, 0xbf, 0x49, 0x03, 0x25, 0x3e,
    0x01, 0x9a, 0x69, 0x3e, 0x2a, 0xe1, 0x1a, 0x3e, 0xa9, 0x02,
    0x87, 0x3d, 0xc8, 0x8e, 0xdc, 0x3e, 0xf9, 0xbe, 0x75, 0x3d,
    0xed, 0xcb, 0x14, 0xbe, 0x84, 0xe7, 0x08, 0x3f, 0x8b, 0xc3,
    0x94, 0x3f, 0xbd, 0xdd, 0xec, 0x3c, 0x3b, 0xbb, 0x5f, 0x3e,
    0x2c, 0x65, 0xb7, 0xbd, 0x2d, 0x28, 0x9a, 0xbe, 0x6a, 0x8d,
    0x2a, 0x3e, 0xe8, 0x99, 0x24, 0x3f, 0x37, 0x33, 0xf3, 0x3e,
    0xaf, 0x3c, 0x73, 0x3e, 0x37, 0x79, 0xaa, 0xbc, 0xf3, 0x31,
    0x30, 0x3e, 0xdf, 0x82, 0xa8, 0x3e, 0x94, 0xb0, 0x86, 0xbc,
    0xa1, 0xca, 0x29, 0x3f, 0x48, 0x39, 0x91, 0x3a, 0xba, 0x8e,
    0xba, 0x3e, 0x3b, 0xb9, 0x03, 0xbf, 0x9e, 0x61, 0x13, 0x3f,
    0x0f, 0x3f, 0xd3, 0x3e, 0x1d, 0xad, 0x33, 0x3e, 0xc3, 0xcb,
    0x12, 0x3f, 0x86, 0xa7, 0xb2, 0x3e, 0x90, 0x26, 0x00, 0x3f,
    0xed, 0xda, 0x67, 0xbd, 0x6a, 0x74, 0x92, 0xbe, 0xba, 0x28,
    0x50, 0x3d, 0xcc, 0x01, 0xb0, 0xbe, 0xce, 0xdf, 0x51, 0xbf,
    0xac, 0x54, 0xb8, 0xbe, 0x5c, 0xfa, 0xc0, 0x3e, 0xc1, 0x58,
    0x18, 0xbd, 0x69, 0xbc, 0xa0, 0x3f, 0xb8, 0xb8, 0x47, 0x3d,
    0xd0, 0x68, 0x79, 0x3e, 0x26, 0x7c, 0x66, 0x3c, 0x0d, 0xde,
    0xa3, 0x3e, 0xb4, 0x90, 0x92, 0x3e, 0xd2, 0xc6, 0x08, 0x3d,
    0xeb, 0x53, 0x74, 0xbc, 0x7c, 0x83, 0x81, 0x3d, 0x8f, 0x9d,
    0x5b, 0xbd, 0x36, 0x26, 0x1f, 0x3e, 0xdc, 0xc1, 0x91, 0xbe,
    0xa2, 0xd5, 0x44, 0x3e, 0xfd, 0x76, 0xc1, 0x3e, 0xb8, 0x5b,
    0xac, 0x3e, 0xce, 0x77, 0x21, 0x3d, 0x90, 0x1c, 0x52, 0x3e,
    0x3a, 0xb8, 0x41, 0x3e, 0x6a, 0xe2, 0xc8, 0xbc, 0x36, 0xb9,
    0x2f, 0x3f, 0xd5, 0xfa, 0x55, 0x3f, 0x7f, 0x13, 0x8e, 0x3e,
    0x18, 0xba, 0x0c, 0x3d, 0x63, 0xf1, 0x8f, 0x3e, 0xa7, 0xc4,
    0x29, 0x3f, 0x0c, 0x58, 0x67, 0x3f, 0xc0, 0x6a, 0x91, 0x3e,
    0x9f, 0x71, 0xb6, 0xbe, 0x45, 0xeb, 0xe5, 0x3e, 0x40, 0x92,
    0x8b, 0xbc, 0xd0, 0xcf, 0x0f, 0xbf, 0x02, 0x81, 0x13, 0x3e,
    0x73, 0x6b, 0xa8, 0x3e, 0xbf, 0x6c, 0x37, 0x3f, 0x0f, 0x77,
    0x5f, 0xbe, 0xc7, 0x2d, 0xad, 0x3c, 0x12, 0x67, 0xa2, 0x3e,
    0xda, 0xaa, 0x23, 0x3f, 0x16, 0x46, 0xe1, 0x3e, 0xea, 0x83,
    0xb3, 0xbc, 0xa6, 0xe5, 0x7e, 0x3b, 0xb1, 0x9f, 0xb8, 0xbd,
    0x71, 0xc6, 0xcb, 0x3d, 0x22, 0x17, 0x85, 0x3e, 0xf3, 0x60,
    0x72, 0x3e, 0x42, 0x6a, 0xb3, 0xbe, 0xa0, 0x1a, 0xd5, 0x3d,
    0x59, 0x47, 0x40, 0xbf, 0x57, 0x34, 0x1c, 0x3f, 0x8a, 0x55,
    0x22, 0xbf, 0x85, 0x02, 0x88, 0x3d, 0xe9, 0x0a, 0xf5, 0x3d,
    0xe6, 0x9b, 0xbf, 0xbe, 0x6a, 0xe5, 0xbe, 0x3e, 0x53, 0x29,
    0x91, 0xbe, 0x39, 0x70, 0x90, 0x3e, 0x9f, 0x4c, 0xa8, 0x3e,
    0x3d, 0xc9, 0x05, 0x3d, 0xab, 0x9a, 0xb0, 0xbd, 0x33, 0x0b,
    0x0e, 0x3e, 0xc8, 0x19, 0xe0, 0x3d, 0xef, 0x2f, 0xf0, 0x3d,
    0x2d, 0x09, 0x97, 0x3e, 0x7e, 0x6b, 0x57, 0x3e, 0x7f, 0x15,
    0x40, 0x3f, 0xee, 0xbf, 0x21, 0x3f, 0xd5, 0xe0, 0xf7, 0x3c,
    0xbf, 0x97, 0xbf, 0x3e, 0xff, 0xe7, 0xd9, 0x3e, 0xca, 0xf8,
    0x16, 0x3f, 0x98, 0x24, 0x31, 0xbe, 0x0e, 0x89, 0x95, 0xbe,
    0xc0, 0xa4, 0x93, 0x3d, 0xf9, 0xd3, 0xa2, 0x3e, 0x96, 0x3e,
    0x45, 0xbe, 0xfa, 0x75, 0xc5, 0x3d, 0x28, 0x19, 0x48, 0xbe,
    0x12, 0x2f, 0x6f, 0xbe, 0x66, 0x7f, 0xa7, 0x3e, 0xa3, 0x12,
    0xf5, 0x3e, 0xa0, 0xd9, 0xef, 0x3e, 0x07, 0xcf, 0x5d, 0xbe,
    0x5d, 0xed, 0x42, 0x3e, 0xf3, 0x97, 0x08, 0xbf, 0x94, 0x2f,
    0x0c, 0x3e, 0x80, 0x92, 0x2f, 0xbe, 0xb1, 0xe2, 0x0f, 0xbd,
    0x11, 0x5e, 0xc7, 0xbd, 0x6b, 0xfa, 0xf8, 0xbe, 0x48, 0xf6,
    0xe8, 0x3e, 0x37, 0x3c, 0x54, 0x3f, 0x6b, 0x2c, 0x01, 0x3f,
    0x71, 0x98, 0xc7, 0xbd, 0x7c, 0x20, 0xc6, 0x3d, 0xce, 0xc5,
    0x1d, 0xbd, 0x36, 0x22, 0x15, 0xbf, 0x3c, 0x05, 0xd7, 0x3e,
    0x5b, 0xee, 0x43, 0x3f, 0x7a, 0x79, 0xad, 0x3e, 0xb3, 0x85,
    0x52, 0x3d, 0x2a, 0x82, 0xf1, 0xbd, 0xf3, 0x2e, 0xae, 0x3f,
    0xa9, 0xab, 0x90, 0x3e, 0x1a, 0x9a, 0xc5, 0xbd, 0x0b, 0x6e,
    0x55, 0x3f, 0x29, 0x0f, 0x93, 0xbc, 0x24, 0x8b, 0x84, 0x3d,
    0x0a, 0x4d, 0x3b, 0xbe, 0x24, 0x6e, 0x78, 0xbd, 0x71, 0xea,
    0x9b, 0x3d, 0x4d, 0x14, 0xca, 0x3d, 0xd7, 0xb2, 0xa5, 0x3e,
    0x80, 0x44, 0x64, 0xbf, 0x3a, 0x56, 0x07, 0x3f, 0x9f, 0x76,
    0xa3, 0x3e, 0x40, 0xb3, 0x43, 0xbf, 0x9c, 0xc9, 0x4c, 0x3e,
    0x97, 0xc0, 0x45, 0x3f, 0xa4, 0xdb, 0xae, 0x3e, 0x52, 0xb7,
    0xbe, 0x3c, 0x87, 0x44, 0xdf, 0x3c, 0x69, 0x1d, 0x24, 0xbd,
    0x67, 0xb9, 0x20, 0xbd, 0x3c, 0xf0, 0x28, 0x3e, 0x92, 0xbe,
    0x7a, 0x3e, 0xfb, 0x81, 0x0d, 0x3f, 0x5b, 0x9f, 0xa1, 0xbe,
    0x25, 0xa6, 0x2e, 0x3d, 0xcc, 0x1e, 0x86, 0xbf, 0xb8, 0x85,
    0x79, 0x3e, 0xa8, 0xcd, 0x40, 0xbc, 0xe4, 0x47, 0xb7, 0xbd,
    0x9c, 0x4a, 0xe6, 0xbd, 0x9c, 0xd4, 0x79, 0x3f, 0xfe, 0x55,
    0xa0, 0xbc, 0x2e, 0x55, 0x66, 0x3d, 0x51, 0x2b, 0x21, 0x3e,
    0x44, 0x16, 0x06, 0xbe, 0xe0, 0xd8, 0x0c, 0xbf, 0x4c, 0x24,
    0x95, 0xbe, 0x64, 0x4c, 0x5c, 0x3d, 0x17, 0xaa, 0x7f, 0x3d,
    0xc9, 0xfe, 0xc7, 0x3d, 0x36, 0x0f, 0x3e, 0x3f, 0xdb, 0x4c,
    0x01, 0x3f, 0xa0, 0xd6, 0x3b, 0x3e, 0xb8, 0x4a, 0xea, 0x3e,
    0x64, 0x5a, 0x3f, 0x3e, 0xeb, 0x4b, 0x09, 0xbf, 0x79, 0x04,
    0x34, 0x3c, 0x23, 0x8d, 0xb6, 0xbe, 0xdb, 0x5c, 0x1d, 0xbd,
    0xc7, 0x6a, 0xb2, 0xbf, 0x72, 0xbe, 0x9a, 0x3e, 0xef, 0x7a,
    0x22, 0xbd, 0x35, 0x3c, 0xc6, 0xbe, 0x30, 0x6a, 0xe1, 0x3d,
    0x20, 0x3c, 0xc7, 0x3e, 0xa3, 0x4a, 0x04, 0x3e, 0x4f, 0x1a,
    0x20, 0xbe, 0x47, 0x20, 0xad, 0xbd, 0x9a, 0xd3, 0x0d, 0x3f,
    0x3c, 0x52, 0xb2, 0x3d, 0x49, 0xea, 0x11, 0x3e, 0x6f, 0x39,
    0x02, 0xbd, 0xc5, 0xbb, 0x26, 0x3e, 0xbc, 0x85, 0x65, 0x3e,
    0x2e, 0xa7, 0x32, 0xbe, 0x0d, 0x10, 0x1d, 0x3f, 0xfa, 0x5d,
    0xa1, 0xbe, 0x52, 0x81, 0x1d, 0x3e, 0xc9, 0xa5, 0x85, 0x3e,
    0x18, 0xe8, 0xd8, 0x3e, 0x84, 0x2b, 0x5d, 0x3e, 0x62, 0x78,
    0x33, 0xbf, 0x55, 0x6b, 0x02, 0xbf, 0x30, 0x9e, 0xe7, 0xbd,
    0xfc, 0x37, 0xb3, 0xbe, 0xc4, 0xa3, 0x39, 0x3e, 0xb9, 0x0c,
    0xfd, 0x3e, 0x8c, 0x10, 0x76, 0x3e, 0x62, 0x7d, 0x3e, 0x3f,
    0x78, 0x43, 0x1e, 0xbe, 0x59, 0xef, 0x21, 0x3f, 0xbc, 0x62,
    0x8a, 0xbe, 0xf0, 0x4d, 0x04, 0x3d, 0x68, 0x13, 0x2f, 0x3e,
    0x7e, 0xac, 0xcf, 0x3d, 0x68, 0xd7, 0x96, 0xbe, 0x61, 0xc4,
    0xfa, 0xbd, 0x7d, 0xe7, 0x0e, 0xbe, 0xb2, 0x45, 0x8f, 0xbd,
    0xb5, 0xae, 0x16, 0x3f, 0x77, 0x8a, 0xbd, 0xbe, 0xd9, 0x9f,
    0xb2, 0xbe, 0x00, 0xd0, 0x05, 0x3f, 0x1d, 0xae, 0x79, 0xbd,
    0x25, 0xe9, 0xc5, 0x3e, 0xf2, 0x14, 0xc8, 0xbb, 0xce, 0x1a,
    0x32, 0x3f, 0xbc, 0x18, 0x16, 0xbe, 0xd2, 0x3f, 0x97, 0x3e,
    0xea, 0x01, 0x00, 0xbe, 0x4e, 0x2a, 0xdf, 0xbe, 0x95, 0x99,
    0x8f, 0x3e, 0x35, 0x4e, 0x0f, 0x3f, 0x68, 0xd1, 0x6a, 0xbe,
    0x25, 0x62, 0x41, 0x3f, 0x4a, 0xe4, 0xa3, 0xbd, 0x15, 0xd1,
    0xf4, 0xbd, 0x80, 0xba, 0x37, 0x3f, 0x9a, 0x3f, 0xaf, 0x3f,
    0xf3, 0xc0, 0x61, 0xbe, 0x3e, 0xe3, 0x2d, 0x3e, 0xfb, 0x7f,
    0xae, 0xbe, 0xa0, 0x80, 0xa8, 0xbe, 0x38, 0xc8, 0xfd, 0xbe,
    0x64, 0xd1, 0x8c, 0x3e, 0x0b, 0xa8, 0x58, 0x3f, 0x0a, 0x71,
    0x8d, 0x3f, 0xe3, 0xc5, 0xc6, 0x3e, 0x8f, 0x92, 0xda, 0xbe,
    0x3c, 0xd6, 0x0d, 0x3d, 0xe3, 0x02, 0xa7, 0x3e, 0xe5, 0x98,
    0x73, 0x3e, 0xc0, 0x0b, 0xde, 0xbd, 0xe3, 0xc6, 0x32, 0xbf,
    0xe7, 0x08, 0xb4, 0x3d, 0x51, 0x42, 0x73, 0x3e, 0x86, 0xf2,
    0x1c, 0xbf, 0x3a, 0xca, 0x88, 0x3e, 0xab, 0xa0, 0xd7, 0x3e,
    0x67, 0x14, 0xde, 0xbd, 0x6e, 0xf7, 0xc4, 0xbe, 0xb6, 0x38,
    0xea, 0x3e, 0x95, 0xac, 0xd8, 0xbe, 0xc5, 0x02, 0x9c, 0x3e,
    0xf3, 0x5b, 0x2c, 0xbf, 0x80, 0x8c, 0x92, 0x3d, 0x52, 0x23,
    0x52, 0xbf, 0x00, 0x70, 0xbf, 0x3e, 0xac, 0x3a, 0x9f, 0x3f,
    0xcc, 0x8f, 0x1f, 0x3f, 0xd8, 0x3a, 0x7d, 0xbf, 0x79, 0x42,
    0x76, 0xbe, 0x39, 0x19, 0x2f, 0xbc, 0x86, 0x82, 0xdb, 0xbd,
    0x10, 0x69, 0x47, 0x3e, 0x67, 0xc4, 0x8f, 0x3e, 0x88, 0xb8,
    0xba, 0xbe, 0xe0, 0x24, 0x43, 0xbe, 0xee, 0x6d, 0xd2, 0x3e,
    0x53, 0x91, 0x14, 0xbe, 0x12, 0xb7, 0xbc, 0x3d, 0xbf, 0x60,
    0x47, 0xbe, 0x5d, 0x7b, 0x95, 0x3d, 0x29, 0xc0, 0x0c, 0xbf,
    0x15, 0x95, 0x92, 0xbe, 0xb0, 0x75, 0xa2, 0xbe, 0x54, 0x9d,
    0x93, 0xba, 0x5e, 0x3c, 0xdc, 0x3e, 0x54, 0x97, 0x90, 0x3f,
    0x74, 0xe0, 0x43, 0xbd, 0xe0, 0x2e, 0x8e, 0x3d, 0xb0, 0x78,
    0x9a, 0xbd, 0x13, 0x9e, 0xda, 0x3c, 0x57, 0x62, 0x8a, 0x3f,
    0x0d, 0xbe, 0x40, 0xbd, 0x03, 0xcf, 0x3b, 0xbe, 0x52, 0x5c,
    0x5f, 0xbf, 0x05, 0xfb, 0x4b, 0x3d, 0x30, 0x81, 0x09, 0xc1,
    0x41, 0x7e, 0x1a, 0xbe, 0xa4, 0xa3, 0x5f, 0x3d, 0xfe, 0xd1,
    0x0c, 0x3e, 0x81, 0xe1, 0xbc, 0xbe, 0x8e, 0x0b, 0xb5, 0x3f,
    0x1c, 0x86, 0x2e, 0xbe, 0x6e, 0x8b, 0x1b, 0xbd, 0xd7, 0xbb,
    0x90, 0x3c, 0x48, 0xc6, 0xe7, 0xbf, 0x84, 0x4d, 0xf2, 0x3e,
    0x0f, 0x2b, 0x2e, 0xbf, 0xfd, 0xb0, 0x3d, 0xbe, 0xed, 0x22,
    0xe0, 0xbe, 0x6d, 0x65, 0xd0, 0x3e, 0x6f, 0x68, 0x17, 0x3e,
    0x5f, 0x8d, 0xa8, 0x3e, 0x33, 0x9b, 0xcd, 0x3c, 0x53, 0x5c,
    0x87, 0xbe, 0x1f, 0x88, 0x55, 0x3f, 0xa3, 0x93, 0x6a, 0x3e,
    0x05, 0x2a, 0xbc, 0xbd, 0x86, 0x44, 0x5b, 0xbf, 0xe7, 0xd7,
    0x76, 0x3c, 0x4a, 0xca, 0xce, 0x3e, 0xe6, 0x2e, 0xb8, 0x3f,
    0x66, 0x0f, 0x5e, 0xbe, 0x7c, 0xf9, 0xfd, 0xbd, 0x18, 0x9e,
    0xed, 0xbd, 0x99, 0x63, 0xbf, 0xbc, 0xd1, 0x1e, 0x36, 0xbf,
    0xdc, 0xc8, 0x7c, 0xbe, 0xe8, 0x50, 0xac, 0xbd, 0x44, 0xf7,
    0x40, 0x3f, 0xbc, 0x1d, 0x54, 0x3f, 0x1a, 0x07, 0x5f, 0xbe,
    0x4a, 0x88, 0x1c, 0xc0, 0xb6, 0x37, 0x9a, 0x3e, 0xda, 0xce,
    0x0e, 0xbc, 0xb3, 0x74, 0x44, 0x3e, 0x2a, 0x18, 0xf6, 0xbd,
    0x46, 0xcb, 0xc4, 0xbd, 0xab, 0xae, 0x69, 0xbd, 0x1f, 0xbc,
    0x5b, 0x3e, 0x1b, 0xd8, 0xff, 0x3d, 0x19, 0xfc, 0x05, 0x3e,
    0x02, 0x20, 0x99, 0xbe, 0x4a, 0x6e, 0x91, 0x3e, 0x25, 0x55,
    0x3d, 0x3d, 0x24, 0x21, 0x8c, 0x3f, 0x20, 0x43, 0xb6, 0xb9,
    0x41, 0xa5, 0x2a, 0xbf, 0x96, 0x59, 0x9b, 0x3d, 0x98, 0x87,
    0xce, 0xbe, 0x89, 0x4f, 0x8b, 0x3e, 0x5b, 0xc5, 0x21, 0x3f,
    0xad, 0x30, 0xe0, 0x3e, 0xc4, 0xed, 0x3c, 0xbe, 0xc0, 0x10,
    0x69, 0xbe, 0x9b, 0xbf, 0x03, 0x3f, 0xe1, 0xcf, 0xbe, 0x3d,
    0xa4, 0xf2, 0x32, 0x3e, 0x2b, 0xf4, 0x5d, 0x3f, 0x0c, 0x52,
    0xb0, 0x3e, 0xe8, 0x12, 0xec, 0x3c, 0xc1, 0xf7, 0xe5, 0x3d,
    0xc9, 0xb6, 0xef, 0xbe, 0xc6, 0xd6, 0x2d, 0x3f, 0x74, 0x41,
    0x0e, 0x3f, 0xa7, 0x3c, 0x61, 0x3f, 0xab, 0x9a, 0xf9, 0xbd,
    0xb6, 0x2c, 0x55, 0xbf, 0xbc, 0x58, 0x7c, 0xbe, 0x0a, 0x00,
    0x8c, 0xbe, 0x2b, 0x3e, 0xc6, 0x3e, 0x5d, 0x62, 0x49, 0x3f,
    0x1e, 0x2c, 0x96, 0x3e, 0xde, 0x32, 0xca, 0x3e, 0xd0, 0x15,
    0xdb, 0xbe, 0x6d, 0xcf, 0xe0, 0xbc, 0x7d, 0x67, 0x08, 0xbf,
    0x2d, 0x66, 0xd8, 0xba, 0xe0, 0x54, 0xe2, 0x3f, 0x7c, 0xcd,
    0x3d, 0xbe, 0x77, 0x23, 0x24, 0x3e, 0x45, 0x3d, 0xb5, 0xbd,
    0x19, 0x29, 0x81, 0x3f, 0xa1, 0x9d, 0x74, 0xbe, 0xd4, 0x10,
    0xcf, 0x3e, 0x38, 0x06, 0x2c, 0x3f, 0x66, 0xf2, 0xce, 0x3e,
    0x42, 0xbf, 0xe7, 0xbd, 0xeb, 0xe7, 0x18, 0x3f, 0x6c, 0x09,
    0xa1, 0xbe, 0xb8, 0xb4, 0x2b, 0x3f, 0xef, 0xdb, 0xd1, 0x3e,
    0x98, 0x85, 0x41, 0xbe, 0xac, 0x6e, 0x5e, 0x3f, 0xc3, 0xe8,
    0x81, 0xbf, 0x1b, 0xf6, 0x8a, 0xbe, 0xe6, 0x05, 0x4a, 0xbe,
    0x78, 0x81, 0x91, 0xbe, 0xc4, 0x0d, 0x24, 0xbf, 0xf0, 0x7b,
    0xcb, 0x3d, 0x54, 0xb0, 0x11, 0xbf, 0x7d, 0xe0, 0x23, 0xbd,
    0x5a, 0xfe, 0x55, 0x3e, 0x0d, 0x95, 0x84, 0xbe, 0x0f, 0x98,
    0xb3, 0xbe, 0x0e, 0xa6, 0x82, 0x3e, 0x0e, 0x27, 0xb0, 0x3d,
    0xd7, 0x20, 0xfe, 0xbe, 0xdc, 0x5f, 0x3e, 0x3d, 0x1b, 0xb3,
    0x9e, 0x3f, 0x39, 0xf8, 0xdc, 0x3e, 0xd6, 0xa1, 0xd9, 0x3d,
    0xc9, 0x82, 0xeb, 0x3e, 0xcc, 0xf2, 0xc2, 0x3c, 0xfb, 0x9e,
    0x4f, 0xbe, 0x23, 0x15, 0xeb, 0x3f, 0xd2, 0xfb, 0x90, 0xbf,
    0xff, 0x0b, 0x27, 0x3e, 0xf1, 0x77, 0xbc, 0xbc, 0xa9, 0x3d,
    0x57, 0xbf, 0x65, 0x60, 0xc6, 0x3e, 0x02, 0x54, 0x9f, 0xbe,
    0x73, 0xfa, 0x6f, 0xbe, 0x13, 0xf5, 0x13, 0xbe, 0xf0, 0x2f,
    0x3e, 0x3e, 0xd0, 0x47, 0xdb, 0xbf, 0xb8, 0x0d, 0x71, 0xc0,
    0x27, 0xc6, 0x85, 0xbe, 0x67, 0xa9, 0x8e, 0xbf, 0xdc, 0xe0,
    0x08, 0x3f, 0x8c, 0x5b, 0x32, 0x3f, 0x1f, 0xae, 0x8f, 0xbe,
    0xb0, 0xed, 0xda, 0x3d, 0x1b, 0x7e, 0xd3, 0x3e, 0x62, 0x70,
    0x9b, 0x3e, 0xa7, 0x19, 0x8a, 0x3d, 0x38, 0xfc, 0x64, 0x3d,
    0x09, 0xae, 0x80, 0xbe, 0x93, 0x22, 0x5d, 0x3e, 0xb7, 0x01,
    0x63, 0xbe, 0xeb, 0xe5, 0xb4, 0x3d, 0x57, 0xe0, 0xb8, 0xbe,
    0x56, 0xdc, 0xe7, 0xbd, 0xd1, 0x4d, 0xb6, 0xbe, 0x48, 0x7c,
    0xbb, 0xbf, 0x3a, 0xc3, 0xc0, 0x3e, 0x4a, 0x7e, 0x59, 0xbe,
    0x40, 0x9b, 0xec, 0x3d, 0x14, 0x75, 0x0f, 0xbf, 0xb6, 0xc3,
    0xc9, 0x3e, 0x1b, 0x34, 0x63, 0xbe, 0x36, 0xbd, 0x14, 0x3e,
    0x11, 0x06, 0x3e, 0xbe, 0xb3, 0x1d, 0x22, 0xbe, 0x82, 0x2e,
    0xf8, 0x3e, 0x11, 0x75, 0xea, 0x3e, 0xf5, 0x3b, 0x7b, 0x3e,
    0xa9, 0x3e, 0x15, 0xbf, 0x51, 0xac, 0xac, 0x3e, 0xe2, 0x33,
    0x55, 0x3d, 0x83, 0xde, 0x83, 0xbe, 0x1e, 0x3f, 0xff, 0x3e,
    0x78, 0x75, 0x4c, 0x3f, 0x66, 0x79, 0xe8, 0xbe, 0x44, 0x0f,
    0x83, 0xc0, 0xca, 0xb1, 0xcf, 0x3d, 0x3f, 0x9a, 0x87, 0x3e,
    0x08, 0x0a, 0xa6, 0x3e, 0x9a, 0x07, 0xab, 0xbd, 0xe9, 0x3e,
    0x59, 0xbe, 0x5f, 0x3b, 0x53, 0xbe, 0x5a, 0x65, 0x19, 0xbe,
    0xd8, 0x41, 0x9f, 0xbf, 0x4d, 0xe3, 0x24, 0x40, 0xfa, 0x63,
    0x9f, 0x3e, 0x48, 0x81, 0x7e, 0x3e, 0x1a, 0x66, 0x3a, 0xbe,
    0xac, 0x64, 0x0c, 0x3f, 0x1e, 0x59, 0x2b, 0x3f, 0x52, 0x8b,
    0x39, 0x3f, 0xdf, 0xa0, 0x8f, 0x3e, 0x4a, 0x36, 0x63, 0xbd,
    0x90, 0x1f, 0x14, 0xbd, 0xab, 0x6d, 0x96, 0xbd, 0x1b, 0x1d,
    0xa2, 0xbe, 0xf8, 0xa5, 0x10, 0x3e, 0xf8, 0x93, 0x27, 0x3f,
    0xa0, 0x3c, 0xbe, 0xbe, 0x7f, 0x34, 0x86, 0xbe, 0xad, 0x9f,
    0x24, 0xbe, 0x6a, 0x81, 0x6f, 0xbd, 0x2e, 0x6d, 0xae, 0xbc,
    0xc8, 0x3c, 0x6a, 0x3f, 0xc5, 0xcc, 0x76, 0x3e, 0x72, 0x3a,
    0xf0, 0xbd, 0x02, 0x09, 0x0e, 0x3f, 0xe7, 0xdd, 0xae, 0xbe,
    0x56, 0x08, 0x4a, 0x3e, 0xa7, 0xfc, 0x72, 0xbe, 0x97, 0x17,
    0x87, 0x3f, 0xd6, 0xea, 0x58, 0xbe, 0xc6, 0x04, 0xe5, 0x3e,
    0x9c, 0x6b, 0x25, 0xbe, 0x7e, 0xda, 0xad, 0xbd, 0x58, 0x5f,
    0x9c, 0x3e, 0x1f, 0xc7, 0x85, 0x3d, 0x47, 0x95, 0x15, 0x3f,
    0xcc, 0xf7, 0x83, 0x3c, 0x9b, 0xf0, 0x05, 0xbe, 0x7e, 0x06,
    0x78, 0xbc, 0x97, 0x33, 0xe6, 0xbc, 0xb4, 0x80, 0x67, 0x3e,
    0xb9, 0xd3, 0x63, 0x3f, 0xf4, 0xac, 0xa6, 0x3e, 0x1f, 0xaf,
    0x5f, 0x3e, 0x28, 0xe0, 0x60, 0xbe, 0x37, 0x86, 0x8a, 0x3d,
    0x0a, 0xd9, 0x12, 0x3d, 0xc8, 0xd8, 0x72, 0x3e, 0x4b, 0xc6,
    0xfc, 0x3e, 0x59, 0x7e, 0xc7, 0xbe, 0xe4, 0xa7, 0x02, 0x3f,
    0x6b, 0xcf, 0xed, 0xbd, 0x1f, 0x51, 0x79, 0x3c, 0x9f, 0xc6,
    0x21, 0x3f, 0xd4, 0xfd, 0x7b, 0x3e, 0xe4, 0x29, 0x73, 0x3f,
    0x8b, 0x31, 0x39, 0x3e, 0xee, 0x30, 0x90, 0xbe, 0x09, 0xd6,
    0x20, 0x3e, 0xd7, 0xe6, 0x58, 0xbe, 0xeb, 0xa2, 0xa4, 0x3d,
    0x1a, 0xfa, 0x39, 0xbd, 0x1a, 0xfc, 0x73, 0x3e, 0x37, 0xad,
    0xec, 0x3d, 0x3e, 0x6e, 0xe2, 0xbe, 0x9b, 0x03, 0xce, 0x3d,
    0x8f, 0xfd, 0x3a, 0x3f, 0xc9, 0xf8, 0x95, 0x3e, 0x6c, 0xaf,
    0x2e, 0xbe, 0xaf, 0x86, 0xe7, 0x3e, 0xd9, 0xd8, 0x88, 0x3c,
    0x2a, 0xe8, 0xa8, 0xbe, 0xda, 0xd1, 0x12, 0xbf, 0xf2, 0x7b,
    0x1e, 0xbe, 0x9f, 0x2f, 0x04, 0x3f, 0x12, 0x6c, 0xb2, 0xbc,
    0x53, 0xe8, 0x5e, 0xbf, 0x51, 0x60, 0xe9, 0x3d, 0x2f, 0xde,
    0x7e, 0x3e, 0x9c, 0xcb, 0xa9, 0x3f, 0xcf, 0x64, 0x8f, 0xbe,
    0xd9, 0x8d, 0x58, 0x3e, 0x72, 0x45, 0x22, 0xbe, 0x04, 0x23,
    0x36, 0xbf, 0xba, 0x33, 0xfd, 0xbd, 0x4f, 0x6c, 0x5e, 0x3e,
    0x8c, 0x95, 0x10, 0x3f, 0x9b, 0xb9, 0x1d, 0xbe, 0x92, 0x00,
    0xc5, 0x3d, 0xf2, 0xf6, 0xdf, 0xbc, 0x8d, 0x3b, 0xfe, 0xbd,
    0xe9, 0xca, 0x50, 0x3e, 0xdc, 0x31, 0x71, 0x3e, 0x3a, 0xa2,
    0xb7, 0xbe, 0x93, 0x4e, 0xd5, 0xbe, 0xc5, 0x04, 0x39, 0x3f,
    0xc9, 0x6f, 0x99, 0x3e, 0x8c, 0x21, 0x21, 0xbd, 0x6e, 0x00,
    0xfd, 0x3d, 0xe5, 0x04, 0x0a, 0xbe, 0x7b, 0x06, 0x3e, 0xbe,
    0xb8, 0x0d, 0xae, 0xbe, 0x91, 0xb4, 0x03, 0x3f, 0x8c, 0x78,
    0x50, 0x3f, 0xca, 0xa0, 0xb1, 0xbe, 0xd1, 0xbc, 0xa5, 0x3f,
    0x71, 0x98, 0x70, 0x3f, 0x14, 0xa0, 0x35, 0x3d, 0x71, 0x07,
    0x88, 0xbd, 0x60, 0x56, 0x1d, 0xbf, 0xd9, 0x02, 0x68, 0x3d,
