#include "tanh_1_none_data.h"

ai_handle ai_tanh_1_none_data_weights_get(void) {

    AI_ALIGNED(4)
    static const ai_u8 s_tanh_1_none_weights[21232] = {
            0xbf, 0xc4, 0x90, 0x42, 0x6a, 0x25, 0x22, 0x3e, 0xcb, 0x4b,
            0xfb, 0x3d, 0xe5, 0x91, 0xef, 0x3d, 0x16, 0xa6, 0xc0, 0x3d,
            0x04, 0xdf, 0xac, 0x3d, 0xe1, 0x2f, 0xdb, 0x3f, 0x83, 0x97,
            0x47, 0x40, 0xee, 0x26, 0x8e, 0xc2, 0x0d, 0x73, 0x31, 0xc3,
            0x1c, 0xff, 0xeb, 0xc2, 0x53, 0x9a, 0xc0, 0xc2, 0x44, 0x34,
            0x07, 0xc3, 0x22, 0xae, 0xb3, 0xc2, 0x9e, 0x23, 0xa7, 0xc2,
            0xa4, 0xab, 0x5b, 0xc2, 0x5f, 0x73, 0x2c, 0x3c, 0xc4, 0xf6,
            0x9e, 0x3d, 0xc4, 0x4a, 0xe3, 0x3c, 0x16, 0x80, 0xa3, 0xbb,
            0x51, 0xe8, 0x2c, 0xbd, 0xd7, 0x9a, 0xb2, 0x3d, 0x45, 0x8c,
            0xe8, 0x3c, 0x1e, 0x14, 0xaa, 0x3a, 0x6f, 0x6b, 0x42, 0xbd,
            0x27, 0xaf, 0x45, 0x3d, 0xe7, 0xb1, 0x7b, 0xbd, 0xaa, 0x0c,
            0x9b, 0xbd, 0x3e, 0x19, 0x96, 0x3c, 0x63, 0x43, 0xb4, 0xbc,
            0xaf, 0x17, 0x80, 0x39, 0x8a, 0x8e, 0x87, 0xbc, 0x7d, 0xfd,
            0xdf, 0xbd, 0x24, 0xa9, 0xed, 0xbb, 0x2d, 0x89, 0xe5, 0x3d,
            0x21, 0x54, 0x5b, 0x3d, 0x90, 0x2d, 0xd4, 0xbd, 0x42, 0xec,
            0x5c, 0x3d, 0x72, 0xa5, 0x66, 0x3c, 0xa6, 0x95, 0x6e, 0xbd,
            0xeb, 0x4f, 0xa3, 0x3d, 0xfe, 0xcf, 0x6e, 0x3d, 0x7b, 0xc0,
            0x51, 0xbd, 0x8a, 0x61, 0x83, 0xbd, 0xb7, 0x03, 0xec, 0xbd,
            0x80, 0xc9, 0x80, 0x3d, 0xa4, 0x0e, 0x65, 0xbd, 0x55, 0xa9,
            0xd7, 0x3c, 0x63, 0xf6, 0x13, 0x3c, 0xdd, 0xd7, 0xf0, 0xbc,
            0xa7, 0x1b, 0xdc, 0x3d, 0x71, 0x74, 0x93, 0xbd, 0x7d, 0x49,
            0xd4, 0x3d, 0x9c, 0x57, 0x04, 0xbe, 0xec, 0xb7, 0xd1, 0xbd,
            0x49, 0xd2, 0xc4, 0x3d, 0xf8, 0xf1, 0xd4, 0x3d, 0xd2, 0xaf,
            0x8b, 0xbc, 0xc8, 0x6f, 0x91, 0xbd, 0xa1, 0x81, 0x8a, 0xbd,
            0x01, 0xd8, 0x3e, 0x3c, 0x09, 0xbe, 0x4b, 0x3d, 0xdf, 0x06,
            0x96, 0x3d, 0x8c, 0x5e, 0x6e, 0x3c, 0x03, 0x05, 0x2a, 0xbc,
            0xc8, 0xd5, 0x76, 0x3d, 0xe6, 0xde, 0x8d, 0xbd, 0x79, 0xe8,
            0x59, 0xbd, 0x99, 0x5d, 0x60, 0x3d, 0x7f, 0xb1, 0x6d, 0xbd,
            0xce, 0xcd, 0xb0, 0xbb, 0x2d, 0xb4, 0xc5, 0x3c, 0x1c, 0x8a,
            0xb0, 0xbc, 0x20, 0x8a, 0x17, 0x3b, 0x49, 0xfc, 0x39, 0x3c,
            0x0f, 0x75, 0x0c, 0xbd, 0xf0, 0x8d, 0x45, 0x3c, 0xf0, 0x26,
            0x91, 0x3c, 0xb8, 0x48, 0xc1, 0xbc, 0xcb, 0xd8, 0xff, 0x3b,
            0x99, 0x76, 0xe8, 0x3c, 0xd5, 0x3e, 0x43, 0x3d, 0x3c, 0x11,
            0xd0, 0xbc, 0x6b, 0x38, 0xb8, 0xbc, 0x5a, 0x83, 0x8a, 0x3b,
            0x54, 0x3e, 0xc9, 0xbc, 0x30, 0xe8, 0x14, 0x3d, 0x5d, 0x13,
            0x33, 0x3b, 0xef, 0x48, 0x8d, 0x3d, 0x0f, 0x3c, 0x44, 0xbd,
            0xfb, 0x67, 0xa9, 0x3d, 0xe5, 0x83, 0x42, 0xbc, 0xe9, 0x11,
            0xb6, 0x3d, 0x23, 0x46, 0xec, 0xbd, 0xc9, 0x6b, 0x44, 0x3c,
            0xb9, 0x97, 0x9e, 0x3d, 0x0b, 0x2f, 0xf7, 0xbd, 0x91, 0xbf,
            0x13, 0x3e, 0xc7, 0x26, 0x89, 0x3d, 0x5d, 0x90, 0x2c, 0xbd,
            0x96, 0x2c, 0xa9, 0xbc, 0x4f, 0x78, 0x8b, 0x3d, 0xc9, 0x6b,
            0x30, 0xbd, 0x3a, 0xec, 0xae, 0xbc, 0x45, 0x3d, 0x96, 0xbc,
            0xbc, 0x72, 0xb0, 0xbd, 0xa7, 0x2c, 0x31, 0xbe, 0x45, 0xb0,
            0x18, 0xbb, 0xeb, 0x6e, 0xbd, 0x3d, 0xfe, 0x22, 0x18, 0x3e,
            0xed, 0x80, 0x36, 0x3d, 0x65, 0x3e, 0x4f, 0x3c, 0x2c, 0x5f,
            0x1e, 0xbd, 0x5b, 0x87, 0x2b, 0xbd, 0x18, 0xd3, 0x07, 0xbd,
            0x67, 0xef, 0xc2, 0xbc, 0xb5, 0x67, 0xae, 0xba, 0x59, 0x53,
            0xf7, 0x3c, 0x13, 0x0b, 0x02, 0x3b, 0xd5, 0xbc, 0xb1, 0xbc,
            0x7b, 0x6b, 0x35, 0xbd, 0x15, 0xfa, 0x13, 0xbd, 0xb6, 0xbb,
            0x92, 0x3d, 0xf3, 0x55, 0x1d, 0xbc, 0x48, 0xc8, 0x01, 0xbd,
            0x80, 0x04, 0x86, 0x3c, 0x09, 0x5b, 0xfe, 0xbd, 0x9d, 0xa2,
            0xc2, 0x3d, 0xc6, 0x43, 0xcf, 0xba, 0x9f, 0xf5, 0xe9, 0x3d,
            0xa9, 0x8a, 0xe2, 0x3d, 0xf8, 0x54, 0x28, 0x3d, 0x40, 0xc6,
            0x63, 0x3c, 0x67, 0x0f, 0x1a, 0xbe, 0x6d, 0xb7, 0x81, 0x3c,
            0x9b, 0x99, 0x27, 0x3d, 0xf2, 0xaf, 0x4a, 0xbc, 0xda, 0xf8,
            0x32, 0x3d, 0xd3, 0x22, 0xff, 0x3c, 0xd6, 0x61, 0xaa, 0x3c,
            0xc3, 0x84, 0x54, 0xbd, 0x76, 0xe7, 0x03, 0xbd, 0xa9, 0xa7,
            0x35, 0x3e, 0x61, 0xc0, 0xa4, 0xbd, 0xbc, 0x31, 0x15, 0x3d,
            0xac, 0x1a, 0xd4, 0x3d, 0xab, 0xca, 0xbe, 0xbc, 0x96, 0x38,
            0x1e, 0x3c, 0xbd, 0xa7, 0x73, 0x3c, 0x2b, 0x1b, 0x10, 0xbe,
            0x93, 0x2b, 0xb8, 0x3c, 0xac, 0x0e, 0xd5, 0x3c, 0xdc, 0xe0,
            0x75, 0x3d, 0x53, 0x2e, 0x13, 0xbd, 0x2b, 0xc7, 0x99, 0x3d,
            0x66, 0x26, 0xe9, 0xbd, 0x23, 0xf9, 0x89, 0xbc, 0x58, 0x75,
            0xf1, 0x3c, 0x0c, 0xbc, 0xb7, 0xbd, 0xdc, 0x4f, 0x72, 0x3d,
            0x86, 0xc4, 0xd4, 0x3d, 0x9c, 0xc2, 0xdf, 0xbd, 0x32, 0x2d,
            0x2f, 0xbc, 0x6a, 0x6c, 0x1d, 0x3d, 0x0e, 0x3a, 0xe8, 0xbd,
            0xe1, 0xc8, 0xb9, 0x3d, 0xa5, 0x7e, 0xb5, 0x3d, 0x0a, 0x4f,
            0xa8, 0x3d, 0x0e, 0x18, 0x81, 0xbd, 0x6e, 0x71, 0x47, 0x3d,
            0xbd, 0xea, 0xb6, 0x3d, 0xcc, 0xc3, 0xcc, 0x3b, 0x67, 0x13,
            0xa1, 0x3c, 0x3d, 0x59, 0xaf, 0xbd, 0xe5, 0x7e, 0x93, 0xbd,
            0x7b, 0xec, 0xae, 0xbc, 0xda, 0x25, 0xfd, 0x3d, 0x5a, 0x65,
            0xac, 0x3c, 0x36, 0x56, 0x80, 0x3e, 0x36, 0xea, 0xd9, 0xbd,
            0x32, 0xfc, 0xac, 0xbe, 0xd4, 0x38, 0xfa, 0xbc, 0x2a, 0x43,
            0x47, 0x3c, 0x67, 0xe6, 0x3a, 0xbd, 0xc4, 0x94, 0xac, 0x3d,
            0x6a, 0x28, 0xc6, 0xbc, 0x0e, 0x71, 0x73, 0xbd, 0xf9, 0xea,
            0x24, 0xbe, 0xae, 0x17, 0x00, 0x3e, 0xfe, 0xbc, 0x27, 0xbd,
            0xd2, 0x16, 0xa8, 0xbd, 0xf6, 0x89, 0x01, 0x3e, 0x17, 0x0e,
            0xd4, 0xbc, 0x5f, 0x2a, 0xe5, 0x3d, 0x4a, 0xf9, 0x4e, 0xbd,
            0x50, 0x7e, 0x8b, 0xbd, 0x38, 0x2d, 0x98, 0x3d, 0xa2, 0xaf,
            0xb5, 0xbd, 0xca, 0x49, 0xfb, 0xba, 0x51, 0x35, 0x74, 0x3c,
            0x31, 0x09, 0xd4, 0xbc, 0xa1, 0x7d, 0x3b, 0x3e, 0x0b, 0x99,
            0x18, 0xbe, 0xb0, 0x14, 0x8e, 0x3d, 0xf9, 0x79, 0x8c, 0xbc,
            0xb1, 0x70, 0x29, 0x3d, 0xce, 0xb1, 0xb8, 0xba, 0x4e, 0x82,
            0xa4, 0x3c, 0x05, 0x06, 0x83, 0x3d, 0x24, 0x64, 0xc5, 0xbd,
            0x8d, 0x80, 0x82, 0xbd, 0x00, 0x5f, 0xb9, 0xbc, 0xa0, 0xec,
            0xb2, 0xbd, 0xc1, 0xee, 0xa4, 0x3e, 0x37, 0x82, 0xb7, 0x3b,
            0x14, 0x06, 0x07, 0xbc, 0x88, 0xdc, 0x3a, 0xbd, 0xcf, 0xf4,
            0x0c, 0xbd, 0xc0, 0x5a, 0x67, 0x3b, 0xc2, 0xc3, 0x8b, 0xbd,
            0xf2, 0x22, 0x8a, 0x3c, 0x91, 0x29, 0xc3, 0xbd, 0xba, 0x1f,
            0x91, 0xbd, 0x15, 0x44, 0xd8, 0x3a, 0x58, 0xdf, 0x2d, 0x3d,
            0x90, 0xa0, 0xd8, 0x3c, 0x7f, 0x6f, 0x12, 0xbd, 0x5d, 0xca,
            0x68, 0xbc, 0x4e, 0x80, 0xe8, 0xba, 0x4c, 0xb0, 0x50, 0xbd,
            0x93, 0x28, 0x44, 0xbd, 0x34, 0x55, 0x85, 0x3d, 0x94, 0x60,
            0xa0, 0x3c, 0xf9, 0x9f, 0x96, 0x3c, 0x37, 0xe0, 0xda, 0x3b,
            0xb8, 0x87, 0x85, 0xba, 0x82, 0x1d, 0x38, 0x3c, 0xa7, 0x42,
            0x23, 0x3c, 0x58, 0x18, 0x8b, 0xbb, 0x34, 0x95, 0xb4, 0x3c,
            0x32, 0x57, 0x06, 0x3d, 0x13, 0xa8, 0xa2, 0x3d, 0x21, 0xc0,
            0xb4, 0xbd, 0x13, 0x50, 0xb3, 0xbb, 0xe5, 0x32, 0x46, 0xbc,
            0xc6, 0x89, 0x91, 0xbc, 0x03, 0x3d, 0x33, 0xbb, 0x8a, 0x9a,
            0x90, 0x3c, 0x13, 0x1d, 0x3e, 0xbd, 0xda, 0xb7, 0x87, 0xbd,
            0xba, 0x81, 0xb9, 0x3d, 0xf4, 0x69, 0x65, 0xbd, 0x4a, 0x0a,
            0x27, 0x3d, 0x10, 0x93, 0xf2, 0x3b, 0x91, 0x6f, 0x5a, 0xbd,
            0x98, 0x8c, 0x00, 0xbd, 0xb7, 0xdd, 0x6d, 0x3c, 0x60, 0xa1,
            0xf2, 0xbc, 0xb1, 0x35, 0x29, 0xbd, 0x98, 0x85, 0x60, 0x3d,
            0x3b, 0xf4, 0x78, 0xbc, 0x04, 0xb7, 0xd8, 0xbc, 0x82, 0xa8,
            0x19, 0x3e, 0x9e, 0xf7, 0x06, 0xbd, 0x09, 0xa3, 0x69, 0xbd,
            0x1a, 0x26, 0x1c, 0xbd, 0xc4, 0x47, 0x15, 0x3c, 0x94, 0x2e,
            0x96, 0xbc, 0xe0, 0xda, 0x00, 0xbe, 0x78, 0x1b, 0x98, 0x3d,
            0x53, 0x17, 0x91, 0xbd, 0x5c, 0xd2, 0x22, 0x3c, 0x0a, 0x14,
            0xa6, 0xbb, 0x2c, 0x2e, 0xb0, 0xbd, 0xf7, 0x73, 0x66, 0xbd,
            0xdc, 0xbe, 0x9f, 0x3d, 0x47, 0xdf, 0x14, 0xbd, 0x9d, 0xd7,
            0x89, 0x3d, 0x53, 0xf1, 0xce, 0xbd, 0x76, 0xbb, 0x57, 0x3c,
            0x9c, 0x0d, 0x8b, 0x3d, 0xe8, 0xb8, 0xf1, 0xbc, 0x3f, 0xf3,
            0xf8, 0x3c, 0x99, 0xf5, 0xf3, 0x3d, 0x89, 0xcb, 0x87, 0xbc,
            0x7e, 0xef, 0x9e, 0x3b, 0xe0, 0x89, 0x90, 0x3b, 0x36, 0xeb,
            0xc2, 0x3c, 0x1f, 0x60, 0x9b, 0xbd, 0xb6, 0xc1, 0x2e, 0x3d,
            0x3a, 0x73, 0x34, 0x3d, 0xf8, 0xa1, 0x01, 0xbe, 0xa3, 0x8f,
            0xd5, 0x3c, 0x1a, 0x74, 0xc7, 0x3c, 0x5f, 0x19, 0xb5, 0xbd,
            0x9d, 0xed, 0xa4, 0x3d, 0xf0, 0xc3, 0x94, 0xbc, 0xda, 0xb8,
            0x3e, 0xbd, 0x4d, 0x54, 0x92, 0xbd, 0x3d, 0xe5, 0x8c, 0xbc,
            0x63, 0x3a, 0x1e, 0xbd, 0xc6, 0x9e, 0x6c, 0x3d, 0xeb, 0x68,
            0xf1, 0xbd, 0x1c, 0x22, 0x6f, 0x3d, 0x1e, 0xfb, 0x7d, 0x3c,
            0x7c, 0x72, 0x2d, 0xbd, 0x8f, 0xc8, 0x8d, 0x3d, 0x04, 0x3d,
            0xc5, 0x3c, 0xd2, 0x63, 0x09, 0xbd, 0xde, 0xb2, 0xc7, 0x3c,
            0x52, 0x5d, 0xdb, 0xbc, 0xb0, 0x86, 0x40, 0x3d, 0x0b, 0x2a,
            0x0e, 0xbe, 0xab, 0x34, 0x8d, 0xbd, 0x2a, 0x63, 0x9e, 0xbb,
            0xce, 0x77, 0xa5, 0xbc, 0x1c, 0x2f, 0x07, 0x3e, 0x8f, 0xd9,
            0x9b, 0xbd, 0xba, 0xa7, 0x6d, 0xbd, 0x27, 0x3d, 0xb7, 0xbd,
            0xef, 0xfa, 0x14, 0x3d, 0x6c, 0xdf, 0xe2, 0x3b, 0x1d, 0xb8,
            0xb5, 0xbd, 0x25, 0x89, 0x8e, 0x3b, 0x80, 0x52, 0x07, 0xbc,
            0xed, 0x00, 0xfc, 0x3c, 0x86, 0x07, 0x2b, 0xbc, 0xc5, 0xf9,
            0x40, 0x3c, 0x88, 0x56, 0x5b, 0x3c, 0x38, 0xf1, 0xf3, 0x3c,
            0x7d, 0x72, 0x8c, 0xbc, 0xba, 0x75, 0x0f, 0x3d, 0xa4, 0x91,
            0x9b, 0xbb, 0xb8, 0xa8, 0x9c, 0x3d, 0x48, 0x8e, 0x21, 0x3d,
            0x3d, 0xaa, 0x81, 0xbc, 0x75, 0xbd, 0x81, 0xbc, 0xe4, 0x5d,
            0xcd, 0x3d, 0xe1, 0xc3, 0x3f, 0xbe, 0x83, 0x4e, 0x88, 0xbd,
            0x57, 0xa7, 0xcf, 0xbc, 0xc6, 0x74, 0xce, 0x3d, 0x90, 0x4d,
            0x38, 0x3e, 0x7b, 0x06, 0x81, 0xbd, 0x56, 0xe2, 0x04, 0xbe,
            0x3f, 0xfe, 0x87, 0x3c, 0xf9, 0x01, 0xe2, 0x3d, 0xe5, 0x77,
            0x5d, 0xbd, 0xe4, 0x18, 0x1b, 0xbd, 0x11, 0xaf, 0x01, 0x3e,
            0x18, 0x67, 0xda, 0xbc, 0x7b, 0xe7, 0x0a, 0xbe, 0x63, 0xe5,
            0x6a, 0xbe, 0x37, 0x07, 0x13, 0xbd, 0x1a, 0x90, 0xcf, 0xbe,
            0x50, 0xda, 0x2b, 0xbd, 0x57, 0x56, 0x20, 0x3f, 0x17, 0xaf,
            0xba, 0xbc, 0xf4, 0xcf, 0x8b, 0xbd, 0x13, 0xc2, 0x00, 0xbc,
            0x22, 0x4a, 0x4e, 0xbc, 0x57, 0xfd, 0x29, 0xbc, 0x0f, 0xf2,
            0x31, 0x3d, 0x26, 0xed, 0x07, 0xbc, 0x7f, 0xb8, 0x34, 0x3d,
            0x5d, 0x69, 0xee, 0xbc, 0xe3, 0xcd, 0x12, 0x3d, 0xd1, 0xaa,
            0xea, 0xbc, 0x49, 0x5d, 0xc2, 0xbd, 0x6a, 0x37, 0x0e, 0xbc,
            0x49, 0x4d, 0x54, 0x3d, 0x87, 0x99, 0x55, 0x3c, 0x23, 0x66,
            0x29, 0x3e, 0xef, 0x37, 0x94, 0x3d, 0x4e, 0x8d, 0x99, 0xbd,
            0xc3, 0x0a, 0x9a, 0x3b, 0x90, 0x12, 0x97, 0x3d, 0xba, 0xe6,
            0xbf, 0xbd, 0x5a, 0xa6, 0x41, 0xbd, 0xcc, 0x90, 0x67, 0x3c,
            0x9c, 0x7e, 0x12, 0xbd, 0xa1, 0xcd, 0xf1, 0x3d, 0x00, 0x6b,
            0x40, 0xbb, 0xe5, 0x2a, 0x91, 0x3d, 0xf0, 0x25, 0xdd, 0xbd,
            0x88, 0x79, 0x3d, 0xbd, 0x8d, 0x1b, 0x8c, 0xbc, 0xe2, 0x95,
            0x55, 0xbd, 0x2d, 0xbd, 0x4a, 0x3c, 0x94, 0x98, 0xd0, 0x3c,
            0x2a, 0x3a, 0xc9, 0xbd, 0x63, 0x67, 0x00, 0xbd, 0x0c, 0xad,
            0x25, 0x3d, 0xb1, 0xc0, 0x61, 0x3d, 0x98, 0x86, 0xa0, 0x3d,
            0x13, 0xba, 0x32, 0xbd, 0x72, 0xc0, 0xec, 0xbd, 0x06, 0x84,
            0x93, 0xbd, 0x20, 0x20, 0x05, 0x3e, 0x59, 0xff, 0xbb, 0xbd,
            0x06, 0xdf, 0x75, 0xbb, 0x1c, 0x36, 0x9f, 0x3b, 0x3e, 0xe1,
            0x33, 0x3c, 0x1c, 0x9d, 0xdc, 0xb8, 0x54, 0x56, 0xe5, 0xbb,
            0x3b, 0xff, 0x1f, 0x3d, 0x53, 0xc5, 0xc7, 0xbb, 0x89, 0x63,
            0xad, 0xbb, 0x77, 0x84, 0xd6, 0x3d, 0x34, 0x6c, 0xfb, 0x3d,
            0x74, 0x05, 0xc4, 0x3c, 0x2e, 0x5a, 0x3a, 0xbe, 0xaa, 0xa6,
            0xec, 0x3b, 0x7a, 0x21, 0x42, 0xbe, 0xd4, 0x85, 0x48, 0xbd,
            0x5c, 0xe7, 0xe9, 0x3d, 0xf6, 0x17, 0xa5, 0x3d, 0x3e, 0xe7,
            0x1b, 0x3e, 0x9c, 0x79, 0xa0, 0x3d, 0x85, 0x01, 0xf2, 0x3c,
            0x11, 0x87, 0x82, 0xbd, 0x84, 0x13, 0x3b, 0xbe, 0xc2, 0xd9,
            0x0b, 0xbd, 0xcf, 0x08, 0x26, 0x3d, 0x19, 0x99, 0xb9, 0xbc,
            0xe6, 0xc2, 0x2e, 0x3d, 0x8d, 0xf7, 0xc5, 0xbd, 0x55, 0x62,
            0x91, 0xbc, 0xef, 0x2a, 0x4e, 0x3d, 0x48, 0x79, 0x07, 0xbc,
            0xd2, 0x4f, 0xb6, 0xbd, 0x13, 0x45, 0x93, 0x3c, 0x4b, 0xbe,
            0xaf, 0x3d, 0x89, 0xf0, 0xb2, 0xba, 0x29, 0xd4, 0x97, 0x3c,
            0xf3, 0x7a, 0xae, 0x3d, 0x55, 0x55, 0xfa, 0x3d, 0xec, 0xf6,
            0xb3, 0xbc, 0x09, 0x01, 0x07, 0xbe, 0x3a, 0x72, 0x07, 0x3e,
            0x5e, 0xa0, 0xb3, 0x3c, 0xfd, 0xc4, 0xcc, 0xbb, 0x18, 0x84,
            0x8a, 0x3b, 0xb1, 0xc3, 0x9c, 0xbd, 0x7f, 0xf5, 0x36, 0xbc,
            0xc8, 0xaa, 0xe9, 0xbd, 0x2f, 0xbf, 0xf8, 0xbc, 0x79, 0x98,
            0xdd, 0x3c, 0x29, 0x33, 0x31, 0xba, 0x1a, 0x46, 0x8f, 0xbd,
            0x1f, 0xce, 0x98, 0x3c, 0x32, 0x5b, 0xec, 0x3d, 0x6d, 0x09,
            0x23, 0x3d, 0x64, 0xa2, 0xfa, 0xbc, 0xb3, 0xa7, 0x52, 0x3d,
            0x21, 0xf3, 0x15, 0xbd, 0xd1, 0x02, 0xb7, 0x3c, 0x89, 0x77,
            0xc2, 0x3c, 0x09, 0x09, 0x9c, 0xbd, 0x28, 0x6a, 0xb1, 0xbd,
            0x48, 0xbf, 0x68, 0xbd, 0x2d, 0x23, 0x0b, 0xbb, 0x9a, 0x62,
            0x39, 0xbc, 0xe6, 0x3c, 0x45, 0x3c, 0x76, 0x2a, 0xe4, 0xbc,
            0xa3, 0x83, 0x97, 0xbd, 0x0f, 0xa9, 0xcc, 0x3d, 0x78, 0x86,
            0xbc, 0xbc, 0x7b, 0xbc, 0x42, 0x3d, 0x3e, 0x18, 0x93, 0xbd,
            0xc1, 0x69, 0x2f, 0x3d, 0x3f, 0xce, 0x48, 0xbc, 0xba, 0x52,
            0xe9, 0x3a, 0x60, 0x41, 0xdd, 0x3c, 0xda, 0x88, 0xbd, 0xbc,
            0x62, 0x62, 0xbd, 0xb9, 0x15, 0xf2, 0xe4, 0xbd, 0xf5, 0x1b,
            0x1f, 0x3c, 0xf4, 0x67, 0x84, 0x3c, 0x79, 0x27, 0x92, 0xbc,
            0xe1, 0x4b, 0x78, 0x3c, 0x93, 0x03, 0xa1, 0x3c, 0x55, 0x37,
            0xb3, 0x3d, 0xb5, 0x0b, 0x8c, 0xbc, 0xf1, 0x49, 0xd2, 0xbd,
            0xca, 0xca, 0xba, 0xbc, 0x7e, 0x58, 0x80, 0x3c, 0x00, 0xc7,
            0x39, 0xbc, 0xa1, 0xb2, 0xb4, 0x3c, 0xb0, 0xd0, 0x8a, 0xbd,
            0x9b, 0xbd, 0x6f, 0xbc, 0x7f, 0x1c, 0xc1, 0xbd, 0x5b, 0x2f,
            0x87, 0xbd, 0xb1, 0xaa, 0x8e, 0x3d, 0xfa, 0xa0, 0x42, 0xbc,
            0xff, 0x12, 0xab, 0x3b, 0x0a, 0xdb, 0x4a, 0xbd, 0x7a, 0x99,
            0x29, 0x3c, 0x14, 0xc5, 0x90, 0xbd, 0xb1, 0x28, 0x82, 0xbb,
            0x22, 0x19, 0x26, 0xbd, 0xab, 0x5f, 0xa8, 0xbc, 0x21, 0x81,
            0x30, 0xbd, 0xfb, 0xb4, 0xd0, 0xbc, 0x3f, 0xbf, 0x74, 0xbd,
            0x27, 0x82, 0x70, 0xbd, 0x26, 0xba, 0x5d, 0x3d, 0xfe, 0x51,
            0x53, 0x3d, 0xec, 0x89, 0x41, 0xbe, 0x21, 0x1b, 0xfa, 0xbd,
            0xed, 0x50, 0x99, 0x3c, 0x92, 0x8d, 0x0b, 0xbd, 0x74, 0x48,
            0xa8, 0xbc, 0x9c, 0xc9, 0xb9, 0x3d, 0xda, 0xdd, 0xd6, 0xbd,
            0xf9, 0x14, 0x20, 0xbd, 0x2f, 0x39, 0xad, 0xbd, 0x94, 0x59,
            0x16, 0xbe, 0xd3, 0xdd, 0x3f, 0xbc, 0x86, 0xb4, 0xb9, 0x3c,
            0x69, 0xe0, 0xf2, 0x3d, 0x7f, 0x46, 0xcd, 0xbd, 0xd0, 0xfe,
            0xcd, 0x3c, 0x23, 0x90, 0xc6, 0xbc, 0x54, 0x67, 0x18, 0xbd,
            0xa4, 0x2a, 0xe4, 0x3c, 0xaa, 0x0e, 0xa3, 0x3c, 0x28, 0xfd,
            0xa3, 0x3d, 0x85, 0x65, 0xd1, 0xbf, 0xe1, 0xbd, 0x29, 0x3d,
            0x41, 0x86, 0x36, 0xbf, 0xc3, 0xc5, 0xb8, 0x3e, 0x13, 0x49,
            0xca, 0x3f, 0x29, 0x89, 0x14, 0x3d, 0xdd, 0x5b, 0x07, 0x40,
            0x78, 0xcf, 0x22, 0xc0, 0x55, 0xb0, 0xcb, 0xbf, 0x58, 0x50,
            0x2c, 0x3f, 0xb1, 0x7e, 0xfd, 0xbe, 0x72, 0x04, 0x5f, 0x40,
            0xc9, 0xa1, 0x10, 0x40, 0x68, 0xb8, 0xb9, 0xbd, 0xe8, 0x64,
            0x96, 0x3f, 0x90, 0xd0, 0x5d, 0x3f, 0xa0, 0x18, 0xc0, 0xbd,
            0xac, 0xff, 0xe1, 0xbf, 0x82, 0x6e, 0x0e, 0x40, 0x4f, 0x4e,
            0xd6, 0x3e, 0x40, 0x7e, 0xc8, 0x3f, 0x20, 0x67, 0xb8, 0xbf,
            0x5b, 0x36, 0x59, 0x3f, 0xb3, 0x01, 0x3d, 0x3f, 0xd0, 0x28,
            0x9b, 0xbe, 0x7a, 0xd4, 0x5a, 0x40, 0x82, 0xc0, 0x01, 0x3f,
            0x61, 0x49, 0xa8, 0x3f, 0x9c, 0xbe, 0x11, 0xbf, 0x18, 0x9d,
            0x2b, 0x3e, 0x79, 0x81, 0xff, 0x3e, 0x15, 0xe8, 0xbf, 0x3e,
            0x08, 0x1f, 0x0d, 0xc0, 0xa4, 0x19, 0xfc, 0x3f, 0xf1, 0x14,
            0x1e, 0x3f, 0x95, 0x53, 0x2d, 0x3e, 0x30, 0xac, 0x50, 0xc0,
            0x0a, 0x3e, 0xdd, 0x3e, 0x32, 0xae, 0x2e, 0xbf, 0xc8, 0x17,
            0x2d, 0x3f, 0x57, 0xac, 0xcf, 0xbf, 0xb5, 0xc2, 0x8b, 0xbf,
            0x37, 0x0f, 0x5d, 0xc0, 0x03, 0x53, 0xa5, 0x3f, 0x6a, 0x03,
            0x3b, 0x3e, 0x83, 0x4f, 0xb8, 0x3f, 0x25, 0x80, 0xae, 0x3e,
            0x4c, 0x37, 0x09, 0xc0, 0x55, 0x23, 0x8e, 0x3f, 0xa4, 0x82,
            0xd4, 0xbf, 0x39, 0xb2, 0x00, 0x3f, 0xf2, 0xce, 0xbd, 0xbe,
            0x6f, 0x5d, 0xf0, 0x3f, 0x85, 0xf5, 0x8e, 0x3f, 0x99, 0x9d,
            0xc3, 0x3f, 0xbc, 0xbe, 0xc0, 0x3c, 0xe9, 0x51, 0x1b, 0xc0,
            0xd7, 0xf6, 0x34, 0xbf, 0x7b, 0xa8, 0x0b, 0x40, 0xce, 0x66,
            0x98, 0x3e, 0xcf, 0xed, 0x4d, 0x3e, 0xfe, 0x32, 0x49, 0xc0,
            0xe7, 0xcb, 0xc0, 0x3f, 0xeb, 0x36, 0xd1, 0xbe, 0xd1, 0xa3,
            0xd4, 0x3b, 0x50, 0x4e, 0x3d, 0x3f, 0x6c, 0xa5, 0x9b, 0x3d,
            0x66, 0xc6, 0xa0, 0xbe, 0x8b, 0x62, 0x47, 0xbf, 0x97, 0x22,
            0x63, 0xbf, 0xfc, 0x57, 0x27, 0xbf, 0x86, 0x0a, 0x71, 0xbe,
            0x56, 0x25, 0x85, 0xbf, 0x70, 0x21, 0x39, 0x3f, 0xe5, 0x7d,
            0xb7, 0xbe, 0xd3, 0xd0, 0x94, 0x3d, 0x4f, 0x77, 0x29, 0xbe,
            0xdf, 0xbb, 0x93, 0x3e, 0xbb, 0x08, 0x32, 0xbe, 0x73, 0xc6,
            0x1b, 0xbd, 0xd5, 0xb9, 0x1c, 0xbf, 0xcb, 0x95, 0x88, 0x3e,
            0xfb, 0x62, 0x73, 0x3f, 0x49, 0x3a, 0x20, 0x3f, 0x12, 0x83,
            0x32, 0xbd, 0x8c, 0x9b, 0xb4, 0x3e, 0x04, 0x41, 0x0b, 0xbe,
            0xc7, 0xa8, 0xfc, 0x3e, 0x4b, 0x9c, 0x03, 0xbf, 0x49, 0xcd,
            0x14, 0x3e, 0x6e, 0x71, 0xf0, 0x3e, 0x2e, 0x23, 0x99, 0x3e,
            0xbb, 0xda, 0xbf, 0x3d, 0xb2, 0xfd, 0x61, 0xbf, 0xe8, 0x35,
            0xf0, 0x3c, 0x76, 0xf3, 0xbc, 0xbe, 0x4a, 0xab, 0x4b, 0x3e,
            0xaf, 0x79, 0xfe, 0xbd, 0xbb, 0x5d, 0x1d, 0x3f, 0x4f, 0x0b,
            0x57, 0xbf, 0x3b, 0xb8, 0x4a, 0xbf, 0x4f, 0x91, 0x34, 0xbe,
            0x1f, 0x78, 0xbd, 0xbe, 0xe7, 0x36, 0x98, 0x3d, 0x4d, 0x68,
            0xa2, 0xbe, 0xe6, 0xae, 0x50, 0xbd, 0x39, 0x5b, 0xc9, 0x3e,
            0x04, 0x06, 0x75, 0x3f, 0x0e, 0x72, 0x0f, 0xbf, 0x02, 0xbe,
            0x72, 0xbd, 0x21, 0xfc, 0xde, 0xbe, 0x8a, 0x2f, 0x27, 0x3f,
            0xee, 0x22, 0xf8, 0x3d, 0xcb, 0x71, 0xd5, 0xbe, 0x8f, 0xe8,
            0x29, 0x3d, 0x08, 0x46, 0xb9, 0x3e, 0x59, 0x5b, 0xc6, 0x3e,
            0xe5, 0x2c, 0x82, 0xbd, 0x4b, 0x0c, 0x1a, 0x3e, 0x57, 0xd7,
            0x50, 0xbf, 0xe1, 0x79, 0x89, 0x3e, 0xb3, 0x21, 0xb4, 0x3d,
            0xd5, 0x0e, 0xd3, 0xbd, 0x2f, 0x23, 0x23, 0x3f, 0x31, 0x33,
            0xfa, 0xbd, 0x03, 0x90, 0x03, 0xbf, 0x93, 0xc8, 0x17, 0x3e,
            0x0a, 0xd7, 0xda, 0xbd, 0x5d, 0x19, 0xdc, 0x3d, 0x3c, 0x98,
            0xad, 0xbf, 0xc4, 0x1d, 0x84, 0x3e, 0x79, 0xe2, 0x1f, 0xbd,
            0x9a, 0xd2, 0x76, 0x3e, 0xf9, 0x93, 0x43, 0xbe, 0x44, 0x2d,
            0x07, 0x3f, 0xb4, 0x3f, 0x00, 0xbf, 0x55, 0xb7, 0x1b, 0x3f,
            0x77, 0x8d, 0x6c, 0xbf, 0x07, 0x33, 0xf7, 0x3e, 0x45, 0x82,
            0xee, 0x3e, 0x45, 0xbf, 0x6b, 0xbf, 0xc6, 0x1f, 0xe0, 0x3e,
            0x8c, 0xc6, 0x7d, 0x3e, 0xdf, 0x69, 0x94, 0x3d, 0x9e, 0xf0,
            0xe9, 0xbe, 0x64, 0xbd, 0x65, 0x3e, 0xcf, 0xef, 0xce, 0x3d,
            0x4e, 0x8e, 0x0f, 0x3e, 0x1c, 0x92, 0x13, 0x3e, 0x09, 0x01,
            0x2d, 0xbf, 0x19, 0x27, 0xeb, 0xbd, 0xca, 0xe7, 0x2f, 0xbf,
            0xed, 0xc2, 0xdb, 0xbc, 0xca, 0x14, 0xa8, 0x3e, 0xfe, 0x4d,
            0xa2, 0x3f, 0x00, 0xe5, 0x0c, 0x40, 0x04, 0x75, 0xc7, 0xbe,
            0x6c, 0xfe, 0xa4, 0xbe, 0x88, 0x93, 0xdf, 0x3e, 0xb0, 0x86,
            0xcc, 0xbe, 0x0c, 0x04, 0x10, 0xbf, 0xf1, 0x9b, 0x72, 0xbc,
            0xec, 0xcc, 0x84, 0xbe, 0x9c, 0xab, 0x67, 0xbe, 0x2d, 0x1b,
            0x55, 0xbe, 0x54, 0xa0, 0x11, 0x3f, 0xda, 0x83, 0x80, 0xbe,
            0x3f, 0x91, 0xab, 0xbe, 0xb6, 0xb0, 0x4c, 0x3f, 0xbb, 0x76,
            0xa0, 0xbe, 0x8d, 0x7d, 0xee, 0xbd, 0xff, 0x13, 0x5b, 0xbe,
            0x0e, 0x95, 0x27, 0xbe, 0x3e, 0x16, 0xe7, 0x3e, 0xa6, 0xa3,
            0xaa, 0x3c, 0x5d, 0xdf, 0x37, 0x3d, 0x33, 0x5b, 0xc4, 0xbe,
            0x63, 0xb5, 0xcd, 0xbc, 0xaa, 0xa5, 0x5c, 0xbe, 0x86, 0x12,
            0xb9, 0x3e, 0x69, 0xc5, 0x52, 0x3d, 0xca, 0x0d, 0xdb, 0x3e,
            0x67, 0xf7, 0xfb, 0x3e, 0xbe, 0x0c, 0xcc, 0xbe, 0x19, 0x33,
            0x2c, 0x3d, 0xbf, 0x95, 0x2b, 0x3f, 0xc2, 0x80, 0x09, 0xbf,
            0x14, 0xfa, 0x3a, 0xbf, 0x63, 0xb1, 0xcc, 0x3e, 0xa1, 0x8a,
            0x24, 0x3e, 0x2a, 0xd1, 0xa5, 0xbf, 0x0c, 0x0a, 0x11, 0xbf,
            0x98, 0xdb, 0x87, 0x3f, 0xdd, 0xdf, 0x80, 0xbf, 0x98, 0xe1,
            0x5d, 0xbf, 0xe2, 0x5c, 0x86, 0x3e, 0xbc, 0x48, 0x47, 0xbe,
            0xbd, 0xec, 0xf6, 0x3e, 0x01, 0xc5, 0x08, 0xbf, 0xf0, 0x0c,
            0x10, 0xbe, 0xf3, 0xef, 0x6b, 0x3e, 0xc9, 0xed, 0xcd, 0xbe,
            0x72, 0x62, 0xf8, 0x3e, 0xfa, 0x3b, 0xc7, 0xbe, 0x32, 0x55,
            0x39, 0x3e, 0xfd, 0xd3, 0x0d, 0x3d, 0x1f, 0xb8, 0x07, 0xbf,
            0x77, 0xca, 0xd1, 0xbe, 0x60, 0x13, 0x22, 0xbe, 0x85, 0xb6,
            0x12, 0x3f, 0x6f, 0xb7, 0x47, 0xbe, 0x63, 0xca, 0x29, 0xbf,
            0xd6, 0x49, 0xea, 0x3b, 0xc6, 0x52, 0x7b, 0xbe, 0x4f, 0x55,
            0xe7, 0xbe, 0x0b, 0x2a, 0x86, 0x3e, 0x3c, 0x7e, 0xb5, 0x3d,
            0xa3, 0xe2, 0xa4, 0x3e, 0x7f, 0x22, 0x18, 0x3f, 0xed, 0x1f,
            0x90, 0xbf, 0xf5, 0xd9, 0xb2, 0x3e, 0x85, 0xd2, 0x1c, 0xbf,
            0x07, 0x88, 0x17, 0xbf, 0x3d, 0x03, 0x30, 0xbf, 0x3d, 0x1a,
            0xac, 0xbe, 0xb4, 0xf3, 0xa9, 0x3e, 0xf2, 0x53, 0x9e, 0xbe,
            0x12, 0x85, 0x91, 0xbf, 0x60, 0xf7, 0x23, 0xbf, 0x7a, 0x2a,
            0xb6, 0xbd, 0xa9, 0xa6, 0x27, 0xbf, 0x71, 0x88, 0x33, 0xbf,
            0xb0, 0x48, 0x99, 0xbd, 0x47, 0x2f, 0x0e, 0xbe, 0x3d, 0xac,
            0x62, 0xbf, 0x4e, 0xc9, 0x40, 0xbf, 0xd6, 0xb5, 0x9a, 0xbe,
            0x6a, 0xe5, 0x33, 0xbb, 0x39, 0x9e, 0x05, 0x3f, 0x23, 0xbc,
            0xa4, 0x3e, 0xb7, 0xdb, 0x97, 0xbd, 0xf6, 0xd5, 0xd9, 0x3e,
            0x57, 0x91, 0x35, 0x3d, 0x4a, 0xcb, 0x90, 0xbe, 0x43, 0x1a,
            0x25, 0x3f, 0x53, 0x44, 0xa2, 0xbe, 0x76, 0x89, 0xfb, 0x3e,
            0x28, 0x4f, 0x7a, 0xbe, 0x15, 0x23, 0x53, 0xbe, 0x19, 0x85,
            0xf4, 0x3d, 0x6d, 0x3f, 0x83, 0xbe, 0x42, 0x42, 0xcf, 0xbc,
            0x5f, 0x32, 0x63, 0xbe, 0x4c, 0xd0, 0xd7, 0x3e, 0xc8, 0x93,
            0x44, 0x3e, 0x91, 0x1b, 0xa9, 0xbe, 0xd9, 0xac, 0x27, 0xbf,
            0xc5, 0x91, 0x86, 0x3e, 0x96, 0x74, 0x1c, 0xbe, 0x2f, 0xea,
            0xad, 0xbd, 0xc3, 0x61, 0x19, 0x3f, 0x11, 0xb9, 0xd4, 0x3e,
            0x39, 0xe9, 0x89, 0xbb, 0xd8, 0x6a, 0x5b, 0xbe, 0xce, 0xaa,
            0x34, 0x3f, 0x8a, 0x96, 0xd7, 0xbd, 0xae, 0xa7, 0xbb, 0x3e,
            0x1d, 0x28, 0x09, 0x3e, 0x91, 0xa8, 0xb1, 0x3e, 0xb2, 0x4b,
            0x3d, 0xbe, 0xea, 0x8d, 0xaf, 0x3e, 0x3a, 0x50, 0x9b, 0x3e,
            0x51, 0x1a, 0x14, 0x3e, 0x84, 0x7a, 0xec, 0xbe, 0xca, 0xbd,
            0xb6, 0x3d, 0xba, 0xd3, 0x2f, 0x3f, 0xc2, 0x68, 0x4d, 0xbe,
            0x10, 0x7b, 0xeb, 0xbd, 0x32, 0xb1, 0x30, 0xbf, 0x9e, 0xed,
            0xd8, 0xbd, 0x66, 0xe3, 0xed, 0x3e, 0x51, 0x66, 0xc9, 0x3e,
            0x2e, 0x80, 0xc4, 0xbe, 0x3f, 0x2b, 0x60, 0xbc, 0xc8, 0x1d,
            0xe2, 0xbe, 0x1d, 0x69, 0x0d, 0x3c, 0x92, 0xba, 0x9f, 0xbe,
            0x8c, 0x0e, 0x85, 0xbe, 0xcd, 0xcf, 0xe4, 0x3e, 0x07, 0xec,
            0x8a, 0x3d, 0x29, 0xeb, 0x8c, 0xbe, 0x7b, 0x29, 0x9e, 0xbe,
            0x8d, 0x28, 0x0c, 0x3d, 0x79, 0xea, 0x96, 0xbe, 0xef, 0x33,
            0x44, 0x3e, 0x22, 0x74, 0x89, 0xbe, 0x86, 0x5a, 0x26, 0x3e,
            0xd0, 0xeb, 0x6f, 0xbe, 0x35, 0xae, 0x8d, 0x3d, 0x34, 0xfe,
            0x0a, 0x3d, 0x93, 0x01, 0xbe, 0xbe, 0x50, 0x87, 0xae, 0x3c,
            0x26, 0x01, 0x11, 0x3e, 0xe5, 0xe9, 0xa7, 0xbe, 0x92, 0xed,
            0xfd, 0x3e, 0x46, 0xb6, 0xe2, 0xbc, 0x19, 0x16, 0xa6, 0x3d,
            0x33, 0xda, 0x96, 0xbd, 0x25, 0xd7, 0x5c, 0x3e, 0xb5, 0xd4,
            0x0e, 0x3e, 0x8c, 0x24, 0x63, 0x3d, 0x1b, 0x69, 0xfc, 0xbd,
            0x6b, 0x3d, 0xd9, 0x3b, 0xc4, 0xaa, 0x20, 0xbf, 0x4d, 0x2d,
            0xcf, 0x3e, 0x1c, 0x2a, 0xda, 0x3e, 0x87, 0x72, 0x3e, 0x3f,
            0xcc, 0x14, 0x12, 0x3e, 0x35, 0x83, 0x3f, 0x3e, 0xf9, 0x93,
            0x08, 0x3e, 0x88, 0xef, 0x4e, 0x3f, 0x0c, 0xa5, 0xa8, 0xbe,
            0x08, 0xcb, 0xbb, 0xbe, 0x9d, 0x8b, 0x96, 0x3e, 0xde, 0x61,
            0x83, 0x3d, 0x73, 0x7e, 0x84, 0xbd, 0xce, 0xb1, 0xa2, 0x3e,
            0x7a, 0x9b, 0xa9, 0xbe, 0x66, 0xb8, 0xae, 0xbf, 0x81, 0xa5,
            0x07, 0x3e, 0xc1, 0xbd, 0x45, 0xbe, 0xc1, 0x52, 0xf3, 0x3c,
            0xab, 0xb0, 0xf3, 0x3d, 0xb6, 0x71, 0x60, 0xbe, 0xc7, 0x90,
            0xb4, 0x3e, 0xf1, 0xe4, 0xaa, 0xbd, 0x86, 0xeb, 0x68, 0xbd,
            0x38, 0xe3, 0x1a, 0xbe, 0x9d, 0xcb, 0xb3, 0x3c, 0x39, 0x46,
            0x9a, 0xbe, 0x65, 0xb4, 0x81, 0x3e, 0xfa, 0xd3, 0x4a, 0xbe,
            0xbd, 0xa6, 0xfd, 0x3e, 0xa5, 0x65, 0x10, 0xbf, 0x05, 0x53,
            0xda, 0x3c, 0xf6, 0x3e, 0x4c, 0x3e, 0x68, 0xe1, 0x08, 0x3f,
            0x17, 0x48, 0x10, 0x3f, 0x34, 0xa9, 0xcd, 0xbe, 0x30, 0x6f,
            0xcb, 0xbe, 0xc7, 0x07, 0x03, 0x3f, 0x9e, 0x09, 0xbd, 0xbd,
            0xd6, 0xb9, 0x0f, 0x3d, 0x2a, 0x44, 0x6e, 0x3b, 0x6a, 0x8f,
            0xa0, 0xbe, 0xb0, 0x9a, 0xd2, 0xbd, 0x5d, 0x69, 0xbb, 0xbe,
            0x87, 0x13, 0x5f, 0xbe, 0x55, 0x39, 0x1c, 0x3c, 0x75, 0x7a,
            0x69, 0xbf, 0xd6, 0x29, 0x2d, 0x3f, 0xee, 0xb1, 0xc5, 0xbd,
            0x05, 0x30, 0x35, 0x3f, 0xc2, 0x5f, 0x31, 0xbf, 0x8f, 0xe3,
            0x4b, 0xbf, 0x2d, 0x27, 0x46, 0xbe, 0xe4, 0xaa, 0x06, 0x3f,
            0x39, 0x29, 0x7e, 0x3e, 0x6a, 0x1b, 0x75, 0xbf, 0xc1, 0x5b,
            0x56, 0x3e, 0xb3, 0x20, 0xb2, 0xbd, 0x6b, 0x54, 0x32, 0xbf,
            0xde, 0x3c, 0x19, 0x3f, 0x2d, 0x3d, 0xb1, 0x3d, 0xc7, 0x9a,
            0xc0, 0x3a, 0xd3, 0xcb, 0xca, 0x3e, 0x31, 0x0c, 0x40, 0xbf,
            0x2f, 0x0e, 0xb6, 0x3e, 0x7b, 0x4c, 0x60, 0xbe, 0x73, 0x23,
            0x3d, 0xbe, 0x71, 0x31, 0x82, 0x3d, 0x58, 0x7a, 0x23, 0x3e,
            0x61, 0xc2, 0x81, 0x38, 0x1a, 0xdc, 0xa0, 0xbe, 0xaf, 0xdc,
            0x5d, 0xbf, 0x16, 0xe1, 0x37, 0xbd, 0xa0, 0xff, 0x2b, 0x3e,
            0xa0, 0x1f, 0xa7, 0xbe, 0xa1, 0xb5, 0x4e, 0x3f, 0xd0, 0xdd,
            0xc5, 0x3e, 0x40, 0xd4, 0x37, 0xbf, 0xf5, 0xf9, 0xc6, 0x3e,
            0xd3, 0xd5, 0x42, 0xbe, 0xc5, 0xe4, 0x10, 0xbe, 0xac, 0x3c,
            0xef, 0xbe, 0x4e, 0x07, 0xa7, 0xbd, 0x36, 0x2a, 0x58, 0xbe,
            0x81, 0x9d, 0x4c, 0xbf, 0x5f, 0x50, 0xd3, 0x3f, 0x33, 0x79,
            0xaa, 0xbd, 0x40, 0xa7, 0xec, 0xbe, 0x4d, 0x79, 0xf8, 0x3e,
            0x4e, 0x34, 0x01, 0xbf, 0xf1, 0x7f, 0x81, 0x3d, 0x4d, 0xd6,
            0xd2, 0x3d, 0x66, 0x01, 0x86, 0x3e, 0xb5, 0x3f, 0x6f, 0x3e,
            0x7b, 0x0f, 0x97, 0x3d, 0xaf, 0x38, 0xd4, 0xbd, 0xf5, 0x36,
            0x5d, 0xbf, 0x65, 0x5e, 0xb2, 0x3d, 0xee, 0xef, 0x57, 0xbf,
            0x13, 0x72, 0x87, 0xbe, 0xb4, 0x90, 0x84, 0xbf, 0x86, 0xc8,
            0x8e, 0xbe, 0x69, 0x6b, 0x17, 0xbd, 0x59, 0x8f, 0x81, 0xbe,
            0x32, 0x0f, 0x29, 0xbf, 0x8d, 0xe9, 0xae, 0xbd, 0xeb, 0xcb,
            0xbd, 0xbd, 0x29, 0xa4, 0x55, 0x3c, 0xe2, 0x19, 0x4c, 0x3f,
            0x9f, 0xea, 0xb4, 0x3e, 0x6c, 0x28, 0x8d, 0xbf, 0xf9, 0x21,
            0x3f, 0xbe, 0x52, 0x3e, 0xd8, 0x3e, 0x68, 0x51, 0x18, 0x3f,
            0x22, 0x37, 0x49, 0xbf, 0x59, 0x56, 0x39, 0xbe, 0xe2, 0x65,
            0x04, 0xbf, 0xf8, 0xde, 0xab, 0x3e, 0x15, 0xd4, 0xf6, 0x3e,
            0xd2, 0x15, 0xc7, 0xbe, 0x17, 0x8b, 0x5c, 0xbd, 0x29, 0x48,
            0x01, 0xbe, 0x73, 0xe9, 0x60, 0xbe, 0x84, 0xf8, 0x26, 0xbf,
            0xf0, 0xe8, 0x31, 0xbf, 0x84, 0x14, 0x82, 0xbe, 0xaa, 0x30,
            0xc9, 0xbe, 0x1e, 0xa2, 0x46, 0xbf, 0x2f, 0x8c, 0xa3, 0xbd,
            0xa5, 0xb2, 0x0c, 0xbf, 0x70, 0x67, 0x04, 0xbd, 0xac, 0x3f,
            0xc2, 0xbe, 0xa1, 0x09, 0x2e, 0xbe, 0xe3, 0x44, 0xfa, 0xbe,
            0x74, 0xea, 0x0e, 0x3f, 0x11, 0xbb, 0x7d, 0x3e, 0x5d, 0x88,
            0x27, 0xbe, 0xed, 0x91, 0xa2, 0x3b, 0x51, 0xd2, 0xe2, 0xbe,
            0xf4, 0xed, 0xe7, 0x3d, 0x52, 0xa4, 0x1c, 0x3f, 0xff, 0x1f,
            0x9d, 0xbd, 0xfc, 0x7a, 0x31, 0x3d, 0x06, 0xc2, 0x9b, 0x3e,
            0x6f, 0x40, 0x4b, 0xbf, 0x07, 0xea, 0xf1, 0x3d, 0x77, 0xa0,
            0x1f, 0x3e, 0x43, 0xaf, 0xdf, 0x3e, 0x05, 0x6a, 0x3b, 0x3e,
            0xfa, 0x53, 0x4c, 0xbf, 0x50, 0x89, 0x61, 0xbe, 0xe7, 0xe7,
            0xef, 0xbe, 0x51, 0xe5, 0xf0, 0x3e, 0xca, 0xc1, 0xa1, 0x3e,
            0xd1, 0x5e, 0xc6, 0x3d, 0x8c, 0x82, 0xf6, 0x3d, 0x97, 0x8a,
            0x3f, 0xbe, 0x66, 0x22, 0x88, 0xbc, 0x1f, 0xf5, 0xcf, 0x3e,
            0x6f, 0x77, 0xc9, 0xbd, 0x01, 0xba, 0xa2, 0xbe, 0xdf, 0x4b,
            0xe6, 0x3e, 0x0e, 0x78, 0x0e, 0xbf, 0x3e, 0x60, 0x29, 0xbe,
            0xd1, 0x7c, 0xc3, 0xbe, 0xb2, 0x83, 0xe3, 0xbd, 0xdf, 0xe3,
            0x4b, 0xbe, 0x3c, 0x33, 0xdf, 0xbd, 0x30, 0x73, 0x98, 0x3e,
            0x92, 0x92, 0x80, 0x3e, 0x13, 0xcd, 0x95, 0x3e, 0xb2, 0x16,
            0x44, 0xbe, 0xa5, 0x1f, 0xcf, 0xbc, 0xc9, 0x41, 0x26, 0xbf,
            0xd5, 0x5b, 0xee, 0x3d, 0xf6, 0x28, 0x82, 0x3e, 0x2a, 0x4b,
            0x65, 0xbe, 0x2c, 0x8d, 0xb6, 0x3e, 0x37, 0xed, 0x14, 0xbf,
            0x89, 0xa8, 0xf6, 0xbe, 0x88, 0xa7, 0x25, 0xbe, 0xbe, 0xdd,
            0x88, 0x3e, 0x94, 0xd1, 0x05, 0x3e, 0x99, 0xa9, 0xaf, 0xbf,
            0x10, 0x10, 0x1e, 0xbe, 0x33, 0x48, 0x60, 0xbe, 0x77, 0x4c,
            0x8f, 0x3e, 0x04, 0x62, 0x36, 0xbe, 0xd3, 0x0f, 0x15, 0x3f,
            0xc9, 0xe3, 0x03, 0x3f, 0xbf, 0x65, 0xfa, 0xbe, 0x49, 0x6f,
            0x07, 0xbd, 0x42, 0xeb, 0x74, 0x3f, 0x53, 0xbc, 0xbc, 0x3e,
            0xf3, 0xe8, 0xdc, 0xbe, 0x4b, 0x37, 0x11, 0xbe, 0x16, 0xdc,
            0x70, 0xbe, 0xe3, 0x32, 0xc0, 0x3e, 0x71, 0xb9, 0x5e, 0xbe,
            0xe3, 0x0d, 0xe0, 0x3e, 0xc4, 0x5c, 0x08, 0x3f, 0xd3, 0xee,
            0xae, 0x3d, 0x5b, 0xc3, 0x35, 0xbe, 0xf0, 0x74, 0x01, 0xbe,
            0xb9, 0xb5, 0x01, 0xbf, 0xfc, 0xf1, 0x4c, 0xbe, 0x59, 0x8f,
            0xef, 0x3c, 0x15, 0xf2, 0x6d, 0xbd, 0xf8, 0xa0, 0xcf, 0x3e,
            0xc3, 0xec, 0x89, 0xbe, 0xa2, 0xef, 0x81, 0x3e, 0x7a, 0xe4,
            0x88, 0xbe, 0x7b, 0x63, 0x94, 0xbe, 0x7a, 0x55, 0xc8, 0x3e,
            0xbe, 0xdb, 0xd8, 0xbe, 0x6a, 0x70, 0x9e, 0xbd, 0x95, 0xed,
            0xc0, 0x3e, 0x0e, 0x14, 0xe7, 0x3e, 0xda, 0xe1, 0xe4, 0xbe,
            0xbd, 0xe8, 0x17, 0xbb, 0xbb, 0xbb, 0x1d, 0xbe, 0x01, 0x0e,
            0x56, 0x3e, 0xbc, 0x04, 0x8e, 0x3d, 0x05, 0x82, 0x1d, 0xbd,
            0x97, 0x79, 0x79, 0x3f, 0xa0, 0xd2, 0xe9, 0xbd, 0xe5, 0x56,
            0x86, 0xbe, 0xfa, 0x3f, 0xcf, 0x3e, 0xb7, 0xe7, 0x09, 0x3f,
            0x66, 0xdf, 0x20, 0xbe, 0x0b, 0x38, 0x9a, 0x3d, 0x27, 0xf0,
            0xa7, 0x3e, 0x15, 0x05, 0xa5, 0xbe, 0x52, 0x08, 0x0a, 0x3e,
            0x2c, 0x70, 0xe4, 0x3e, 0x3c, 0x70, 0x83, 0xbe, 0xdd, 0x16,
            0xf7, 0x3d, 0x90, 0x55, 0xb9, 0xbb, 0xa7, 0x03, 0xe9, 0x3e,
            0xe5, 0xc7, 0x12, 0xbe, 0x07, 0x61, 0xfa, 0x3e, 0xf2, 0x70,
            0xbe, 0xbe, 0x4c, 0x36, 0x54, 0x3e, 0xc0, 0x65, 0x83, 0x3e,
            0x97, 0x73, 0xbd, 0x3d, 0x1d, 0x6a, 0xfe, 0xbb, 0x0b, 0x2a,
            0x60, 0xbe, 0x2c, 0x95, 0x15, 0x3f, 0x45, 0x6b, 0xf2, 0x3d,
            0x94, 0x8b, 0xda, 0x3d, 0xa8, 0xfd, 0xb3, 0xbc, 0xb0, 0x80,
            0x55, 0xbe, 0x35, 0xa4, 0xfe, 0xbd, 0x71, 0x21, 0x51, 0x3e,
            0xf9, 0xe7, 0xa2, 0xbc, 0x57, 0xf2, 0xf5, 0x3e, 0x9a, 0xf8,
            0x73, 0xbe, 0x6d, 0x18, 0xfc, 0xbe, 0x22, 0x47, 0xac, 0xbe,
            0xc8, 0x7e, 0x52, 0xbd, 0x1d, 0xd2, 0x72, 0xbe, 0xbf, 0xde,
            0x67, 0xbe, 0x62, 0xc2, 0x7e, 0xbc, 0x74, 0xcd, 0x2b, 0xbe,
            0x6a, 0xfe, 0x8c, 0xbf, 0x5e, 0x50, 0x98, 0x3e, 0x58, 0xf4,
            0x40, 0x3e, 0x27, 0x99, 0x1e, 0x3f, 0xa1, 0xbd, 0xe7, 0xbe,
            0xa0, 0xfb, 0x4e, 0xbf, 0xb8, 0xdf, 0xd3, 0x3f, 0x95, 0xac,
            0x38, 0x3f, 0xdb, 0x42, 0xed, 0x3d, 0xf3, 0xd0, 0xaf, 0xbe,
            0x82, 0x1d, 0x43, 0xbf, 0xcc, 0x65, 0x67, 0xbf, 0xc3, 0x84,
            0x5e, 0x3f, 0x85, 0xd4, 0xb1, 0xbe, 0x1d, 0x01, 0x14, 0xbd,
            0xd3, 0x74, 0xc0, 0x3e, 0x76, 0x88, 0x0e, 0x3c, 0x0b, 0xff,
            0x5c, 0xbe, 0x87, 0xd9, 0x05, 0xbf, 0x38, 0x01, 0x1c, 0xbf,
            0xf7, 0x60, 0x1b, 0xbf, 0x84, 0x00, 0x4e, 0xbe, 0xf3, 0x04,
            0xa3, 0x3e, 0x34, 0x38, 0x4d, 0xbd, 0xb3, 0xd4, 0x09, 0x3f,
            0xd3, 0x01, 0xb3, 0x3e, 0xbe, 0x14, 0x2d, 0x3f, 0x16, 0x4d,
            0x93, 0x3f, 0xb2, 0x5b, 0x92, 0x3e, 0x43, 0x75, 0x9b, 0xbe,
            0xb9, 0xf1, 0x01, 0xbf, 0xe1, 0xb5, 0xce, 0xbd, 0xe8, 0x2b,
            0x1d, 0xbd, 0x52, 0x97, 0x36, 0xbf, 0xd7, 0x5c, 0xeb, 0xbe,
            0x3d, 0xb3, 0x77, 0x3e, 0xd6, 0x65, 0x1b, 0xbe, 0x64, 0x87,
            0x5a, 0x3c, 0x74, 0xcb, 0x5b, 0xbf, 0xac, 0x98, 0x89, 0xbe,
            0x17, 0x51, 0x88, 0xbe, 0x81, 0xa3, 0xfe, 0xbe, 0x3d, 0xd6,
            0x01, 0x3f, 0x24, 0xb0, 0x84, 0x3e, 0x44, 0x7b, 0x4c, 0x3f,
            0xc3, 0xca, 0x56, 0x3e, 0xa4, 0x97, 0x99, 0x3e, 0x40, 0x27,
            0x57, 0x3e, 0x3f, 0x8d, 0xdd, 0xbe, 0xdd, 0xe9, 0xcb, 0xbd,
            0x43, 0xf5, 0xb1, 0x3e, 0xc9, 0x16, 0x88, 0x3e, 0xbc, 0x99,
            0x19, 0xbf, 0xaa, 0x89, 0x69, 0xbd, 0x74, 0x94, 0xb4, 0xbe,
            0x20, 0x82, 0xeb, 0x3e, 0x24, 0x2c, 0x4a, 0x3e, 0x9d, 0x2b,
            0x62, 0xbe, 0xad, 0xaa, 0x34, 0x3e, 0x0a, 0x6f, 0x81, 0xbf,
            0x70, 0x02, 0x3d, 0x3e, 0x74, 0x5a, 0x07, 0xbe, 0x57, 0x7e,
            0x4b, 0xbe, 0x22, 0x54, 0x0f, 0x3f, 0xbe, 0x11, 0xb4, 0xbe,
            0x30, 0x4e, 0x30, 0xbf, 0xbc, 0x95, 0xbf, 0x3e, 0xeb, 0x03,
            0x6f, 0x3e, 0xdf, 0x6b, 0x83, 0xbc, 0x44, 0xc6, 0x11, 0xbe,
            0xeb, 0x18, 0x7a, 0x3f, 0x70, 0x20, 0x06, 0x3f, 0xd3, 0x84,
            0xf2, 0x3e, 0x55, 0x9c, 0x91, 0xbe, 0xa0, 0xbd, 0x03, 0x3e,
            0x33, 0xe9, 0xc5, 0x3e, 0x5d, 0x48, 0x90, 0x3e, 0x53, 0x04,
            0x96, 0xbd, 0x8e, 0xb1, 0xc3, 0xbe, 0xcb, 0x50, 0x04, 0xbe,
            0x63, 0x24, 0x9f, 0x3e, 0x06, 0xe1, 0x2d, 0x3b, 0x85, 0x13,
            0x9d, 0x3e, 0x3b, 0x91, 0x54, 0x3d, 0x27, 0x09, 0x52, 0x3b,
            0x04, 0x9c, 0xfb, 0xbd, 0x19, 0x7d, 0x1f, 0xbf, 0x14, 0x97,
            0x40, 0x3d, 0x11, 0x63, 0x41, 0xbe, 0x91, 0x6d, 0xc4, 0x3d,
            0x00, 0x39, 0x74, 0x3e, 0x07, 0x18, 0xdc, 0x3d, 0x36, 0x00,
            0xcb, 0x3e, 0x7e, 0x44, 0xe8, 0xbe, 0xaf, 0x73, 0xc9, 0x3e,
            0x31, 0x14, 0x47, 0xbf, 0x77, 0xb8, 0x2b, 0x3f, 0x46, 0x68,
            0x77, 0x3c, 0x4d, 0x8a, 0x17, 0x3e, 0x8c, 0xa2, 0x8f, 0x3e,
            0x76, 0x82, 0xc4, 0x3e, 0x92, 0x28, 0x07, 0xbe, 0x8a, 0xb3,
            0x07, 0x3f, 0xea, 0xae, 0xe6, 0x3e, 0x7b, 0x83, 0x2d, 0x3f,
            0x34, 0x53, 0x9a, 0x3d, 0xed, 0x6f, 0xdd, 0xbe, 0x0b, 0x9d,
            0xa0, 0x3e, 0x08, 0xb7, 0xe4, 0x3d, 0x76, 0x02, 0x20, 0x3e,
            0x99, 0xce, 0x87, 0x3d, 0xbb, 0x49, 0x37, 0xbf, 0x6b, 0x51,
            0x7b, 0xbc, 0xc6, 0xf4, 0x52, 0xbe, 0xe1, 0x5c, 0xd9, 0xbd,
            0x28, 0x59, 0x36, 0xbd, 0xf0, 0x28, 0x13, 0x3e, 0xa3, 0xf7,
            0xd8, 0xbd, 0x60, 0xe2, 0x97, 0x3d, 0xa6, 0x07, 0xfc, 0xbd,
            0xea, 0xd2, 0x66, 0x3e, 0xa4, 0xfe, 0x14, 0xbe, 0x49, 0x32,
            0xc4, 0xbe, 0xa9, 0xfd, 0x97, 0x3c, 0x51, 0x25, 0x43, 0x3e,
            0x5e, 0xa7, 0x8d, 0xbe, 0x1c, 0x40, 0xf1, 0x3d, 0x48, 0xe6,
            0x45, 0x3e, 0xc2, 0xa1, 0x2a, 0x3e, 0x02, 0xc7, 0x9a, 0xbd,
            0x1b, 0x5d, 0x70, 0xbd, 0xe8, 0xc0, 0xb7, 0x3e, 0xdc, 0xf5,
            0xde, 0xbe, 0x30, 0x56, 0x01, 0xbe, 0xdc, 0x65, 0x59, 0x3d,
            0x58, 0x01, 0xfc, 0x3d, 0x59, 0xf4, 0x96, 0x3e, 0xf9, 0x3b,
            0x8f, 0x3e, 0xea, 0xf8, 0x8f, 0xbd, 0x8b, 0x25, 0xb4, 0xbe,
            0x46, 0x1e, 0x1c, 0x3e, 0x8d, 0x41, 0xea, 0xbe, 0x15, 0x86,
            0x3e, 0xbc, 0x73, 0x36, 0x43, 0xbe, 0x42, 0x13, 0x83, 0xbe,
            0x21, 0x92, 0x27, 0x3e, 0x30, 0x0a, 0xdc, 0x3e, 0xf5, 0x4e,
            0x01, 0x3f, 0x65, 0x01, 0x2a, 0xbe, 0x0e, 0xea, 0x52, 0xbe,
            0xd1, 0xfe, 0x66, 0xbe, 0xd1, 0x79, 0x55, 0xbd, 0xcf, 0xe5,
            0x04, 0xbe, 0x79, 0x7c, 0xe9, 0xbd, 0xa7, 0x47, 0x3c, 0xbe,
            0x96, 0xf3, 0xe1, 0x3d, 0x3f, 0xe7, 0xc0, 0x3e, 0xaf, 0x07,
            0x9b, 0xbd, 0x22, 0xff, 0xb2, 0x3b, 0xc2, 0x0e, 0xa2, 0xbe,
            0x98, 0xe3, 0x5e, 0xbd, 0x3a, 0x4f, 0xeb, 0x3e, 0xf5, 0x4b,
            0x09, 0x3f, 0xe6, 0xaf, 0x9b, 0x3e, 0x8f, 0x15, 0x4b, 0x3e,
            0xc4, 0x44, 0x90, 0x3d, 0x19, 0xef, 0x1f, 0x3f, 0x0d, 0xeb,
            0x36, 0x3e, 0xb3, 0xc2, 0x59, 0x3e, 0x8c, 0xf2, 0x45, 0xbf,
            0x63, 0xfc, 0xa7, 0x3e, 0xae, 0x29, 0x21, 0xbe, 0x12, 0x82,
            0xde, 0xbe, 0x2f, 0xcd, 0x67, 0x3e, 0x14, 0x48, 0x3f, 0xbe,
            0x77, 0x58, 0x02, 0xbf, 0xfa, 0x05, 0x62, 0xbe, 0x0e, 0x79,
            0x4f, 0x3e, 0x8b, 0x87, 0x02, 0xbe, 0xc2, 0xac, 0xad, 0xbe,
            0x5c, 0x6c, 0x46, 0xbe, 0x07, 0xc8, 0x3f, 0x3d, 0xb6, 0x4e,
            0xd3, 0x3d, 0xf1, 0xbb, 0xaa, 0x3e, 0xf2, 0x4a, 0x23, 0x3e,
            0x99, 0x08, 0x6f, 0x3e, 0xe6, 0x09, 0xdf, 0x3d, 0x87, 0x74,
            0x84, 0xbe, 0x30, 0xcd, 0x2b, 0xbc, 0x3a, 0xae, 0x3f, 0x3d,
            0x58, 0x97, 0x07, 0x3e, 0x63, 0x19, 0x87, 0xbe, 0x38, 0x51,
            0x6f, 0x3f, 0x65, 0x8e, 0x34, 0xbe, 0xd2, 0xf8, 0xb0, 0xbe,
            0xaf, 0xad, 0xff, 0xbe, 0x07, 0x3e, 0x89, 0xbe, 0x4b, 0x59,
            0x86, 0x3e, 0xf4, 0x56, 0x16, 0xbf, 0x17, 0x06, 0x9f, 0x3d,
            0x51, 0x08, 0xa9, 0xbd, 0x2e, 0xf8, 0x25, 0xbe, 0xfa, 0xed,
            0x50, 0xbd, 0xf1, 0x02, 0x25, 0x3f, 0x9d, 0xf0, 0xf3, 0xbc,
            0x17, 0x28, 0xf4, 0xbe, 0x46, 0x6a, 0xa0, 0xbe, 0xc1, 0x16,
            0x1a, 0xbb, 0xb3, 0xfe, 0x97, 0x3d, 0x87, 0x14, 0x4f, 0x3d,
            0xec, 0xb0, 0x79, 0xbe, 0x8c, 0x10, 0xd4, 0xbd, 0x5d, 0x25,
            0x2d, 0x3e, 0x9e, 0xc8, 0x49, 0xbe, 0x6c, 0x43, 0xd2, 0xbd,
            0xe8, 0xf8, 0xc2, 0xbd, 0x43, 0xd3, 0xd8, 0xbd, 0xf8, 0xc0,
            0x1e, 0x3f, 0x61, 0xeb, 0x2d, 0x3f, 0x9b, 0x4b, 0x85, 0xbc,
            0x59, 0x6d, 0xb5, 0x3b, 0x7f, 0x79, 0x86, 0xbd, 0x68, 0xcb,
            0x5c, 0x3c, 0x9d, 0x22, 0x00, 0xbf, 0xd4, 0xb0, 0xd6, 0x3e,
            0xd8, 0x52, 0x01, 0x3e, 0xf4, 0xe3, 0x07, 0xbe, 0x5e, 0x59,
            0x4a, 0xbe, 0x21, 0x41, 0x90, 0xbd, 0x4a, 0x16, 0x8b, 0x3e,
            0xe3, 0xcc, 0xab, 0xbd, 0x54, 0x4f, 0x5b, 0xbe, 0x6e, 0xb6,
            0x3d, 0xbe, 0x49, 0x03, 0x48, 0x3f, 0x1a, 0x44, 0x86, 0xbe,
            0xea, 0xcc, 0x9b, 0xbe, 0xbe, 0xbd, 0x92, 0x3e, 0x21, 0x76,
            0xbe, 0x3e, 0x34, 0xef, 0xe8, 0x3d, 0xcd, 0xe1, 0xcc, 0xbe,
            0x48, 0x6a, 0x35, 0xbe, 0xc8, 0x66, 0x5f, 0x3e, 0x1a, 0x75,
            0xb5, 0x3d, 0x8b, 0x9d, 0x86, 0xbe, 0xa0, 0x0e, 0xc9, 0xbe,
            0x2c, 0xb8, 0x50, 0x3e, 0xe3, 0x8c, 0x7a, 0x3d, 0x62, 0xe5,
            0xa7, 0xbe, 0xb9, 0x18, 0x73, 0xbd, 0x83, 0x42, 0x3c, 0x3f,
            0x2d, 0x9a, 0x12, 0xbe, 0x0a, 0x7f, 0xf0, 0x3d, 0x3b, 0xc9,
            0xb4, 0x3e, 0x6a, 0x05, 0xba, 0x3d, 0xfe, 0x9c, 0x1b, 0xbc,
            0x50, 0xe3, 0x56, 0xbe, 0x68, 0xf2, 0xc6, 0x3d, 0x09, 0x69,
            0x83, 0xbe, 0xfa, 0x08, 0xe1, 0x3c, 0xa7, 0xf4, 0xf0, 0xbe,
            0xc4, 0x5e, 0xe5, 0xbe, 0xee, 0xca, 0x0b, 0x3b, 0xe5, 0x46,
            0x14, 0x3e, 0xf3, 0xc8, 0x77, 0x3e, 0x7e, 0xa7, 0xee, 0xbd,
            0x22, 0xf0, 0x0d, 0xbe, 0x5d, 0x02, 0x8f, 0xbe, 0x2d, 0x6e,
            0x8d, 0xbd, 0xb6, 0x29, 0xc5, 0xbd, 0xcd, 0x4c, 0xe6, 0x3e,
            0xce, 0x4a, 0xc4, 0xbd, 0xc5, 0x6c, 0x52, 0xbd, 0x38, 0x64,
            0x01, 0xbd, 0x66, 0xdd, 0xd7, 0x3e, 0x09, 0x88, 0xa0, 0xbe,
            0x05, 0xd0, 0x68, 0xbe, 0x92, 0xd3, 0x57, 0xbe, 0xa4, 0x3d,
            0x42, 0xbf, 0xc3, 0x03, 0x5f, 0x3e, 0xaf, 0x1c, 0xc4, 0x3d,
            0xd5, 0xe7, 0x77, 0x3e, 0x8b, 0x14, 0x1d, 0xbe, 0x8e, 0x57,
            0xc4, 0x3e, 0xb4, 0x0e, 0x00, 0xbd, 0xb2, 0xa5, 0x20, 0xbe,
            0x54, 0x29, 0x91, 0xbe, 0xb7, 0x9f, 0x27, 0xbd, 0x9f, 0xc2,
            0x0a, 0x3d, 0xa0, 0x34, 0x13, 0xbe, 0x88, 0x03, 0xf2, 0x3d,
            0x54, 0xc3, 0xfa, 0xbd, 0x37, 0xab, 0xbc, 0x3d, 0x4f, 0xda,
            0x6a, 0x3e, 0x78, 0xed, 0xcc, 0x3d, 0x92, 0xe6, 0x3e, 0xbe,
            0xbd, 0x1c, 0x91, 0x3d, 0xcf, 0x52, 0x4a, 0x3d, 0x10, 0x1b,
            0x8a, 0x3e, 0x07, 0x15, 0x9f, 0xbe, 0xe5, 0x31, 0x91, 0xbe,
            0xfc, 0x84, 0xec, 0xbd, 0x8b, 0xb1, 0x7b, 0x3e, 0x92, 0x4e,
            0x1e, 0xbe, 0x7f, 0x9a, 0x9a, 0xbf, 0x17, 0x52, 0x1c, 0x3e,
            0x3b, 0x7e, 0x1f, 0xbd, 0xa7, 0x66, 0x8d, 0x3e, 0xa2, 0x0b,
            0xf3, 0xbc, 0x36, 0xc3, 0x54, 0xbe, 0xee, 0xf0, 0xc2, 0xbc,
            0xc0, 0x8b, 0xf3, 0x3e, 0x18, 0xfe, 0x39, 0xbe, 0x9e, 0xa9,
            0xb4, 0xbe, 0xe2, 0x5d, 0x42, 0xbe, 0x4c, 0x8d, 0xb8, 0xbe,
            0x49, 0x73, 0xe7, 0x3c, 0x1e, 0xa8, 0x85, 0xbc, 0xd1, 0x5a,
            0x60, 0xba, 0x68, 0x87, 0x76, 0x3e, 0xf7, 0x64, 0x67, 0xbb,
            0x0e, 0x94, 0x1a, 0xbf, 0xc4, 0xc2, 0x23, 0x3f, 0x2e, 0x5f,
            0x81, 0xbe, 0xff, 0xea, 0x30, 0x3e, 0xae, 0xb0, 0x3a, 0x3e,
            0x27, 0x7b, 0x43, 0xbe, 0x45, 0xb5, 0x07, 0xbf, 0x1b, 0x9d,
            0xc6, 0x3e, 0xd2, 0xf0, 0xa6, 0xbe, 0x7b, 0x8c, 0x3e, 0x3f,
            0xa6, 0xdc, 0xee, 0xbc, 0xb1, 0xcf, 0x8e, 0xbf, 0x25, 0xaa,
            0x9a, 0xbd, 0xe3, 0x65, 0x0e, 0x3e, 0xc3, 0x28, 0x92, 0xbd,
            0x50, 0x7f, 0xc6, 0x3e, 0xd9, 0x68, 0xe6, 0x3e, 0xee, 0xcb,
            0x0c, 0x3f, 0x7a, 0x30, 0xc7, 0x3e, 0xea, 0x7a, 0x47, 0x3c,
            0xb3, 0x0c, 0xbb, 0xbe, 0x36, 0xe3, 0xc5, 0x3e, 0x04, 0xe4,
            0xe9, 0xbd, 0x87, 0xa5, 0xfd, 0xbe, 0xdd, 0xaf, 0xc5, 0xbe,
            0x92, 0x5f, 0xb0, 0x3e, 0x19, 0xef, 0x96, 0x3e, 0xd9, 0x84,
            0x09, 0xbf, 0x71, 0xaf, 0xa7, 0x3e, 0xbf, 0xff, 0xfc, 0x3e,
            0x73, 0xe6, 0xb6, 0x3e, 0x1d, 0xe7, 0x8a, 0xbd, 0x5d, 0x0e,
            0x50, 0x3f, 0x96, 0x58, 0xc2, 0xbd, 0x17, 0xaa, 0x28, 0x3f,
            0xe9, 0x6d, 0x87, 0xbe, 0xf0, 0x1b, 0x18, 0x3f, 0xa5, 0xef,
            0x13, 0xbe, 0x80, 0xb9, 0x60, 0x3f, 0xac, 0x69, 0x36, 0xbe,
            0xfe, 0x70, 0xe2, 0xbb, 0xa9, 0xa8, 0x0a, 0x3d, 0xa4, 0x8e,
            0x9e, 0x3f, 0x4a, 0xa4, 0x6d, 0xbe, 0x50, 0x5e, 0x05, 0xbf,
            0xc9, 0x83, 0x12, 0x3b, 0xd4, 0x0c, 0x57, 0xbd, 0xef, 0x9b,
            0xbb, 0x3f, 0xbf, 0x13, 0x64, 0x3e, 0x0c, 0x5d, 0x41, 0x3d,
            0xde, 0xc5, 0x62, 0x3e, 0xeb, 0xa7, 0x2f, 0x3e, 0xfd, 0xb8,
            0x0f, 0xbe, 0x5c, 0x20, 0xa1, 0x3b, 0xb1, 0xb9, 0x04, 0xbf,
            0x70, 0xa9, 0xf2, 0x3e, 0x34, 0xa8, 0x2d, 0xbe, 0xc8, 0xeb,
            0x0a, 0xbf, 0xbd, 0x73, 0x90, 0x3f, 0xd6, 0x1f, 0x3d, 0x3f,
            0xf5, 0xcb, 0x3c, 0xbf, 0x63, 0x52, 0xff, 0xbe, 0xdd, 0x29,
            0xd9, 0x3d, 0x97, 0xc2, 0xde, 0x3e, 0xa9, 0xc4, 0xa7, 0xbd,
            0x87, 0x68, 0x31, 0x3f, 0xce, 0x72, 0xb0, 0xbe, 0xb6, 0x0b,
            0x74, 0x3e, 0x6c, 0x4b, 0x3f, 0xbe, 0x4b, 0x90, 0x1d, 0x3f,
            0x44, 0x58, 0xa5, 0x3e, 0x24, 0xcf, 0x04, 0xbf, 0x13, 0xd4,
            0xac, 0xbd, 0x45, 0xd8, 0xb6, 0x3b, 0xde, 0x61, 0x67, 0xbe,
            0x16, 0x0c, 0x16, 0xbf, 0x0b, 0x2b, 0xcb, 0xbd, 0xf4, 0x93,
            0x59, 0xbe, 0x07, 0xb4, 0x88, 0x3e, 0x69, 0xc9, 0x09, 0xbe,
            0xc7, 0xee, 0x1c, 0xbf, 0x45, 0x13, 0xa4, 0xbe, 0x7f, 0xc8,
            0xc1, 0xbe, 0xcc, 0x4b, 0xbf, 0xbe, 0x52, 0x0d, 0x2e, 0x3e,
            0x85, 0x16, 0x1b, 0xbe, 0x51, 0x2d, 0x9c, 0x3d, 0xcf, 0xd0,
            0xc0, 0xbd, 0x2c, 0xd8, 0x03, 0x3f, 0xf1, 0xe2, 0x7e, 0x3e,
            0xea, 0xab, 0xb1, 0x3e, 0xd2, 0x3f, 0x0c, 0xbe, 0x43, 0xff,
            0x92, 0xbe, 0x13, 0xac, 0x2f, 0x3f, 0x4a, 0x1b, 0xfa, 0xbe,
            0x01, 0x6d, 0x42, 0x3e, 0x61, 0xe2, 0xcc, 0x3d, 0x91, 0x2e,
            0x5b, 0x3e, 0x81, 0xc6, 0x7f, 0x3d, 0x92, 0xec, 0xd7, 0xbe,
            0x5d, 0x27, 0x2d, 0xbf, 0xac, 0x16, 0x0c, 0xbe, 0xfe, 0xa4,
            0xb5, 0xbe, 0xd8, 0xa1, 0xe9, 0x3e, 0x9c, 0xdc, 0x91, 0xbe,
            0xda, 0x03, 0x5c, 0x3d, 0xfb, 0xb5, 0xdf, 0x3e, 0x83, 0x93,
            0xf1, 0xbd, 0x44, 0x1d, 0x84, 0xbd, 0x40, 0x74, 0x0a, 0xbe,
            0xc1, 0xe5, 0x9c, 0x3e, 0xa8, 0xda, 0x75, 0x3e, 0x72, 0x60,
            0x09, 0xbe, 0x4c, 0xd9, 0xb4, 0xbe, 0x94, 0x0c, 0x5a, 0x3e,
            0xa5, 0xec, 0x9e, 0x3e, 0x49, 0xc7, 0x55, 0xbe, 0xc5, 0x40,
            0x05, 0x3e, 0x34, 0xfa, 0x9e, 0x3e, 0xf0, 0xed, 0x95, 0xbe,
            0xfd, 0xcf, 0x2e, 0xbf, 0xc6, 0xb3, 0x5b, 0x3e, 0x8c, 0x67,
            0x15, 0xbf, 0x48, 0x02, 0xaa, 0x3e, 0xe1, 0xc2, 0x12, 0x3e,
            0x03, 0xe5, 0xee, 0xbc, 0x7a, 0xe4, 0xd5, 0xbe, 0x16, 0xeb,
            0x19, 0xbf, 0x4a, 0xd4, 0x08, 0x3f, 0xff, 0x1f, 0x29, 0x3e,
            0x17, 0xef, 0xc0, 0xbe, 0x9e, 0xd2, 0x68, 0x3f, 0xb8, 0xf6,
            0xbc, 0x3e, 0xbb, 0x37, 0x2f, 0x3f, 0x72, 0xbc, 0xc3, 0x3e,
            0x82, 0x6c, 0x4d, 0x3f, 0x16, 0x9d, 0x26, 0xbe, 0x28, 0x40,
            0x30, 0x3f, 0x9e, 0x50, 0x96, 0x3d, 0xa7, 0x4a, 0x98, 0xbf,
            0xa7, 0x97, 0xb6, 0x3c, 0x92, 0x10, 0x1e, 0xbe, 0x69, 0xbb,
            0xf1, 0xbe, 0x2b, 0x25, 0x08, 0x3d, 0x2a, 0x9c, 0x9c, 0x3d,
            0x15, 0x58, 0x20, 0x3f, 0xd2, 0x85, 0xcd, 0xbd, 0x03, 0xdc,
            0x18, 0xbe, 0x02, 0x87, 0x66, 0x3e, 0x10, 0x4e, 0x05, 0xbf,
            0xae, 0xaf, 0x04, 0xbf, 0x6e, 0x90, 0x1e, 0xbb, 0x89, 0x56,
            0x8d, 0xbe, 0xc4, 0x66, 0x9f, 0x3f, 0x79, 0x0d, 0xeb, 0x3e,
            0x8c, 0x35, 0xe7, 0xbe, 0x99, 0x4b, 0x69, 0xbe, 0xe6, 0x4a,
            0xcf, 0xbd, 0x0d, 0x61, 0x0a, 0x3f, 0x2b, 0x92, 0x2d, 0x3e,
            0x78, 0x39, 0x2a, 0xbf, 0x60, 0x50, 0xc4, 0x3e, 0x4d, 0xc6,
            0x04, 0xbe, 0x0e, 0x35, 0x86, 0xbe, 0x2d, 0xda, 0xf6, 0xbd,
            0xbe, 0x40, 0x2b, 0xbe, 0x76, 0x70, 0x48, 0xbe, 0xad, 0x4c,
            0x48, 0x3e, 0x52, 0xfa, 0x13, 0xbe, 0x96, 0x14, 0xc8, 0xbe,
            0x22, 0x28, 0xd6, 0xbe, 0xfb, 0x00, 0xea, 0x3e, 0xe6, 0x78,
            0x3e, 0x3e, 0x52, 0xe1, 0x10, 0x3f, 0xe3, 0xa3, 0x1d, 0xbd,
            0xa5, 0x48, 0x98, 0xbe, 0xba, 0xbd, 0x77, 0x3e, 0xd9, 0xab,
            0x05, 0x3e, 0x34, 0x21, 0x76, 0x3e, 0x09, 0x27, 0xa3, 0x3e,
            0x31, 0x1d, 0x95, 0xbf, 0x65, 0x39, 0x19, 0x3f, 0xe3, 0xf5,
            0x7e, 0xbd, 0x46, 0xfe, 0xde, 0xbd, 0xd2, 0x44, 0x68, 0xbf,
            0x12, 0x81, 0x61, 0x3f, 0x47, 0x4b, 0x40, 0xbf, 0xd3, 0xec,
            0xf9, 0xbe, 0x0f, 0x26, 0x5a, 0x3e, 0xa6, 0x98, 0xf7, 0xbe,
            0xa9, 0x18, 0x77, 0x3e, 0xa3, 0xdf, 0xc8, 0x3e, 0x3b, 0xd5,
            0x0a, 0xbe, 0xc2, 0x4b, 0x29, 0x3f, 0x37, 0x1a, 0xd6, 0xbe,
            0xa5, 0x51, 0x94, 0x3e, 0x01, 0x48, 0xc5, 0xbe, 0x65, 0xe7,
            0x47, 0xbf, 0x5b, 0x31, 0x5a, 0xbf, 0xb0, 0xf3, 0x81, 0x3f,
            0xa9, 0x01, 0xd5, 0x3e, 0x2b, 0x24, 0x4f, 0xbf, 0xc7, 0x91,
            0x37, 0xbf, 0x99, 0x55, 0xc3, 0x3f, 0xf8, 0x26, 0x81, 0x3e,
            0xb0, 0xda, 0x00, 0xbf, 0xc8, 0x43, 0x0d, 0xbe, 0x74, 0x54,
            0x75, 0xbd, 0x70, 0xf3, 0xd8, 0x3e, 0xc3, 0x66, 0xed, 0x3c,
            0xed, 0x81, 0x4e, 0x3f, 0xc8, 0x03, 0x9b, 0xbe, 0xc4, 0x22,
            0xa0, 0x3e, 0x79, 0x2e, 0xf9, 0xbe, 0xec, 0xc4, 0x1f, 0x3f,
            0xdb, 0x05, 0xfc, 0x3e, 0x44, 0x79, 0xa2, 0x3f, 0xc3, 0xe7,
            0xc5, 0x3f, 0xd8, 0x1f, 0xdd, 0x3e, 0xb6, 0x1f, 0x37, 0xbf,
            0x13, 0xbf, 0x50, 0x3f, 0xa2, 0xb5, 0xf0, 0x3e, 0xc2, 0xb6,
            0xe1, 0x3e, 0x43, 0x43, 0xc1, 0xbd, 0x20, 0xf1, 0x80, 0x3f,
            0xfa, 0x41, 0x9f, 0x3d, 0x57, 0x2a, 0x97, 0x3e, 0xb8, 0xad,
            0x9f, 0xbf, 0x1c, 0x42, 0x73, 0xbe, 0xa0, 0x18, 0xea, 0x3d,
            0x41, 0xc6, 0x95, 0xbe, 0x60, 0xa3, 0x45, 0xbf, 0x76, 0xd3,
            0x88, 0xbf, 0x30, 0x74, 0x3c, 0xbe, 0x47, 0x5a, 0xd5, 0x3e,
            0x17, 0x94, 0x6d, 0x3e, 0xe3, 0xb5, 0x7e, 0x3f, 0x9c, 0x43,
            0xf3, 0xbe, 0xa0, 0x2a, 0x87, 0x3e, 0x4f, 0x3e, 0xbe, 0x3f,
            0x44, 0xfc, 0x5d, 0xbf, 0xf0, 0x20, 0xc6, 0xbe, 0xc7, 0x2b,
            0x97, 0x3f, 0x68, 0x7e, 0x9c, 0xbf, 0x84, 0xbd, 0xe0, 0xbe,
            0xaf, 0x84, 0x73, 0x3c, 0x4a, 0xa5, 0xd0, 0x3e, 0x1f, 0xdd,
            0x75, 0x3e, 0xdb, 0x91, 0x0e, 0x3f, 0xe0, 0xc6, 0x10, 0x40,
            0xd6, 0x38, 0x9c, 0xbf, 0x60, 0xc4, 0x45, 0x3f, 0xdd, 0x5d,
            0x61, 0xbe, 0xfb, 0x1e, 0x0f, 0xbe, 0x56, 0x09, 0x18, 0xbf,
            0x60, 0xd3, 0x0b, 0xbf, 0x6e, 0x5f, 0xe9, 0x3d, 0x2a, 0x92,
            0x1a, 0x3e, 0xd1, 0x9a, 0x11, 0xbd, 0x5e, 0xf1, 0xd1, 0x3d,
            0xde, 0x40, 0x91, 0x3e, 0xf9, 0x30, 0x94, 0x3e, 0x13, 0x68,
            0x8e, 0xbf, 0x81, 0x7f, 0x58, 0xbd, 0xb7, 0x94, 0x66, 0xbe,
            0xa1, 0x0d, 0x71, 0xbd, 0x9b, 0x48, 0xeb, 0x3d, 0x45, 0x57,
            0x15, 0x3f, 0x5a, 0x28, 0xa2, 0x3d, 0x31, 0xcc, 0x91, 0x3e,
            0xa6, 0xd7, 0x3d, 0xbf, 0xd9, 0x55, 0x8c, 0x3e, 0xcf, 0xd7,
            0xac, 0xbd, 0x6c, 0x47, 0x2d, 0x3e, 0xd2, 0x02, 0xdb, 0xbc,
            0xc5, 0x12, 0x7b, 0x3d, 0xe3, 0x3c, 0xbd, 0x3e, 0xf0, 0x1a,
            0x76, 0xbe, 0xf9, 0x0f, 0x17, 0x3f, 0x45, 0x63, 0x9f, 0xbe,
            0x79, 0x19, 0xa8, 0x3e, 0x5b, 0x57, 0x5c, 0xbe, 0xe2, 0xcc,
            0x7d, 0xbe, 0xce, 0x84, 0x8b, 0xbe, 0xb0, 0xd8, 0xd2, 0xbe,
            0xa1, 0x8c, 0x33, 0xbf, 0xca, 0x10, 0xd2, 0xbe, 0x52, 0xd7,
            0xbf, 0x3c, 0x95, 0xef, 0x2c, 0xbe, 0x34, 0x71, 0x8a, 0xbf,
            0x02, 0x97, 0x22, 0xbe, 0x4d, 0x7f, 0x42, 0xbf, 0x02, 0x1e,
            0xb5, 0x3e, 0x75, 0xdb, 0x2a, 0xbe, 0x29, 0x1c, 0x43, 0x3e,
            0xd1, 0xe9, 0xf5, 0x3d, 0xed, 0x87, 0x0b, 0x3e, 0x67, 0xce,
            0xf5, 0xbd, 0xda, 0xaf, 0x2c, 0x3f, 0xf9, 0x36, 0x18, 0x3d,
            0x10, 0x55, 0x2a, 0x3e, 0x41, 0x38, 0x30, 0x3f, 0x08, 0x89,
            0x07, 0xbe, 0xe4, 0x83, 0xaa, 0x3e, 0xb2, 0xc2, 0x98, 0x3d,
            0xe5, 0xe6, 0x6e, 0x3e, 0x32, 0x8a, 0x03, 0xbf, 0x72, 0x64,
            0x69, 0x3f, 0x53, 0xfc, 0x8e, 0x3e, 0x87, 0xf7, 0x37, 0x3f,
            0xe7, 0x5e, 0xd6, 0xbc, 0x58, 0x07, 0x10, 0xbf, 0x9a, 0x30,
            0x73, 0x3c, 0xcb, 0x63, 0xc0, 0x3e, 0xdf, 0x1f, 0x10, 0x3f,
            0x9b, 0x72, 0xcc, 0xbe, 0xec, 0xec, 0x5b, 0xbf, 0x35, 0x8c,
            0x0b, 0x3c, 0x13, 0xaa, 0x34, 0x3f, 0x42, 0xf5, 0x88, 0xbe,
            0xb5, 0xa9, 0xca, 0x3e, 0x18, 0x5a, 0x8c, 0xbe, 0x97, 0xe0,
            0x16, 0xbe, 0x9e, 0xc0, 0x8f, 0xbe, 0x7d, 0x4b, 0xfd, 0xbe,
            0xf3, 0xb2, 0x5a, 0xbe, 0x0a, 0x08, 0xeb, 0xbd, 0xfd, 0xa5,
            0x58, 0xbf, 0x40, 0xc3, 0x33, 0x3f, 0x85, 0xce, 0x07, 0x3f,
            0x1c, 0x9a, 0x47, 0x3b, 0xa0, 0x24, 0x5b, 0x3e, 0xdd, 0x6f,
            0xec, 0x3d, 0xe0, 0xa8, 0x27, 0xbe, 0xbc, 0xeb, 0xd4, 0x3e,
            0x84, 0x60, 0x24, 0x3f, 0xa3, 0xd8, 0xed, 0x3e, 0x81, 0x91,
            0x28, 0xbe, 0x02, 0x83, 0xb8, 0xbe, 0x2a, 0x94, 0x18, 0xbe,
            0x36, 0x73, 0x4d, 0xbe, 0x35, 0x0a, 0xcb, 0xbc, 0xe8, 0x60,
            0xce, 0x3e, 0x21, 0x78, 0x60, 0x3e, 0x3e, 0x67, 0xaa, 0x3e,
            0x13, 0xce, 0xec, 0xbe, 0x47, 0x3d, 0x66, 0x3f, 0x82, 0x64,
            0x48, 0x3f, 0x3f, 0x01, 0x9e, 0xbe, 0xbc, 0x9a, 0x73, 0xbd,
            0xd4, 0xb7, 0xa5, 0xb8, 0x91, 0xf8, 0xbf, 0x3e, 0x0b, 0x7c,
            0x9a, 0x3e, 0x37, 0xa2, 0xd5, 0x3e, 0x0a, 0xe8, 0x41, 0xbf,
            0xd0, 0xcf, 0x83, 0xbf, 0x77, 0x4a, 0x94, 0x3e, 0x58, 0x7c,
            0xac, 0x3f, 0xf8, 0xc9, 0x2a, 0xbf, 0x58, 0x44, 0x9c, 0x3e,
            0x2a, 0x36, 0xab, 0x3e, 0x35, 0x1d, 0xb3, 0x3f, 0x65, 0xde,
            0x77, 0xbe, 0xce, 0xe3, 0x03, 0x3f, 0xf8, 0x9f, 0xd6, 0x3e,
            0xb1, 0xe4, 0x87, 0x3d, 0x32, 0x5b, 0xe4, 0x3e, 0x7b, 0xfc,
            0x14, 0xbf, 0xbf, 0xea, 0x3a, 0xbc, 0x14, 0x1b, 0x49, 0x3e,
            0xa4, 0x98, 0xdc, 0xbe, 0xe7, 0xf3, 0x17, 0xbe, 0xa9, 0x2e,
            0x79, 0x3d, 0xdc, 0xbb, 0x29, 0x3f, 0x80, 0x24, 0x1d, 0xbf,
            0x2c, 0x92, 0xeb, 0xbe, 0x04, 0xe0, 0x97, 0x3e, 0x32, 0x75,
            0x0d, 0x3f, 0xd8, 0xcf, 0x2a, 0xbf, 0x0c, 0x73, 0x17, 0x3e,
            0xcf, 0x2c, 0xd3, 0xbd, 0x28, 0x01, 0x13, 0xbe, 0x6c, 0x91,
            0xa3, 0x3e, 0x48, 0x98, 0x9b, 0xbe, 0x3d, 0x97, 0x66, 0x3f,
            0xda, 0x34, 0xec, 0xbd, 0x0e, 0x05, 0xa2, 0x3d, 0x98, 0x02,
            0x2e, 0x3d, 0xb8, 0x15, 0x7a, 0x3e, 0xe0, 0x6e, 0xed, 0x3d,
            0x3b, 0xca, 0xd8, 0x3e, 0x42, 0xa0, 0x82, 0xbe, 0x19, 0xf6,
            0x71, 0xbd, 0xa5, 0xcf, 0x25, 0x3f, 0xac, 0xfc, 0x10, 0xbf,
            0x09, 0xda, 0x47, 0x3e, 0xf1, 0x21, 0x81, 0xbe, 0xa3, 0x78,
            0x52, 0x3f, 0xc5, 0x6d, 0xee, 0x3e, 0x94, 0xa9, 0xe5, 0xbe,
            0x02, 0x2d, 0xa3, 0x3e, 0x6c, 0x18, 0x9a, 0x3e, 0xa1, 0x79,
            0x7d, 0x3e, 0x34, 0xbd, 0xe5, 0x3d, 0x4c, 0xb6, 0x4e, 0xbe,
            0x4d, 0xe4, 0x5c, 0x3e, 0xc0, 0x1e, 0xfd, 0x3e, 0xa5, 0x98,
            0xa3, 0xbe, 0xaf, 0xf2, 0xff, 0xbe, 0x84, 0x56, 0x64, 0x3e,
            0x81, 0xa8, 0x87, 0xbf, 0x4c, 0x99, 0xf8, 0x3d, 0xb6, 0xc7,
            0x47, 0x3e, 0x09, 0x35, 0x4f, 0xbe, 0xf5, 0xf4, 0x9e, 0xbc,
            0xae, 0x24, 0x11, 0xbe, 0x54, 0x8e, 0x0d, 0xbe, 0x11, 0x83,
            0x2c, 0xba, 0x25, 0x4a, 0x37, 0xbf, 0x69, 0xb0, 0x9b, 0xbd,
            0x62, 0x60, 0x88, 0xbe, 0x8d, 0x5b, 0x60, 0x3f, 0x09, 0xc2,
            0xe7, 0xbd, 0xd5, 0x68, 0x02, 0x3e, 0xad, 0x8c, 0xd8, 0xbd,
            0x66, 0x2e, 0x65, 0xbf, 0xc1, 0x19, 0x7e, 0xbf, 0xbc, 0x81,
            0xd0, 0xbe, 0xc7, 0xb7, 0xc9, 0xbd, 0x26, 0x13, 0xc2, 0xbe,
            0x40, 0x50, 0x27, 0x3e, 0xdb, 0x66, 0x7e, 0xbf, 0x65, 0xfd,
            0x87, 0x3e, 0x38, 0xc2, 0xa7, 0xbe, 0x77, 0x67, 0xa9, 0x3d,
            0xb8, 0xa0, 0x14, 0xbf, 0xb8, 0x1d, 0x23, 0x3f, 0xdb, 0x29,
            0xb3, 0xbe, 0x2f, 0x17, 0xf5, 0xbd, 0x53, 0x92, 0x7d, 0xbe,
            0xf1, 0x94, 0x00, 0x3f, 0xdd, 0xd0, 0x53, 0xbe, 0x7d, 0xc7,
            0xa6, 0x3e, 0xd1, 0x1e, 0x00, 0xbf, 0x3a, 0x1f, 0x48, 0xbf,
            0x2a, 0x5e, 0xb8, 0xbe, 0x92, 0x48, 0xe7, 0xbe, 0x6f, 0xdd,
            0xb7, 0x3e, 0x24, 0xdb, 0xaa, 0x3f, 0x18, 0x38, 0x78, 0x3e,
            0x97, 0x5b, 0xd7, 0xbe, 0xbd, 0x28, 0x23, 0xbf, 0xd0, 0x22,
            0x18, 0xbd, 0xa7, 0xd3, 0xa6, 0xbf, 0xa2, 0x16, 0x18, 0xbe,
            0xaa, 0x06, 0x54, 0xbe, 0x8b, 0x8e, 0x3e, 0x3e, 0xc9, 0xc3,
            0xa7, 0xbf, 0xcb, 0x3b, 0xfe, 0xbe, 0xbe, 0x9c, 0x0c, 0xbf,
            0x2a, 0x65, 0x1c, 0xbe, 0xf0, 0x25, 0x1f, 0xbf, 0xe8, 0x6a,
            0x01, 0x3f, 0x51, 0x57, 0x92, 0x3e, 0x21, 0x3b, 0x5b, 0x3e,
            0x1e, 0x97, 0x89, 0xbe, 0x7d, 0x6e, 0x50, 0xbe, 0x03, 0x15,
            0x0f, 0x3e, 0xef, 0x2c, 0x49, 0x3e, 0x31, 0x42, 0x9a, 0x3e,
            0xc3, 0xe9, 0x09, 0x3c, 0x05, 0x08, 0x84, 0x3f, 0x99, 0xb2,
            0xe0, 0xbe, 0x9f, 0x3d, 0x8c, 0x3e, 0xe9, 0xda, 0xca, 0xbf,
            0x84, 0x43, 0x50, 0x3f, 0x0c, 0x9f, 0xb1, 0x3f, 0x34, 0x94,
            0xca, 0x3e, 0xc7, 0x10, 0xc9, 0xbd, 0xf3, 0x84, 0x7c, 0xbf,
            0xac, 0x15, 0x55, 0xbf, 0x35, 0x41, 0xa8, 0xbe, 0xab, 0x7d,
            0x1d, 0x3e, 0x8b, 0x28, 0x68, 0x3f, 0xfe, 0x4a, 0x61, 0x3f,
            0x66, 0x57, 0x5c, 0xbb, 0xc3, 0x94, 0x08, 0xbf, 0x45, 0xf7,
            0x01, 0x3f, 0xa4, 0x94, 0x36, 0x3d, 0x86, 0xd9, 0x3a, 0xbf,
            0xa9, 0xeb, 0x83, 0xbf, 0xe7, 0xe7, 0x5e, 0xbe, 0x9d, 0x81,
            0x6e, 0x3c, 0x89, 0x8f, 0xdf, 0xbe, 0x38, 0x58, 0x71, 0xbe,
            0x30, 0x28, 0x00, 0xbf, 0x66, 0x16, 0xa4, 0x3c, 0x27, 0xb0,
            0x63, 0xbe, 0xfd, 0x08, 0x1e, 0x3f, 0x3d, 0x96, 0x80, 0xbe,
            0x58, 0x26, 0xf9, 0xbe, 0x98, 0x97, 0xc3, 0xbe, 0xda, 0x90,
            0xca, 0xbf, 0xd1, 0x62, 0xd7, 0x3f, 0x9c, 0x42, 0xf2, 0x3e,
            0xef, 0x18, 0xfe, 0x3d, 0xee, 0x08, 0x4a, 0xbf, 0x86, 0xd6,
            0x93, 0x3e, 0x7c, 0x27, 0x66, 0x3e, 0xc6, 0x7e, 0x14, 0xbf,
            0x1a, 0x75, 0x01, 0x3f, 0xdd, 0xce, 0x3a, 0x3f, 0x49, 0x47,
            0x87, 0x3d, 0xb5, 0xa0, 0x9d, 0xbd, 0xe7, 0xee, 0x52, 0xbe,
            0x6a, 0x12, 0xca, 0xbe, 0x1a, 0x47, 0x0c, 0x3f, 0xd4, 0x7f,
            0xc2, 0x3e, 0x95, 0xdb, 0x50, 0xbc, 0x7a, 0x65, 0x3c, 0x3f,
            0x23, 0xa4, 0x5a, 0x3c, 0xe5, 0xf8, 0xde, 0x3d, 0xf0, 0xc0,
            0xaf, 0x3e, 0xbf, 0xcc, 0x7a, 0x3e, 0x55, 0x9e, 0xa0, 0x3e,
            0x7f, 0x2b, 0xea, 0x3e, 0xa2, 0x1b, 0xbc, 0xbe, 0x8f, 0x77,
            0x36, 0xbf, 0x26, 0x02, 0x0d, 0xbe, 0xf3, 0x53, 0x9c, 0xbe,
            0x31, 0xf7, 0x82, 0x3f, 0x5f, 0x8b, 0xf2, 0x3e, 0x1c, 0x4d,
            0xba, 0x3e, 0x0d, 0x41, 0xa9, 0x3e, 0x77, 0xa8, 0x34, 0xbe,
            0x27, 0xd1, 0x2e, 0xbd, 0x5f, 0x09, 0x25, 0x3f, 0xdf, 0xac,
            0xd5, 0x3e, 0x3c, 0xf7, 0xe9, 0xbd, 0xa3, 0xba, 0xf1, 0xbe,
            0x65, 0x0e, 0x61, 0xbd, 0x29, 0x16, 0xeb, 0xbe, 0xfe, 0xf6,
            0x23, 0xbf, 0x42, 0x08, 0x3a, 0x3e, 0xca, 0xb2, 0x2d, 0xbe,
            0x79, 0x4d, 0x84, 0xbd, 0x2f, 0x69, 0x8e, 0xbe, 0x56, 0x37,
            0xb0, 0x3e, 0x4b, 0x51, 0xab, 0x3e, 0xac, 0x43, 0x55, 0xbf,
            0xc9, 0xa6, 0x92, 0x3e, 0xf8, 0x99, 0xca, 0xbc, 0x58, 0x95,
            0x16, 0xbf, 0xeb, 0xf3, 0x27, 0xbe, 0x46, 0xe4, 0x56, 0xbf,
            0x22, 0xd1, 0x55, 0xbd, 0xa8, 0x13, 0xa4, 0xbe, 0x03, 0x1a,
            0x02, 0xbf, 0x54, 0xb4, 0xdd, 0x3e, 0xe9, 0x23, 0x97, 0x3e,
            0x14, 0xae, 0xcd, 0xbe, 0x08, 0xcb, 0x67, 0x3c, 0x82, 0x4c,
            0x81, 0xbd, 0x33, 0xcd, 0xc2, 0xbe, 0xb0, 0xad, 0x4c, 0xbc,
            0xf3, 0x6e, 0x17, 0xbe, 0x29, 0x14, 0x15, 0x3f, 0xfd, 0x35,
            0x13, 0x3e, 0xe3, 0x97, 0xcd, 0x3e, 0x93, 0xda, 0xcd, 0x3c,
            0x06, 0x44, 0x29, 0xbe, 0xc0, 0xc2, 0xf6, 0x3e, 0x9c, 0xd5,
            0xb2, 0xbe, 0xa5, 0x5b, 0xd2, 0xbe, 0x9a, 0x1a, 0x16, 0xbf,
            0x93, 0x83, 0x67, 0x3e, 0x62, 0x1c, 0x8e, 0xbf, 0x60, 0x65,
            0x24, 0x3f, 0x35, 0x5a, 0x75, 0x3e, 0xf6, 0x80, 0xbe, 0xbd,
            0x56, 0xb2, 0x5b, 0x3e, 0x86, 0xb3, 0x83, 0x3e, 0x81, 0x18,
            0x9e, 0x3e, 0x67, 0x8f, 0x44, 0x3f, 0xf6, 0x0f, 0xc7, 0x3e,
            0xb9, 0xdd, 0x64, 0x3e, 0x9c, 0xc3, 0xf0, 0x3e, 0x0f, 0xbc,
            0x36, 0xbf, 0x0c, 0xb3, 0x5e, 0x3e, 0x64, 0x26, 0xa7, 0x3e,
            0x3e, 0x1e, 0xc8, 0x3e, 0x1c, 0x3d, 0x75, 0xbe, 0x27, 0x78,
            0xde, 0x3e, 0x52, 0x4c, 0x93, 0x3e, 0x0b, 0xbc, 0xb4, 0xbd,
            0x31, 0x6d, 0x41, 0x3d, 0x76, 0x6e, 0xc3, 0x3e, 0xfd, 0x2e,
            0x1a, 0xbe, 0x74, 0x15, 0x30, 0x3f, 0x93, 0x06, 0x1c, 0xbd,
            0xfb, 0x32, 0x91, 0x3f, 0xdb, 0xec, 0xca, 0xbe, 0x2c, 0x46,
            0xbf, 0x3e, 0x98, 0x05, 0x9a, 0x3f, 0x4e, 0xac, 0x6c, 0xbf,
            0x72, 0x0c, 0x8e, 0x3e, 0x52, 0x0b, 0x34, 0xbf, 0x61, 0x7e,
            0x03, 0xbe, 0x2a, 0xba, 0xd7, 0xbe, 0x81, 0x3e, 0x9f, 0x3e,
            0xce, 0xac, 0x53, 0xbf, 0x4d, 0xc5, 0x7a, 0xbf, 0xc3, 0x37,
            0x3f, 0xbe, 0xe3, 0x12, 0x85, 0x3e, 0xfa, 0x68, 0x4b, 0xbf,
            0x9f, 0x4e, 0x89, 0xbc, 0x9b, 0x86, 0x88, 0x3d, 0x76, 0x65,
            0xe2, 0x3c, 0x8c, 0xea, 0x79, 0x3e, 0xb6, 0xba, 0x3c, 0x3f,
            0x6e, 0xfe, 0xc9, 0xbe, 0x41, 0xbd, 0xf1, 0xbd, 0xd3, 0x02,
            0x92, 0x3d, 0x47, 0xd5, 0xba, 0xbf, 0xb8, 0x07, 0x32, 0xbe,
            0xda, 0xe5, 0x1a, 0x3e, 0x51, 0x6a, 0x57, 0x3b, 0x48, 0x47,
            0x63, 0x3f, 0x34, 0x49, 0x98, 0xbf, 0xbc, 0xa0, 0xf0, 0xbd,
            0x35, 0x8e, 0x5e, 0x3f, 0x64, 0xf2, 0x8d, 0x3f, 0x3f, 0xf4,
            0xc1, 0xbe, 0x47, 0x39, 0xd3, 0x3e, 0x3a, 0x0c, 0x14, 0x3f,
            0x8a, 0x60, 0xa3, 0xbe, 0x9d, 0x21, 0x94, 0xbe, 0x0b, 0x1a,
            0x5f, 0xbe, 0xf9, 0x19, 0x5f, 0x3e, 0x43, 0xaa, 0x89, 0xbe,
            0x24, 0xb9, 0x61, 0x3f, 0x50, 0x22, 0x23, 0xbd, 0xf2, 0x11,
            0x7b, 0x3e, 0x77, 0xec, 0xb6, 0x3d, 0xde, 0x07, 0x9e, 0xbe,
            0xae, 0xc9, 0xb1, 0x3e, 0xae, 0x81, 0x41, 0x3f, 0xf5, 0xd4,
            0x0e, 0xbf, 0xe0, 0x7c, 0x34, 0xbf, 0x93, 0xd7, 0x61, 0x3d,
            0x97, 0xab, 0xb8, 0xbd, 0xe9, 0x90, 0xf9, 0xbd, 0x16, 0xea,
            0xe2, 0x3e, 0xfc, 0x96, 0xb8, 0xbd, 0xf9, 0x5e, 0x10, 0xbe,
            0x39, 0x76, 0xa0, 0xbe, 0xf5, 0x7f, 0xcd, 0xbe, 0x32, 0x2d,
            0x39, 0xbe, 0x9a, 0x85, 0x23, 0xbf, 0xbb, 0x48, 0xbc, 0x3e,
            0xc3, 0x1b, 0xb3, 0xbe, 0x94, 0x43, 0x84, 0x3e, 0xe3, 0xad,
            0x4a, 0x3e, 0x69, 0xa1, 0x83, 0x3d, 0xa5, 0x15, 0xab, 0xbe,
            0x63, 0xfd, 0xc6, 0x3e, 0x5d, 0xe6, 0xda, 0xbe, 0x57, 0xd2,
            0x4a, 0x3f, 0x30, 0x39, 0x3a, 0xbe, 0xde, 0x00, 0xb5, 0x3e,
            0xa3, 0xd7, 0xae, 0xbd, 0x80, 0x41, 0x7b, 0xbd, 0x37, 0xef,
            0xff, 0x3d, 0xcf, 0x67, 0xc1, 0xbe, 0x26, 0x2c, 0x1d, 0xbc,
            0x99, 0x3c, 0xf6, 0x3e, 0x75, 0x5b, 0x61, 0xbd, 0x13, 0x68,
            0x4b, 0xbf, 0xe5, 0x7b, 0xa8, 0xbd, 0xe1, 0x89, 0xda, 0xbd,
            0x86, 0x70, 0x97, 0x3d, 0x37, 0x3c, 0xcc, 0xbe, 0xaf, 0x46,
            0x78, 0x3f, 0x2b, 0x0a, 0x16, 0xbd, 0x31, 0x88, 0x7f, 0x3e,
            0xbd, 0xdd, 0xff, 0xbd, 0xb4, 0x40, 0x7f, 0x3d, 0x59, 0x13,
            0x35, 0xbf, 0x87, 0x2d, 0x07, 0xbe, 0xad, 0x80, 0xd2, 0x3d,
            0x90, 0x1d, 0x0d, 0xbf, 0x85, 0xdf, 0x81, 0xbe, 0x8c, 0xc6,
            0x8a, 0x3e, 0x6d, 0xcc, 0xa4, 0xbd, 0xb2, 0x59, 0x4b, 0xbe,
            0xf2, 0x67, 0x42, 0x3f, 0xe3, 0x5f, 0x00, 0x3f, 0x30, 0xbb,
            0x03, 0xbf, 0x43, 0x74, 0xfd, 0x3e, 0xde, 0x3b, 0x42, 0xbf,
            0x74, 0x7b, 0xf8, 0x3d, 0xe3, 0x5d, 0x83, 0x3e, 0xba, 0xd2,
            0x8d, 0x3e, 0xdd, 0x38, 0xa3, 0xbe, 0xa3, 0x33, 0xbf, 0x3e,
            0xe1, 0x43, 0xad, 0xbe, 0x31, 0xe3, 0x9a, 0xbe, 0xa0, 0xf9,
            0xa3, 0x3e, 0x3c, 0x45, 0xdc, 0xbe, 0x7c, 0x62, 0x8c, 0x3f,
            0xac, 0xc6, 0xa2, 0x3e, 0x14, 0x61, 0x48, 0x3f, 0x80, 0x00,
            0x0d, 0xbe, 0x78, 0xde, 0x95, 0xbe, 0xa7, 0x60, 0x66, 0x3d,
            0xe7, 0x56, 0xe6, 0x3e, 0xb0, 0x06, 0x9f, 0xbf, 0x03, 0xd2,
            0x19, 0xbd, 0x91, 0xdf, 0xd4, 0xbd, 0x98, 0x15, 0xb1, 0x3d,
            0xd8, 0x25, 0xb8, 0x3e, 0xb3, 0xec, 0x0f, 0x3f, 0x37, 0x9b,
            0x9e, 0x3f, 0xb0, 0x52, 0xe9, 0xbe, 0x35, 0x10, 0x53, 0xbf,
            0x05, 0x5d, 0x40, 0x3e, 0x1c, 0xbd, 0x0e, 0xbf, 0x1e, 0x62,
            0x4e, 0xbf, 0xd2, 0x55, 0xec, 0x3e, 0xc3, 0xac, 0x01, 0xbf,
            0x4a, 0xc7, 0x25, 0xbc, 0x18, 0x84, 0xf9, 0x3d, 0x2b, 0x62,
            0xc5, 0x3e, 0xb3, 0x7a, 0x0f, 0xbf, 0x75, 0x25, 0x33, 0x3f,
            0xfb, 0xd4, 0x16, 0xbf, 0xb6, 0x5d, 0x23, 0x3f, 0xd5, 0xff,
            0x0a, 0x3f, 0x14, 0x83, 0x32, 0x3f, 0x8e, 0xd5, 0x64, 0x3d,
            0x6c, 0xeb, 0x65, 0xbf, 0x6d, 0x4a, 0x8c, 0xbf, 0xc7, 0x3a,
            0xaf, 0x3e, 0xf6, 0xa7, 0x76, 0xbf, 0x73, 0x5f, 0xea, 0x3e,
            0xda, 0x68, 0x72, 0x3e, 0xe5, 0x2f, 0x91, 0x3e, 0x6f, 0x5e,
            0xb8, 0x3e, 0x8f, 0xf5, 0x58, 0x3f, 0x0c, 0x81, 0xf2, 0x3e,
            0xa9, 0x15, 0x0a, 0xbf, 0x57, 0x02, 0xdc, 0x3f, 0x86, 0x6e,
            0x82, 0x3f, 0x2c, 0x53, 0x7f, 0x3b, 0x47, 0xf3, 0x92, 0x3e,
            0x03, 0x7e, 0x1c, 0x3f, 0xfc, 0xda, 0x10, 0x3f, 0x69, 0x13,
            0x9c, 0x3f, 0x3d, 0xdd, 0x4b, 0xbf, 0x75, 0xae, 0xb9, 0xbe,
            0xef, 0x6e, 0xbb, 0xbe, 0x79, 0x69, 0x18, 0x3f, 0x36, 0xdc,
            0x32, 0xbd, 0x4c, 0xd8, 0x58, 0x3f, 0x45, 0xf0, 0x31, 0xbe,
            0xbf, 0xc8, 0x33, 0x3e, 0xa4, 0x59, 0xd3, 0x3e, 0xae, 0x5a,
            0xb4, 0x3e, 0xfa, 0x7d, 0xa6, 0xbe, 0x30, 0x4b, 0x49, 0xbe,
            0xeb, 0x79, 0x76, 0x3e, 0x59, 0x89, 0x10, 0xbf, 0x98, 0xc3,
            0xe8, 0x3e, 0x4b, 0x70, 0x26, 0x3f, 0x82, 0x62, 0xd7, 0x3d,
            0x48, 0x7c, 0xa2, 0xbe, 0xc8, 0x77, 0xc6, 0x3c, 0xc3, 0x16,
            0x58, 0x3e, 0x4e, 0xdf, 0xec, 0x3e, 0xd2, 0xda, 0xe5, 0x3d,
            0x1c, 0xaa, 0x25, 0xbe, 0xcb, 0x1d, 0x91, 0xbe, 0x7a, 0xc0,
            0x14, 0xbe, 0x3c, 0x0b, 0xca, 0xbd, 0x5c, 0x04, 0x09, 0xbe,
            0x0f, 0xf7, 0x29, 0x3e, 0x0f, 0x69, 0xa2, 0xbe, 0x74, 0xb7,
            0x7d, 0x3e, 0x2e, 0xe7, 0xf3, 0x3c, 0x34, 0xf8, 0x43, 0xbe,
            0x29, 0x66, 0x57, 0x3e, 0xd0, 0x96, 0x9b, 0xbe, 0x25, 0x14,
            0xbd, 0x3c, 0x65, 0x77, 0x7e, 0x3e, 0x17, 0x4c, 0x17, 0xbf,
            0xf9, 0xce, 0x92, 0x3d, 0x14, 0x5d, 0x88, 0xbe, 0x78, 0xc6,
            0xe7, 0xbd, 0xb4, 0xff, 0xa8, 0x3d, 0xb9, 0x67, 0xed, 0xbe,
            0xc8, 0x9b, 0x90, 0xbd, 0x42, 0xab, 0x79, 0xbd, 0xa2, 0xfc,
            0x9d, 0xbe, 0x6a, 0x32, 0x25, 0xbf, 0xb5, 0xdd, 0x94, 0x3e,
            0xf8, 0x8b, 0x73, 0xbd, 0xc5, 0x74, 0xab, 0x3e, 0xb4, 0x1e,
            0x9e, 0x3d, 0x8b, 0x1a, 0x25, 0xbe, 0x31, 0x0c, 0x4b, 0x3f,
            0x55, 0x5f, 0x23, 0x3f, 0x8e, 0xea, 0x76, 0xbe, 0xdc, 0x3f,
            0xb4, 0xbd, 0x90, 0x8d, 0xd5, 0x3d, 0xc3, 0xe6, 0x8e, 0x3e,
            0x3b, 0x37, 0x3f, 0xbb, 0xc9, 0x7f, 0xf0, 0x3e, 0xbf, 0x11,
            0x19, 0xbc, 0xb2, 0xe7, 0xa0, 0xbd, 0x3e, 0xd7, 0xc3, 0xbe,
            0xb0, 0xfd, 0x3e, 0x3e, 0x06, 0x6f, 0xf3, 0x3c, 0x66, 0x98,
            0x08, 0xbe, 0x06, 0x67, 0x18, 0x3e, 0x7e, 0xf1, 0x04, 0xbe,
            0xc0, 0x21, 0x6f, 0x3e, 0x81, 0xc9, 0x0c, 0x3f, 0xfb, 0x2d,
            0xbd, 0x3e, 0xaa, 0x06, 0x84, 0x3e, 0xd9, 0xac, 0x05, 0xbf,
            0xce, 0x46, 0xb7, 0xbe, 0xc1, 0x09, 0x24, 0x3e, 0x58, 0x15,
            0xfe, 0x3d, 0x2d, 0xc4, 0x8e, 0xbe, 0x2e, 0x9a, 0x07, 0xbf,
            0x3a, 0xad, 0xb4, 0x3e, 0xa3, 0xd2, 0xa9, 0xbe, 0x20, 0x45,
            0x3d, 0xbe, 0x88, 0x1a, 0x81, 0x3f, 0x05, 0xc0, 0x0e, 0x3f,
            0x18, 0x60, 0x47, 0x3e, 0x99, 0x2d, 0xa3, 0xbe, 0xc5, 0x15,
            0x0d, 0x3e, 0x9a, 0x06, 0x17, 0x3f, 0x3a, 0xbb, 0x1a, 0xbd,
            0x21, 0xcc, 0x8a, 0x3e, 0xec, 0x9e, 0xbd, 0xbe, 0x24, 0x54,
            0x11, 0xbf, 0xd9, 0x50, 0x30, 0x3e, 0x04, 0x40, 0x4f, 0x3e,
            0xc9, 0xce, 0xe0, 0x3d, 0xa0, 0xae, 0xcd, 0x3e, 0xf2, 0xac,
            0xf6, 0x3d, 0x7e, 0x04, 0x9d, 0x3d, 0xaa, 0xb0, 0xac, 0x3c,
            0xa2, 0x4b, 0xe4, 0x3e, 0x41, 0xb6, 0x80, 0xbe, 0xa9, 0x0e,
            0x87, 0x3c, 0x52, 0x04, 0x53, 0xbf, 0xa2, 0x2d, 0xaa, 0xbd,
            0x25, 0xf2, 0x98, 0x3e, 0xd2, 0x27, 0x93, 0xbe, 0xe7, 0x22,
            0xad, 0xbe, 0xc3, 0x93, 0xe3, 0xbd, 0x09, 0x29, 0xa3, 0x3e,
            0x6f, 0x8a, 0x7c, 0xbf, 0x7e, 0x3e, 0xf5, 0x3e, 0x7a, 0x0b,
            0xd4, 0xbc, 0x65, 0x09, 0x0e, 0xbf, 0xbf, 0xaf, 0xb0, 0xbe,
            0x4b, 0x6d, 0x26, 0x3e, 0x0f, 0x22, 0x8c, 0x3e, 0x3f, 0x44,
            0x14, 0x3e, 0xb5, 0x9f, 0x30, 0xbf, 0x59, 0x86, 0xfb, 0xbe,
            0x21, 0x41, 0x7a, 0xbe, 0x82, 0x23, 0x82, 0x3e, 0x88, 0x31,
            0x48, 0x3e, 0x98, 0x17, 0x06, 0x3f, 0x3a, 0xbd, 0x39, 0xbf,
            0x2b, 0xa3, 0x4d, 0x3e, 0xd7, 0x1b, 0x9e, 0x3e, 0x53, 0xd5,
            0xe8, 0x3e, 0x98, 0xe8, 0x3b, 0xbe, 0x5d, 0x0e, 0x49, 0xbe,
            0x08, 0xfb, 0xe3, 0x3e, 0xb0, 0xd1, 0x5e, 0x3e, 0xe1, 0xbd,
            0xb1, 0x3e, 0xc1, 0x4d, 0xf9, 0x3e, 0x10, 0x76, 0x02, 0xbf,
            0xb4, 0x6a, 0x16, 0x3e, 0x0e, 0x5c, 0x27, 0xbd, 0x8c, 0xe2,
            0x20, 0xbd, 0x75, 0xc8, 0xce, 0xbe, 0x4b, 0x74, 0xc5, 0x3e,
            0xda, 0x77, 0xdc, 0x3e, 0x87, 0x16, 0x5a, 0x3d, 0x6a, 0xb5,
            0x92, 0xbf, 0xb6, 0xcd, 0x43, 0xbe, 0x61, 0x34, 0x55, 0xbf,
            0x48, 0x56, 0x2a, 0xbe, 0x48, 0xfc, 0x6d, 0xbf, 0xab, 0xe3,
            0x9a, 0x3f, 0xe6, 0x63, 0xbf, 0xbd, 0x59, 0x66, 0xb5, 0xbe,
            0xfe, 0xee, 0x02, 0xbf, 0xa7, 0x91, 0x3c, 0xbe, 0xe7, 0x4c,
            0x7d, 0xbf, 0x54, 0xe8, 0xcb, 0xbd, 0xb1, 0x8a, 0xbb, 0xbe,
            0x0f, 0x75, 0xa4, 0xbc, 0x0a, 0xfd, 0xdd, 0x3e, 0x65, 0x3a,
            0x07, 0x3e, 0x56, 0xe3, 0xfb, 0xbd, 0x3a, 0xa7, 0xa3, 0xbe,
            0x14, 0xae, 0x31, 0x3f, 0x66, 0x6f, 0x43, 0x3f, 0xba, 0x06,
            0x2d, 0x3e, 0xbf, 0x95, 0xfa, 0xbd, 0x19, 0xe5, 0x9f, 0x3d,
            0xaa, 0x8a, 0xb4, 0xbe, 0x5e, 0x13, 0xac, 0x3d, 0xa9, 0xcb,
            0x71, 0xbe, 0x88, 0x7e, 0x1b, 0x3e, 0xa5, 0x59, 0x52, 0x3f,
            0x9e, 0xe9, 0x8c, 0x3f, 0xc5, 0x57, 0x9f, 0x3e, 0x85, 0x27,
            0xbf, 0x3e, 0x88, 0x28, 0xfc, 0x3e, 0x1a, 0x74, 0xd9, 0x3e,
            0x85, 0x85, 0xc1, 0xbe, 0x09, 0xb5, 0x6e, 0x3f, 0x39, 0x9c,
            0xab, 0x3e, 0x3d, 0xe2, 0x5d, 0xbf, 0xd9, 0xde, 0xd4, 0xbd,
            0x28, 0x54, 0x35, 0x3e, 0x34, 0x8d, 0x65, 0xbe, 0x75, 0x68,
            0x84, 0xbf, 0xc3, 0x60, 0x18, 0xbf, 0x19, 0xfa, 0x15, 0x3f,
            0xb8, 0x0c, 0x82, 0x3f, 0x9a, 0xf3, 0x6f, 0x3e, 0x26, 0xfd,
            0xd0, 0x3e, 0x7d, 0x0a, 0xf8, 0xbe, 0x56, 0x39, 0x9a, 0xbe,
            0x0b, 0x06, 0x54, 0xbe, 0xc5, 0xac, 0xb5, 0x3e, 0xe4, 0xee,
            0xd3, 0x3e, 0x7a, 0x97, 0xaf, 0xbe, 0x95, 0xea, 0x7d, 0xbf,
            0x93, 0xcb, 0xd9, 0x3e, 0xd5, 0x2c, 0x92, 0x3d, 0x86, 0xfb,
            0x22, 0x3e, 0x99, 0xfa, 0xa6, 0xbf, 0x07, 0x32, 0x16, 0x3f,
            0x5b, 0x4b, 0xe5, 0x3e, 0xfd, 0xdd, 0xca, 0x3e, 0x33, 0x93,
            0x65, 0xbf, 0xe6, 0xd3, 0x3b, 0x3e, 0x78, 0x95, 0x8c, 0xbe,
            0xb1, 0xb3, 0x58, 0x3f, 0x90, 0xf9, 0x09, 0xbf, 0x97, 0x4f,
            0x69, 0xbe, 0x9c, 0x12, 0x10, 0xbd, 0x41, 0xe3, 0x42, 0xbe,
            0xb6, 0x4a, 0xdc, 0xbe, 0x52, 0xef, 0xae, 0x3f, 0xf1, 0xd0,
            0x18, 0xbe, 0x17, 0xe8, 0xf0, 0xbd, 0xf8, 0x27, 0xcc, 0xbe,
            0xc2, 0xa5, 0xc6, 0xbd, 0x90, 0xfa, 0xc6, 0xbf, 0x7c, 0x4e,
            0x0e, 0xbf, 0x21, 0x5d, 0xc1, 0x3e, 0xb3, 0x38, 0x10, 0xbe,
            0xc4, 0x3b, 0x72, 0x3f, 0x44, 0xb0, 0xf6, 0x3d, 0xe9, 0x7f,
            0xa6, 0xbe, 0xf5, 0xf1, 0x26, 0xbd, 0xdd, 0x0b, 0xec, 0x3e,
            0xce, 0x36, 0x99, 0xbe, 0xbb, 0x43, 0x6c, 0x3f, 0x3e, 0x6a,
            0x83, 0x3c, 0x4a, 0xee, 0xeb, 0x3e, 0xc7, 0x34, 0x96, 0xbf,
            0x87, 0x4c, 0x2b, 0xbf, 0xea, 0x94, 0x11, 0xbf, 0x81, 0xd1,
            0x2e, 0xbe, 0x46, 0x27, 0x7d, 0x3f, 0x6f, 0x70, 0xdc, 0x3d,
            0x77, 0x19, 0x1d, 0x3e, 0x69, 0x63, 0x87, 0x3f, 0xe9, 0x0f,
            0x12, 0x3f, 0x07, 0x8c, 0x6a, 0xbe, 0xf3, 0x9c, 0x85, 0xbe,
            0xc0, 0xe4, 0x77, 0x3f, 0x9b, 0xe8, 0x9a, 0x3e, 0xfb, 0x7f,
            0x1f, 0xbe, 0x56, 0x7b, 0x06, 0x3f, 0x0a, 0x28, 0xe8, 0xbe,
            0xc2, 0xbd, 0xb5, 0xbe, 0xd3, 0x5f, 0xf2, 0xbe, 0xd7, 0xa8,
            0x73, 0xbf, 0x33, 0xf3, 0x65, 0x3f, 0x02, 0xd2, 0x60, 0xbd,
            0x91, 0xec, 0x06, 0x3e, 0x7c, 0xfd, 0x72, 0x3f, 0xf5, 0xbf,
            0x7c, 0x3f, 0xbd, 0xcc, 0x13, 0xbf, 0xc6, 0xe3, 0x78, 0xbe,
            0x23, 0xc7, 0x24, 0x3f, 0x1b, 0x13, 0x5d, 0xbf, 0x0a, 0xc0,
            0x6b, 0xbe, 0xca, 0x7f, 0x2b, 0xbf, 0xce, 0xf3, 0x0c, 0x3e,
            0x29, 0xaf, 0xd6, 0xbe, 0x92, 0xc0, 0xc1, 0x3e, 0x25, 0x2e,
            0x69, 0xbe, 0xfd, 0xb9, 0x55, 0x3f, 0x06, 0x92, 0x2d, 0x3f,
            0x82, 0x22, 0xf9, 0xbb, 0x5e, 0x2f, 0x77, 0xbf, 0xc0, 0x1e,
            0x50, 0x3f, 0x26, 0x74, 0xf1, 0x3d, 0x7c, 0xb0, 0x98, 0x3f,
            0xcf, 0x8e, 0x8b, 0xbe, 0x55, 0xfe, 0x58, 0x3f, 0xb2, 0x38,
            0x17, 0x3f, 0xb7, 0x8c, 0x9f, 0x3d, 0xec, 0xa8, 0x97, 0x3e,
            0x51, 0x31, 0xd3, 0x3d, 0xa1, 0x60, 0x80, 0xbf, 0x73, 0x78,
            0x64, 0xbe, 0x50, 0x72, 0x95, 0xbe, 0x22, 0xf9, 0xd3, 0x3e,
            0xa1, 0xa5, 0x65, 0x3e, 0xf7, 0xde, 0x38, 0xbf, 0x1d, 0x5b,
            0x68, 0xbc, 0x02, 0x18, 0x07, 0x3e, 0x92, 0x43, 0x64, 0xbf,
            0xfd, 0x27, 0xb7, 0xbe, 0x46, 0x4a, 0xc5, 0x3e, 0x82, 0x9e,
            0xf2, 0xbe, 0x4a, 0xa3, 0x01, 0x3f, 0xad, 0x54, 0x9f, 0x3e,
            0x61, 0xb8, 0x1e, 0x3e, 0x07, 0xdc, 0x23, 0x3d, 0xdf, 0xd7,
            0xc2, 0xbe, 0x75, 0x01, 0x14, 0x3f, 0xa1, 0xe7, 0x85, 0xbf,
            0x77, 0xf8, 0xa6, 0x3e, 0x0c, 0x2c, 0x16, 0xbd, 0x9d, 0xfd,
            0xc7, 0xbe, 0xd9, 0xf1, 0x22, 0xbf, 0xa1, 0x2e, 0x1f, 0xbf,
            0xd7, 0x9d, 0x24, 0x3f, 0x97, 0xd6, 0x80, 0x3e, 0x96, 0x53,
            0x84, 0xbf, 0x2c, 0x1f, 0x51, 0xbf, 0x39, 0x2d, 0x24, 0x3f,
            0x31, 0xac, 0xf4, 0xbd, 0x9d, 0xd2, 0x1b, 0xbf, 0x60, 0x32,
            0x23, 0xbf, 0xc7, 0x8f, 0x3c, 0x3e, 0x59, 0x5b, 0xa0, 0xbe,
            0x5c, 0x1d, 0x2b, 0xbf, 0xbe, 0x45, 0x22, 0x3f, 0x1d, 0x75,
            0x3c, 0x3f, 0xf1, 0x02, 0xfb, 0xbe, 0x6d, 0x0e, 0x00, 0xbe,
            0x60, 0x30, 0x3f, 0x3f, 0x98, 0x39, 0x1f, 0x3f, 0xac, 0x73,
            0x40, 0xbe, 0xff, 0xbc, 0xc5, 0x3e, 0x73, 0xf4, 0xac, 0xbe,
            0x08, 0x89, 0x3e, 0xbe, 0x0e, 0xc5, 0x19, 0xbe, 0xc3, 0x37,
            0x8f, 0x3c, 0xdb, 0x1f, 0xd4, 0x3e, 0x5e, 0x9d, 0x4d, 0xbf,
            0xe4, 0x22, 0xb0, 0x3e, 0x27, 0x7d, 0xc4, 0xbe, 0xb2, 0x52,
            0xd4, 0x3d, 0x67, 0xeb, 0xc0, 0xbe, 0x7a, 0x59, 0xf3, 0x3e,
            0x44, 0xe9, 0x0e, 0xbf, 0xbb, 0x53, 0x13, 0x3e, 0xea, 0xfa,
            0x95, 0xbd, 0xd3, 0x05, 0xd5, 0x3d, 0x60, 0x3f, 0x41, 0xbe,
            0x2f, 0xe1, 0x61, 0xbe, 0x5f, 0x6d, 0x81, 0xbd, 0xcb, 0x8d,
            0x5e, 0x3e, 0x02, 0x4d, 0x35, 0x3f, 0xbf, 0x29, 0x00, 0x3e,
            0xd4, 0x15, 0xb3, 0xbe, 0x40, 0x9e, 0x81, 0xbe, 0xfe, 0xc1,
            0xa6, 0xbd, 0x66, 0xcc, 0x11, 0x3e, 0xb5, 0xa2, 0xb9, 0xbe,
            0x6e, 0xeb, 0x12, 0x3b, 0x4a, 0xcb, 0xbe, 0x3b, 0x89, 0x36,
            0x03, 0x3d, 0xb2, 0xca, 0x50, 0x3e, 0xf3, 0x29, 0x02, 0x3f,
            0xa6, 0x48, 0x93, 0x3d, 0x31, 0xc4, 0x94, 0xbd, 0x3a, 0x0b,
            0x6f, 0x3e, 0x61, 0xed, 0xb4, 0xbe, 0x01, 0x31, 0x8f, 0x3e,
            0xf5, 0x38, 0xb3, 0x3e, 0x49, 0x41, 0xe5, 0xbe, 0x54, 0xe5,
            0x09, 0xbf, 0xde, 0x1c, 0x09, 0x3b, 0x25, 0x32, 0x38, 0xbf,
            0x71, 0x27, 0x89, 0xbb, 0xcc, 0x42, 0xf3, 0xbd, 0x3e, 0xcb,
            0x43, 0xbe, 0x83, 0x46, 0x96, 0x3e, 0x74, 0xd0, 0x52, 0xbf,
            0xfc, 0x24, 0x5e, 0xbe, 0x64, 0xb9, 0x99, 0xbe, 0x90, 0xe9,
            0x94, 0xbe, 0x26, 0x99, 0x0c, 0x3d, 0xeb, 0xfc, 0x2c, 0xbd,
            0x8a, 0x6d, 0x7e, 0xbe, 0xeb, 0xbf, 0xf8, 0xbe, 0x1f, 0x52,
            0x2b, 0x3e, 0x71, 0x3a, 0x6e, 0x3b, 0x24, 0xa1, 0x4b, 0xbf,
            0x39, 0x1d, 0x22, 0x3f, 0xf1, 0xa8, 0xb7, 0x3e, 0x1c, 0x2f,
            0x56, 0x3e, 0xcd, 0xfe, 0x7b, 0x3e, 0x00, 0x01, 0xda, 0xbe,
            0xb7, 0x0e, 0x0b, 0x3f, 0xcf, 0xc7, 0x3f, 0xbf, 0xb7, 0xe2,
            0x20, 0xbd, 0x0f, 0x8a, 0x50, 0xbf, 0xae, 0x6c, 0xd1, 0xbe,
            0xd7, 0xe8, 0x43, 0x3d, 0xdf, 0x56, 0x95, 0xbe, 0x16, 0x11,
            0x02, 0xbe, 0x71, 0xc0, 0x1a, 0x3f, 0xf3, 0xc5, 0x2a, 0x3f,
            0x0c, 0xf6, 0x71, 0xbf, 0x05, 0x7d, 0x0e, 0x3f, 0x61, 0x40,
            0xb9, 0x3e, 0xe0, 0xa8, 0x4b, 0x3d, 0x2b, 0x26, 0xbb, 0xbe,
            0x33, 0xcf, 0xc8, 0x3e, 0x3c, 0x61, 0xbf, 0xbe, 0x4d, 0xf4,
            0x0b, 0x3e, 0x45, 0x54, 0x84, 0x3e, 0x47, 0x02, 0xf8, 0xbc,
            0x68, 0x37, 0x7f, 0x3e, 0x37, 0x52, 0x1e, 0xbf, 0x44, 0x5f,
            0xbc, 0x3e, 0x09, 0xda, 0x46, 0xbe, 0x25, 0x6f, 0xca, 0x3e,
            0x88, 0xe0, 0x57, 0xbd, 0x21, 0x2c, 0x87, 0x3e, 0x13, 0xa7,
            0x13, 0xbe, 0xba, 0x12, 0x28, 0xbe, 0xed, 0xc8, 0xa8, 0xbe,
            0x6d, 0x0d, 0x09, 0xbc, 0xe1, 0xe8, 0xca, 0xbd, 0xb8, 0x85,
            0x53, 0xbf, 0x80, 0x83, 0x9d, 0x3c, 0x6f, 0x0c, 0xc4, 0xbe,
            0xe1, 0xf0, 0xa1, 0xbe, 0xa0, 0xef, 0x0f, 0x3d, 0x00, 0x23,
            0x13, 0xbf, 0xcd, 0xd2, 0x83, 0xbe, 0xff, 0xf5, 0xb9, 0x3e,
            0x4b, 0x6c, 0xb3, 0x3e, 0x5c, 0x44, 0xc1, 0x3e, 0x5e, 0x46,
            0xcf, 0xbd, 0xe4, 0xbd, 0x9b, 0x3e, 0xdb, 0xa7, 0x9f, 0xbe,
            0x64, 0xff, 0x23, 0xbc, 0x9f, 0xf3, 0xe9, 0xbd, 0x2b, 0x8d,
            0x08, 0xbf, 0x07, 0x5b, 0xd7, 0xbc, 0x0f, 0x24, 0x41, 0x3d,
            0x9e, 0xf5, 0x90, 0x3d, 0x86, 0x1f, 0xcb, 0x3e, 0xa6, 0xa5,
            0x4d, 0xbe, 0xb2, 0xe9, 0xb8, 0x3e, 0xa0, 0x4c, 0x3b, 0x3e,
            0x66, 0x9d, 0x97, 0x3e, 0xcd, 0xe5, 0x49, 0xbf, 0xab, 0x8b,
            0x3a, 0xbf, 0x6d, 0xc6, 0xa7, 0x3e, 0x48, 0x09, 0x24, 0xbf,
            0xf0, 0xee, 0x54, 0xbf, 0xb2, 0x6b, 0x6f, 0xbf, 0x4d, 0xcb,
            0x0a, 0x39, 0x5f, 0xf9, 0x8b, 0x3e, 0x17, 0x2f, 0x92, 0xbe,
            0xeb, 0x1f, 0x8e, 0xbd, 0x49, 0x88, 0xda, 0x3e, 0x99, 0xe3,
            0x83, 0x3e, 0x2f, 0x35, 0x7a, 0xbe, 0xea, 0x8e, 0xa9, 0xbd,
            0x45, 0xee, 0x1d, 0x3f, 0x25, 0x52, 0x12, 0x3f, 0xd7, 0x64,
            0xd0, 0xbe, 0xd4, 0xbf, 0xb6, 0x3e, 0x91, 0x52, 0x3b, 0xbe,
            0xb1, 0x4d, 0x9d, 0xbe, 0xe5, 0x76, 0xbe, 0xbe, 0xbb, 0xd1,
            0xdb, 0x3d, 0xa6, 0x58, 0x08, 0x3f, 0xa7, 0x37, 0x3b, 0x3f,
            0x0c, 0xb6, 0x54, 0x3f, 0xc9, 0x28, 0x80, 0x3f, 0xa4, 0x25,
            0x8f, 0x3c, 0xa0, 0xa1, 0x2b, 0xbf, 0x3f, 0xc8, 0x9c, 0xbe,
            0xc8, 0xbb, 0x87, 0x3e, 0xb3, 0xfc, 0x22, 0xbf, 0xf9, 0x17,
            0x62, 0xbf, 0xec, 0xec, 0xf4, 0xbf, 0x79, 0x12, 0x75, 0x3d,
            0x3b, 0x09, 0x2d, 0xbe, 0xf0, 0xfb, 0x34, 0xbe, 0x44, 0x7c,
            0x1c, 0x3f, 0xc2, 0x0f, 0xde, 0x3e, 0x98, 0x3d, 0x2b, 0xbf,
            0xfe, 0x63, 0x3c, 0x3f, 0xf2, 0xbf, 0x74, 0xbe, 0x67, 0x95,
            0xe5, 0x3e, 0xeb, 0x26, 0xc8, 0x3d, 0x28, 0xe8, 0x35, 0x3e,
            0x9e, 0x7b, 0xa2, 0xbf, 0xe7, 0x2e, 0x83, 0x3f, 0x41, 0x4f,
            0xd8, 0xbd, 0x19, 0x73, 0xdd, 0xbe, 0x82, 0xe1, 0x74, 0x3b,
            0x47, 0xfc, 0x64, 0x3f, 0x15, 0x88, 0x02, 0x3f, 0x60, 0x2e,
            0xb8, 0x3e, 0x88, 0xa8, 0x90, 0xba, 0xfc, 0x00, 0x8b, 0xbe,
            0xec, 0x45, 0x0e, 0xbf, 0xfe, 0x2d, 0x16, 0x3e, 0x15, 0xaf,
            0x43, 0x3f, 0x73, 0x52, 0x1d, 0x3d, 0x1b, 0x1b, 0x8e, 0xbe,
            0xeb, 0xba, 0xaf, 0xbe, 0x61, 0xb1, 0x15, 0xbf, 0x3b, 0x28,
            0xe7, 0xbe, 0x6c, 0x2e, 0x80, 0x3d, 0x15, 0x24, 0x08, 0xbe,
            0x60, 0xc9, 0x8f, 0x3e, 0xd4, 0x87, 0xf7, 0xbe, 0x99, 0x76,
            0xa4, 0xbe, 0x5a, 0x4a, 0x81, 0xbe, 0x1e, 0x06, 0x69, 0x3f,
            0xf4, 0x5a, 0x40, 0x3f, 0x22, 0x92, 0x03, 0xbf, 0x8c, 0xd4,
            0xdd, 0xbd, 0x24, 0x79, 0x47, 0x3f, 0x6a, 0x18, 0xe4, 0x3e,
            0xf0, 0x9f, 0x1f, 0x3e, 0xe2, 0x4f, 0xf8, 0x3e, 0x9a, 0xa1,
            0x4d, 0xbe, 0x0f, 0x89, 0x23, 0x3f, 0xe7, 0x84, 0x2d, 0xbf,
            0x6f, 0x3f, 0xb7, 0xbd, 0x4f, 0x4d, 0x86, 0xbf, 0x36, 0x4c,
            0x5b, 0xbe, 0xef, 0x49, 0x01, 0x3f, 0xe6, 0xcc, 0xc7, 0x3e,
            0x39, 0x7d, 0x16, 0xbf, 0xb4, 0xce, 0x2e, 0x3e, 0x8a, 0xed,
            0x95, 0x3c, 0x03, 0x97, 0x8c, 0xbf, 0xf5, 0xd0, 0x12, 0xbf,
            0x3d, 0xf4, 0x0f, 0x3f, 0x79, 0xdb, 0x8f, 0x3e, 0xf8, 0xc0,
            0xc7, 0xbe, 0x48, 0xe2, 0x34, 0xbf, 0xdf, 0x59, 0x25, 0xbf,
            0xa3, 0x70, 0x4b, 0x3f, 0x19, 0xca, 0x8e, 0xbe, 0x86, 0xe9,
            0xa7, 0x3d, 0x83, 0x09, 0x16, 0xbe, 0x61, 0x7d, 0xef, 0xbe,
            0x70, 0xab, 0x99, 0xbe, 0xe5, 0x04, 0xfc, 0x3e, 0x07, 0xaf,
            0x32, 0x3f, 0x99, 0x95, 0x12, 0x3f, 0x92, 0x0b, 0x01, 0xbf,
            0x2b, 0x93, 0x71, 0xbf, 0x99, 0xb4, 0x84, 0x3e, 0xb7, 0x23,
            0x82, 0xbd, 0x6f, 0xc7, 0x58, 0x3f, 0x81, 0x6c, 0xec, 0xbe,
            0x6e, 0x1c, 0x48, 0x3e, 0x76, 0x31, 0xea, 0x3d, 0x1f, 0x11,
            0x4e, 0x3d, 0x08, 0xb9, 0x1a, 0x3e, 0x48, 0x3a, 0xd8, 0xbb,
            0x63, 0xef, 0x7a, 0x3e, 0x35, 0x3d, 0xc0, 0x3e, 0x7d, 0xc3,
            0x53, 0x3e, 0xcf, 0xc6, 0xe8, 0xbe, 0xc8, 0x9f, 0xbf, 0xbe,
            0x36, 0x02, 0xc5, 0x3e, 0xf1, 0x29, 0xa4, 0x3e, 0x6a, 0x32,
            0x8f, 0x3f, 0xa2, 0x4b, 0x49, 0x3f, 0x57, 0xde, 0x8a, 0xbe,
            0x32, 0x21, 0x6e, 0xbf, 0x9f, 0x28, 0x31, 0x3e, 0xd8, 0x04,
            0xdd, 0x3e, 0xf7, 0x90, 0x7e, 0x3f, 0x5e, 0x37, 0x27, 0xbe,
            0x34, 0xd6, 0x75, 0xbf, 0x86, 0xd2, 0x14, 0x3f, 0x5a, 0xc6,
            0x63, 0x3f, 0xca, 0xc3, 0xc9, 0xbe, 0x96, 0xe9, 0x7b, 0x3b,
            0xe9, 0xb9, 0x25, 0xbf, 0xc6, 0x85, 0xf2, 0x3c, 0x97, 0x28,
            0x92, 0x3e, 0x34, 0xc8, 0x90, 0x3e, 0x09, 0x18, 0x22, 0xbf,
            0x60, 0xc2, 0xc4, 0xbe, 0xab, 0xd0, 0xf4, 0xbc, 0xad, 0xe1,
            0x65, 0xbf, 0xf7, 0xc9, 0x2e, 0x3f, 0x1e, 0x08, 0xea, 0x3e,
            0x35, 0xaa, 0xa8, 0xbe, 0xaf, 0x00, 0xc8, 0x3e, 0x30, 0xb7,
            0x09, 0x3f, 0x94, 0xe9, 0x91, 0x3f, 0xd0, 0x93, 0xac, 0x3f,
            0x19, 0x0c, 0x73, 0xbf, 0x7c, 0xf5, 0x03, 0xbe, 0x98, 0x81,
            0xd1, 0x3d, 0x11, 0xe6, 0xa7, 0x3e, 0x20, 0x02, 0xbe, 0xbd,
            0xa3, 0xdb, 0x5c, 0x3e, 0x0b, 0x45, 0xdc, 0x3d, 0x21, 0x46,
            0xd4, 0xbd, 0x42, 0x57, 0xbd, 0x3b, 0xaf, 0x42, 0xbb, 0x3d,
            0x62, 0x2c, 0x01, 0xbf, 0x31, 0x89, 0x85, 0x3e, 0x4f, 0x0b,
            0x03, 0x3d, 0x2e, 0x5b, 0x14, 0x3f, 0x15, 0xd1, 0x5d, 0x3a,
            0x89, 0x00, 0xbe, 0xbe, 0xec, 0x51, 0x14, 0xbe, 0x62, 0x10,
            0x82, 0xbe, 0x76, 0x37, 0x00, 0x3d, 0x43, 0xfd, 0x95, 0x3e,
            0x72, 0xa7, 0xea, 0x3e, 0xa0, 0x75, 0x0f, 0x3e, 0xf3, 0x7d,
            0x55, 0x3d, 0x19, 0x5b, 0x04, 0xbd, 0x27, 0xb5, 0x9f, 0xbe,
            0xc4, 0x69, 0xb0, 0xbc, 0x86, 0xf9, 0xa9, 0xbe, 0x47, 0x2a,
            0x74, 0x3c, 0x2e, 0x00, 0x4d, 0x3e, 0x62, 0x9c, 0x0a, 0x3f,
            0x4f, 0xd4, 0xa6, 0x3e, 0xbc, 0x36, 0x73, 0x3d, 0x68, 0xc5,
            0xb1, 0xbd, 0xf8, 0xfe, 0x39, 0x3e, 0x3d, 0x80, 0xaa, 0x3d,
            0xf3, 0xe5, 0x2b, 0xbe, 0xee, 0xa8, 0x05, 0x3f, 0x39, 0xd7,
            0x7d, 0xbd, 0xb9, 0xa7, 0x1c, 0xbe, 0x03, 0x59, 0x9a, 0x3e,
            0x37, 0xc5, 0x50, 0x3e, 0x16, 0x48, 0x68, 0x3f, 0x3f, 0x66,
            0xa6, 0xbe, 0x67, 0x5d, 0xd0, 0x3e, 0x1d, 0xb2, 0x29, 0xbe,
            0x0e, 0x21, 0xb1, 0x3e, 0xec, 0xcb, 0xf2, 0xbe, 0x1e, 0x27,
            0x97, 0x3e, 0xfb, 0xa9, 0x50, 0xbe, 0x85, 0xc0, 0x19, 0xbc,
            0x2a, 0x57, 0xd3, 0xbe, 0xe2, 0x9f, 0xdc, 0xbe, 0xb9, 0x39,
            0x80, 0xbe, 0xe7, 0x99, 0x9a, 0xbc, 0x50, 0x4f, 0x1f, 0xbd,
            0x60, 0xed, 0xdc, 0x3e, 0xa2, 0x22, 0x0e, 0x3f, 0x67, 0xd7,
            0xa8, 0x3c, 0x4e, 0xde, 0x5d, 0xbf, 0xad, 0xd4, 0xe8, 0xbd,
            0xf8, 0x11, 0x1d, 0xbd, 0x47, 0x00, 0x73, 0x3f, 0xb4, 0x6f,
            0x95, 0xbd, 0x53, 0x1d, 0xaf, 0x3e, 0xf1, 0xf5, 0x4b, 0x3d,
            0x45, 0x5f, 0x7c, 0x3e, 0xf6, 0x5a, 0xdb, 0xbe, 0xfc, 0xc3,
            0x92, 0xbe, 0x5c, 0xd2, 0xa9, 0xbd, 0x5b, 0x8a, 0x08, 0xbc,
            0x5f, 0x60, 0x22, 0xbf, 0x8d, 0x45, 0x00, 0x3f, 0xa7, 0x05,
            0xf3, 0x3e, 0x32, 0xb3, 0x02, 0xbc, 0x42, 0x83, 0x36, 0xbf,
            0x1a, 0xcb, 0x14, 0xbf, 0x1d, 0x75, 0x23, 0x3e, 0x65, 0xcb,
            0xd3, 0xbe, 0xe9, 0xf7, 0x3c, 0x3e, 0xf0, 0x0d, 0xc2, 0x3f,
            0x7c, 0x5a, 0xbe, 0xbd, 0x63, 0xb8, 0x62, 0x3e, 0x35, 0x94,
            0x58, 0x3e, 0x61, 0xd6, 0x91, 0x3f, 0x9c, 0x91, 0xa3, 0xbe,
            0xde, 0x4f, 0x45, 0xbf, 0xd9, 0xd5, 0xe7, 0x3e, 0xc5, 0xde,
            0x3b, 0xbf, 0x58, 0x90, 0x3c, 0xbe, 0xd3, 0xd1, 0x55, 0x3f,
            0xe7, 0x97, 0x8b, 0x3e, 0x2c, 0xd4, 0x2c, 0x3e, 0xa9, 0x9f,
            0x92, 0x3f, 0xdf, 0x86, 0x09, 0x3f, 0x6f, 0x3c, 0x41, 0x3f,
            0xb8, 0xb8, 0xbb, 0x3e, 0x94, 0x6b, 0x3f, 0x3d, 0x74, 0xb9,
            0x55, 0x3f, 0x74, 0x4d, 0x69, 0x3f, 0xd5, 0x0a, 0x33, 0x3f,
            0xa6, 0xc2, 0x9b, 0x3e, 0x2b, 0x55, 0x9e, 0x3e, 0x7d, 0x22,
            0x98, 0xbe, 0xc5, 0x67, 0xfa, 0xbe, 0x97, 0x5b, 0x8e, 0xbf,
            0xc6, 0xff, 0x25, 0x3f, 0x5a, 0xfc, 0x45, 0x3d, 0x0e, 0x1b,
            0x1a, 0x3e, 0x05, 0xd6, 0x85, 0xbe, 0x43, 0xea, 0x59, 0xbf,
            0x50, 0xa9, 0x61, 0xbf, 0x21, 0x5f, 0x2b, 0xbf, 0x24, 0x8e,
            0x03, 0x3f, 0xef, 0x36, 0xbd, 0xbe, 0x2e, 0x8d, 0x09, 0xbf,
            0x67, 0x8c, 0x66, 0xbd, 0x6e, 0x3e, 0x3e, 0x3f, 0xeb, 0xc9,
            0xbd, 0x3d, 0x8c, 0x00, 0xc3, 0x3d, 0xb5, 0xf1, 0x23, 0xbf,
            0xa2, 0x0b, 0x92, 0xbf, 0x32, 0xf7, 0x72, 0xb8, 0x11, 0xe8,
            0x60, 0x3f, 0x31, 0xe0, 0xf7, 0xbe, 0x36, 0x7f, 0xa8, 0xbf,
            0xfa, 0xbb, 0xb4, 0x3e, 0x77, 0x8b, 0xda, 0xbe, 0xfc, 0x21,
            0x65, 0xbd, 0x55, 0x46, 0xa1, 0x3e, 0x06, 0xd0, 0x5b, 0x3e,
            0xdb, 0x7f, 0xe7, 0x3d, 0x15, 0x5f, 0x4d, 0xbe, 0xf1, 0xe8,
            0xd7, 0x3d, 0xea, 0x5a, 0x0d, 0x3f, 0x67, 0x68, 0x0e, 0xbe,
            0x64, 0xff, 0xf5, 0xbd, 0x54, 0xd8, 0x60, 0x3f, 0xe7, 0xdd,
            0x26, 0xbe, 0xf9, 0x1a, 0x4a, 0x3e, 0xb8, 0xd6, 0x4e, 0xbf,
            0x46, 0x4d, 0x20, 0x3c, 0x61, 0xcf, 0x64, 0xbe, 0xc6, 0xe3,
            0x82, 0x3e, 0x75, 0x97, 0x47, 0x3f, 0x66, 0x00, 0x29, 0x3e,
            0x6e, 0x23, 0x8d, 0xbe, 0x50, 0x15, 0xcc, 0x3f, 0xca, 0x74,
            0x37, 0x3f, 0xf7, 0x4a, 0x4c, 0x3e, 0xa7, 0x82, 0x3e, 0xbe,
            0x69, 0x62, 0x4d, 0xbe, 0x70, 0xa4, 0x42, 0xbf, 0xc1, 0x24,
            0x7f, 0x3e, 0x56, 0x7a, 0xa6, 0xbf, 0xc8, 0xd5, 0x90, 0xbe,
            0x4d, 0x9e, 0x22, 0xbe, 0x3b, 0xd5, 0xbc, 0x3f, 0x7f, 0x55,
            0xbd, 0xbe, 0x48, 0x61, 0xe1, 0xbd, 0xef, 0x66, 0x83, 0x3f,
            0xf0, 0x42, 0x87, 0xbe, 0x92, 0xda, 0xdc, 0x3d, 0xce, 0x49,
            0x02, 0x3f, 0x2b, 0x8d, 0x1f, 0xbe, 0xec, 0xbe, 0xe4, 0xbb,
            0x3a, 0xf5, 0x18, 0xbe, 0x1a, 0x95, 0xd4, 0x3e, 0x29, 0xd0,
            0xa7, 0xbe, 0x5a, 0x66, 0x09, 0xbf, 0x5c, 0xd0, 0x70, 0xbe,
            0x9e, 0x15, 0x14, 0x3d, 0x1e, 0x19, 0x99, 0x3e, 0x85, 0x7c,
            0x11, 0xbf, 0xe9, 0x0e, 0xf0, 0xbc, 0x2b, 0x4e, 0xcc, 0xbe,
            0xc5, 0x47, 0x2e, 0x3f, 0x86, 0x4f, 0xea, 0x3e, 0xa7, 0x5e,
            0x2a, 0x3f, 0x2c, 0x27, 0x02, 0xbf, 0xad, 0x5c, 0xbc, 0x3e,
            0x6b, 0x8d, 0x92, 0xbd, 0xd3, 0x33, 0x7c, 0x3e, 0x83, 0x3e,
            0x20, 0x3f, 0x9a, 0xf7, 0x75, 0x3e, 0x31, 0xbe, 0xc9, 0xbe,
            0xdf, 0x52, 0xc4, 0xbd, 0x4d, 0xa0, 0x12, 0x3f, 0x7d, 0x81,
            0xbe, 0xbe, 0x1e, 0x58, 0x4b, 0xbf, 0x3e, 0x47, 0x4b, 0x3f,
            0xe9, 0xb8, 0x4b, 0xbf, 0x51, 0xc5, 0x9c, 0xbf, 0x52, 0x63,
            0x03, 0x3f, 0x0e, 0x0e, 0x10, 0xbf, 0x48, 0xd5, 0x70, 0xbd,
            0xfe, 0xb8, 0x9f, 0xbd, 0x27, 0x37, 0xaa, 0x3e, 0x50, 0xad,
            0x63, 0x3f, 0x06, 0x60, 0x45, 0xbe, 0x8c, 0xdf, 0x4c, 0xbc,
            0x8c, 0x38, 0x31, 0x3e, 0x3c, 0xeb, 0xbc, 0xbe, 0x46, 0x49,
            0xe9, 0x3e, 0x7a, 0x64, 0xa1, 0xbe, 0xea, 0xf7, 0xe6, 0x3d,
            0xdf, 0x0f, 0x88, 0x3e, 0x9b, 0xb2, 0x08, 0xbc, 0xa9, 0x54,
            0xf3, 0xbe, 0x2e, 0xe4, 0x88, 0xbe, 0xf4, 0xde, 0xa3, 0xbe,
            0x10, 0xb7, 0x0b, 0xbf, 0x3c, 0xf5, 0x95, 0xbd, 0xfc, 0xdf,
            0xc8, 0xbe, 0x6e, 0xa1, 0x7e, 0x3e, 0xb7, 0x37, 0xc5, 0xbb,
            0xfe, 0x94, 0x2e, 0x3e, 0xb8, 0x82, 0x2f, 0x3d, 0xdc, 0xf9,
            0xc6, 0x3e, 0x43, 0xe0, 0x38, 0x3f, 0xc5, 0x59, 0xb4, 0xbb,
            0x20, 0xdc, 0xcb, 0x3d, 0x90, 0x8d, 0xca, 0x3d, 0x35, 0x6b,
            0x8e, 0x3e, 0x4b, 0xd3, 0xe5, 0xbd, 0x2c, 0xf1, 0xe1, 0x3e,
            0x20, 0x8f, 0xc2, 0x3e, 0xd3, 0x6b, 0x06, 0x3f, 0x89, 0x88,
            0x14, 0xbe, 0xe8, 0x8e, 0x61, 0x3e, 0xd7, 0xbb, 0x18, 0xbe,
            0x4f, 0x51, 0xdd, 0xbd, 0x9b, 0x33, 0xc7, 0x3e, 0x79, 0x2f,
            0x95, 0x3e, 0x32, 0x3d, 0x1f, 0x3f, 0x41, 0x9a, 0x06, 0x3f,
            0x54, 0x02, 0x0d, 0x3e, 0xbf, 0xb9, 0xe9, 0x3d, 0x28, 0xaa,
            0xb9, 0xbf, 0x09, 0x57, 0x09, 0xbf, 0x1f, 0x24, 0xcd, 0xbd,
            0x28, 0x59, 0x36, 0xbe, 0x16, 0xdc, 0x0f, 0xbf, 0x9a, 0x58,
            0x2c, 0x3e, 0x75, 0x0b, 0x19, 0xbe, 0x30, 0x68, 0x09, 0x3f,
            0x05, 0x74, 0x2c, 0xbe, 0x29, 0xc8, 0xc0, 0x3e, 0xba, 0x68,
            0xfd, 0xbb, 0xf9, 0xf8, 0x3f, 0x3c, 0x3e, 0xcb, 0x18, 0xbd,
            0x79, 0xa1, 0xde, 0x3d, 0x45, 0x90, 0x9a, 0x3e, 0x99, 0x9f,
            0xc3, 0x3e, 0xac, 0xea, 0x38, 0xbe, 0xab, 0xaf, 0xd1, 0x3e,
            0xa7, 0x60, 0x90, 0xbe, 0x01, 0x09, 0x62, 0xbe, 0x08, 0x4c,
            0x0f, 0xbe, 0x4f, 0x6d, 0x2a, 0xbd, 0xef, 0x28, 0x3f, 0xbe,
            0xd1, 0x66, 0x77, 0x3e, 0x1c, 0x17, 0xbe, 0xbd, 0x53, 0xf0,
            0x85, 0x3e, 0x3f, 0xab, 0xd6, 0x3e, 0xdb, 0x73, 0xd8, 0x3d,
            0xd1, 0x09, 0x2d, 0x3e, 0x31, 0x55, 0xa2, 0x3c, 0x49, 0x94,
            0x4e, 0x3e, 0x7c, 0x30, 0x12, 0x3f, 0xa9, 0x60, 0x7c, 0x3e,
            0xd1, 0xeb, 0x9d, 0xbe, 0x2c, 0xa0, 0x62, 0x3f, 0x6b, 0xab,
            0x1b, 0x3e, 0xd1, 0xd5, 0x6c, 0x3d, 0xfe, 0x36, 0xd7, 0x3d,
            0x82, 0xf2, 0x8b, 0x3d, 0x9d, 0xd5, 0xdf, 0xbe, 0xb2, 0xb3,
            0x63, 0xbd, 0x69, 0xd4, 0x39, 0x3c, 0xb8, 0xe8, 0x95, 0x3e,
            0x2e, 0x14, 0x3d, 0x3f, 0xdb, 0x7d, 0x35, 0xbe, 0x64, 0x8a,
            0x0c, 0x3e, 0x84, 0x6e, 0x3c, 0xbe, 0xd5, 0x5a, 0x64, 0xbe,
            0xb7, 0xa3, 0x03, 0xbf, 0x82, 0xd3, 0x5e, 0xbf, 0xe2, 0xaa,
            0xe3, 0x3e, 0xe6, 0x07, 0x0e, 0x3f, 0x8a, 0xd9, 0x48, 0xbe,
            0x96, 0x76, 0x17, 0x3d, 0xb1, 0x1a, 0x37, 0x3d, 0x2b, 0xc6,
            0xa3, 0xbf, 0x57, 0x3c, 0x10, 0x3e, 0xe3, 0xb5, 0xb4, 0x3e,
            0xbd, 0x0a, 0xca, 0x3e, 0x75, 0x36, 0x04, 0xbe, 0xde, 0xfd,
            0x36, 0x3f, 0x63, 0x81, 0x91, 0x3d, 0xa3, 0x9f, 0x95, 0xbe,
            0x48, 0x9f, 0x84, 0x3e, 0x9e, 0x0e, 0x80, 0xbe, 0x95, 0x1f,
            0xf5, 0xbe, 0xe8, 0xd9, 0x24, 0x3d, 0xdb, 0x88, 0x4f, 0xbd,
            0x03, 0x6a, 0xfe, 0xbd, 0x45, 0x92, 0x0d, 0xbe, 0xf7, 0xfa,
            0x16, 0x3c, 0x2f, 0x4d, 0xff, 0x3c, 0x47, 0x32, 0x1b, 0xbd,
            0x0c, 0xaf, 0xf7, 0xbe, 0x77, 0x2c, 0xfa, 0xbd, 0xa5, 0xe0,
            0x5d, 0x3e, 0xe7, 0x94, 0x1a, 0x3d, 0xc3, 0x86, 0xb3, 0x3e,
            0x68, 0xd7, 0x61, 0x3d, 0x36, 0x62, 0x51, 0x3e, 0xd3, 0xbb,
            0xc6, 0xbe, 0x14, 0xa8, 0xe2, 0x3e, 0x33, 0xb2, 0x2a, 0x3e,
            0x6a, 0xe2, 0x02, 0x3d, 0x65, 0xea, 0x48, 0x3e, 0x13, 0x3d,
            0x59, 0x3e, 0xef, 0x90, 0x80, 0x3e, 0x72, 0x4d, 0xc3, 0xbd,
            0xc4, 0xcd, 0xe2, 0x3d, 0x96, 0xa4, 0x01, 0xbf, 0xd0, 0x3f,
            0x0f, 0xbd, 0x3a, 0x4b, 0xe2, 0x3e, 0xc6, 0x9d, 0x82, 0xbe,
            0x27, 0x88, 0x81, 0x3d, 0xe2, 0xfc, 0x06, 0xbf, 0xc0, 0x19,
            0xfb, 0xbd, 0xb7, 0x05, 0xbf, 0xbe, 0x6b, 0x76, 0xb5, 0xbd,
            0x1e, 0x9b, 0x30, 0x3f, 0x45, 0x3e, 0x76, 0x3e, 0x75, 0xd8,
            0x4b, 0xbd, 0x76, 0x31, 0xe5, 0x3d, 0x93, 0x6e, 0xd3, 0xbe,
            0x93, 0x24, 0x02, 0xbe, 0x93, 0x96, 0xec, 0x3c, 0xca, 0x52,
            0xe8, 0xbd, 0xb1, 0x71, 0x43, 0x3e, 0xac, 0x9e, 0xd8, 0x3e,
            0x77, 0xd1, 0xae, 0x3b, 0x73, 0x95, 0x56, 0x3e, 0x89, 0xb5,
            0x6b, 0x3c, 0xcf, 0xff, 0xf0, 0xbe, 0xda, 0x83, 0xeb, 0xbd,
            0xe3, 0x2d, 0xa8, 0x3e, 0x36, 0x6b, 0x2b, 0xbe, 0x75, 0x31,
            0xe0, 0x3e, 0x21, 0xbb, 0xa9, 0x3e, 0x63, 0xd8, 0xc5, 0xbe,
            0xe8, 0xda, 0x06, 0xbe, 0x93, 0x66, 0x41, 0xbf, 0x52, 0x34,
            0x20, 0xbe, 0x51, 0xc0, 0x15, 0xbd, 0xfa, 0xe0, 0xfe, 0x3e,
            0x46, 0x79, 0xa7, 0xbe, 0xd5, 0x6e, 0x4b, 0xbe, 0x92, 0xbb,
            0xaa, 0xbe, 0x45, 0x16, 0x93, 0xbe, 0xf7, 0x63, 0xa5, 0xbe,
            0xaf, 0x73, 0x87, 0xbe, 0xdc, 0x70, 0xf6, 0xbc, 0x46, 0x5c,
            0x00, 0xbe, 0xd5, 0xf7, 0x8c, 0x3e, 0x73, 0x2b, 0xe7, 0x3d,
            0xca, 0x6e, 0x52, 0x3f, 0xc6, 0xb1, 0x1b, 0x3f, 0xe4, 0xf8,
            0xe2, 0x3d, 0xd1, 0x7e, 0xbc, 0x3d, 0x5b, 0xd1, 0x25, 0xbe,
            0x6f, 0xf5, 0xdf, 0x3d, 0xb4, 0xcd, 0x06, 0xbd, 0x70, 0xdc,
            0x8d, 0xbe, 0x33, 0x38, 0xd5, 0x3e, 0xb4, 0x16, 0x95, 0xbe,
            0x3f, 0x4b, 0x92, 0x3e, 0xd6, 0x4c, 0xfe, 0xbe, 0x1d, 0x40,
            0x80, 0x3e, 0xfb, 0x80, 0x6c, 0x3d, 0x9a, 0x9c, 0xb0, 0x3d,
            0xed, 0x96, 0xc6, 0xbc, 0xf7, 0x20, 0xf5, 0xbe, 0x95, 0x9b,
            0x87, 0xbe, 0x62, 0x82, 0x3a, 0xbe, 0xc5, 0x91, 0xd3, 0xbe,
            0x63, 0x76, 0x82, 0xbe, 0x63, 0xe9, 0xf3, 0x3e, 0xad, 0x6d,
            0xed, 0xbd, 0xf3, 0xdb, 0x6b, 0xbc, 0x7e, 0xbc, 0x47, 0x3e,
            0xab, 0x43, 0x7c, 0xbe, 0x10, 0x4d, 0xcb, 0x3e, 0x3b, 0x05,
            0x61, 0x3f, 0x92, 0xa1, 0x83, 0xbe, 0xc4, 0xe3, 0x3e, 0xbf,
            0xb0, 0x83, 0x5b, 0x3f, 0xcc, 0xfe, 0xfb, 0x3e, 0x84, 0x6b,
            0x93, 0x3e, 0x73, 0xd0, 0x00, 0xbd, 0x46, 0x21, 0xba, 0x3e,
            0x64, 0xde, 0x97, 0xbe, 0xde, 0xef, 0x0d, 0xbf, 0x13, 0x9f,
            0x0e, 0xbf, 0xaf, 0xfb, 0x8e, 0xbe, 0x32, 0x3c, 0x80, 0x3e,
            0x93, 0xd7, 0xf3, 0xbe, 0x88, 0x2e, 0x48, 0x3e, 0xc2, 0x24,
            0xbd, 0xbe, 0x9a, 0x8e, 0xd3, 0x3c, 0xd8, 0x34, 0xe1, 0x3c,
            0x4c, 0xc2, 0x9a, 0xbd, 0x97, 0xc5, 0x8b, 0xbe, 0x0a, 0x37,
            0xb5, 0xbd, 0x93, 0x67, 0xf5, 0xbd, 0xcf, 0xc7, 0x68, 0x3f,
            0x1d, 0xef, 0x49, 0xbe, 0x51, 0xcd, 0x62, 0xbd, 0x36, 0x71,
            0xf5, 0xbe, 0x39, 0xca, 0x24, 0xbf, 0xe0, 0x58, 0xe5, 0xbe,
            0x53, 0x69, 0x12, 0xbd, 0xda, 0x43, 0xfa, 0xbd, 0xb3, 0x0c,
            0xf7, 0xbd, 0xd6, 0x2c, 0xf0, 0x3e, 0x37, 0xbd, 0x94, 0xbb,
            0x79, 0xed, 0x21, 0x3f, 0xbe, 0xe8, 0x26, 0x3f, 0x3d, 0x0b,
            0x8b, 0x3d, 0xde, 0x94, 0x5e, 0xbe, 0x1a, 0x3a, 0xde, 0xbe,
            0x50, 0x8b, 0xf0, 0x3c, 0x2d, 0x70, 0xc3, 0xbd, 0xbc, 0xf7,
            0x11, 0xbe, 0x39, 0xcc, 0x67, 0x3e, 0x3d, 0xe0, 0x2d, 0x3d,
            0xb2, 0x16, 0x12, 0xbe, 0x74, 0x94, 0xa7, 0xbc, 0x3c, 0x1c,
            0x2d, 0x3f, 0x79, 0x72, 0xb5, 0x3e, 0x26, 0x49, 0x00, 0x3e,
            0x10, 0x1c, 0xfc, 0xbd, 0xda, 0x23, 0xb6, 0xbe, 0x32, 0x2c,
            0x01, 0x3f, 0x7c, 0x1d, 0x06, 0xbf, 0x6d, 0x2e, 0x0d, 0xbf,
            0x24, 0x87, 0x3b, 0x3f, 0x9c, 0xc0, 0x9d, 0x3f, 0x86, 0x10,
            0x67, 0x3e, 0xc9, 0x50, 0x02, 0xbf, 0x7f, 0xf6, 0x2e, 0xbd,
            0x65, 0x0d, 0xda, 0x3d, 0x6e, 0x70, 0x51, 0x3e, 0x69, 0x03,
            0x50, 0xbe, 0xc6, 0xf8, 0x4f, 0x3e, 0x41, 0x69, 0x32, 0xbe,
            0x70, 0x43, 0xf1, 0x3e, 0x2d, 0x7d, 0x95, 0x3e, 0x2a, 0xa2,
            0x83, 0xbe, 0xb4, 0xc8, 0x1b, 0xbf, 0xc5, 0x5b, 0xaa, 0xbf,
            0xa9, 0xc6, 0x7a, 0xbd, 0x55, 0x10, 0x2d, 0xbf, 0xba, 0x86,
            0x99, 0x3e, 0x22, 0xee, 0xd6, 0x3d, 0xfb, 0xe0, 0x82, 0xbe,
            0x7b, 0xa5, 0x08, 0x3f, 0xe3, 0xb9, 0x00, 0x3f, 0xdd, 0x2b,
            0x5b, 0xbd, 0x7a, 0xcc, 0x3f, 0xbf, 0x8f, 0x37, 0x4f, 0xbe,
            0x33, 0xc7, 0x18, 0xbe, 0x60, 0x7d, 0x83, 0xbe, 0x43, 0x72,
            0x28, 0x3f, 0xb0, 0x3f, 0x47, 0x3e, 0xb1, 0xe7, 0xaa, 0xbf,
            0x76, 0xb8, 0x55, 0xbf, 0xa7, 0xf6, 0x81, 0xbf, 0xf9, 0xeb,
            0x21, 0x3f, 0x98, 0x2d, 0x5e, 0x3e, 0x9c, 0xb0, 0x2a, 0x3f,
            0x70, 0x4e, 0x6d, 0x3e, 0xc0, 0x5e, 0xa5, 0xbe, 0xf7, 0x22,
            0x9f, 0x3e, 0x20, 0xaa, 0xc6, 0x3c, 0xc1, 0xea, 0x2b, 0x3f,
            0xc7, 0x32, 0x1c, 0xbf, 0x19, 0xa4, 0x78, 0x3e, 0x0f, 0x2f,
            0x1f, 0xbe, 0xa6, 0x55, 0x0e, 0xbf, 0x62, 0xc2, 0xdc, 0xbf,
            0x81, 0x03, 0xd1, 0x3e, 0xdd, 0x00, 0xa9, 0xbe, 0x49, 0xa7,
            0x2d, 0xbe, 0xf7, 0x67, 0x2a, 0xbf, 0x78, 0x6a, 0xa3, 0xbf,
            0xa9, 0xd4, 0xa4, 0x3f, 0x4a, 0xe8, 0x87, 0xbd, 0x59, 0xd2,
            0x2b, 0x3c, 0xe1, 0xf7, 0xa1, 0x3e, 0x43, 0xbc, 0x38, 0x3f,
            0x13, 0x2e, 0x71, 0x3e, 0x0a, 0xe8, 0xc6, 0xbd, 0xb5, 0xa4,
            0x9c, 0xbe, 0x8c, 0x48, 0x86, 0xbe, 0xe6, 0x4c, 0x07, 0xbd,
            0xa3, 0xf6, 0x18, 0xbf, 0xa8, 0x32, 0x47, 0xbf, 0x2a, 0x7b,
            0x1c, 0x3f, 0xeb, 0x50, 0x5b, 0x3f, 0xf2, 0xba, 0xe3, 0xbd,
            0xd3, 0xc2, 0x53, 0xbd, 0x1f, 0x19, 0xbb, 0x3c, 0xa0, 0x45,
            0xa1, 0xbe, 0x13, 0x3d, 0x17, 0x3e, 0xe6, 0x60, 0x1a, 0xbe,
            0xcb, 0xd1, 0x36, 0x3e, 0x9e, 0x3b, 0xb0, 0x3d, 0xeb, 0x70,
            0x52, 0xbe, 0x2e, 0x2b, 0xbd, 0x3f, 0xa6, 0x13, 0x71, 0x3e,
            0xe6, 0x25, 0x4b, 0x3f, 0xa4, 0x25, 0x33, 0xbd, 0x94, 0x98,
            0x06, 0x3f, 0x8c, 0x3b, 0xa1, 0x3e, 0x30, 0x79, 0x87, 0x3e,
            0x83, 0x76, 0xbc, 0xbd, 0xa0, 0x1e, 0x98, 0xbd, 0x73, 0xfe,
            0x97, 0x3e, 0xe5, 0x1e, 0x1e, 0xbf, 0x70, 0xcf, 0x2e, 0xbf,
            0xa1, 0xc3, 0xaf, 0x3f, 0x69, 0xbe, 0x84, 0xbd, 0xd1, 0x80,
            0x78, 0xbe, 0x65, 0x80, 0x27, 0xbe, 0x02, 0x4d, 0x59, 0x3e,
            0x7d, 0xca, 0x13, 0xbf, 0x83, 0x19, 0x5b, 0xbf, 0x21, 0xff,
            0x91, 0xbf, 0xc0, 0x58, 0x43, 0xbc, 0xbf, 0x6d, 0x9c, 0xbe,
            0x45, 0x30, 0xbf, 0xbd, 0xcb, 0x92, 0x98, 0x3f, 0x14, 0xf3,
            0xca, 0x3e, 0xbc, 0xd0, 0xbc, 0x3e, 0xbc, 0x0d, 0x86, 0x3e,
            0x0d, 0x73, 0x35, 0xbd, 0xd9, 0x79, 0xd2, 0xbc, 0xe8, 0x04,
            0xa6, 0x3e, 0x56, 0x10, 0x00, 0xbf, 0xf5, 0xd6, 0x45, 0x3d,
            0xdf, 0xad, 0x0d, 0xbf, 0x3d, 0x68, 0x7f, 0x3e, 0x40, 0xa2,
            0x4b, 0x3f, 0x2c, 0xb3, 0xe4, 0x3d, 0xb3, 0xa5, 0x86, 0xbf,
            0xa2, 0x7a, 0x2b, 0xbf, 0x89, 0x0a, 0x6c, 0xbe, 0x7d, 0xad,
            0x62, 0xbf, 0x4f, 0x1c, 0xb3, 0xbe, 0xe7, 0x64, 0xce, 0x3e,
            0xa4, 0x25, 0xff, 0x3e, 0x40, 0x48, 0xbb, 0xbe, 0xa3, 0x07,
            0xbb, 0x3e, 0x4e, 0xa1, 0x56, 0xbf, 0xca, 0x2a, 0x4a, 0x3e,
            0xe4, 0x9a, 0xa2, 0xbe, 0x2e, 0xe0, 0x88, 0x3f, 0x0b, 0x8e,
            0x40, 0xbf, 0x09, 0x9e, 0xd5, 0xbd, 0x3f, 0xd1, 0x00, 0x3f,
            0x86, 0x63, 0x3f, 0x3e, 0x15, 0x11, 0xf5, 0x3e, 0x8e, 0xd1,
            0xe8, 0xbe, 0xe5, 0x9b, 0x9c, 0x3e, 0x47, 0x7f, 0x68, 0x3e,
            0xcc, 0x08, 0xee, 0xbd, 0x85, 0xe2, 0x1c, 0x3e, 0x80, 0xb8,
            0x30, 0x3e, 0x19, 0x45, 0x14, 0x3d, 0xc3, 0x7e, 0x31, 0xbe,
            0x40, 0x00, 0x45, 0xbe, 0x12, 0x79, 0x94, 0x3e, 0xe3, 0x76,
            0x6d, 0x3c, 0xc8, 0x97, 0xc9, 0xbe, 0x52, 0xcd, 0x84, 0xbe,
            0x28, 0x09, 0x74, 0x3c, 0xe4, 0x3c, 0x0f, 0x3f, 0xd5, 0x30,
            0xcc, 0x3e, 0x83, 0x83, 0x2f, 0xbe, 0x3d, 0xbd, 0x7a, 0x3e,
            0x91, 0xfa, 0x49, 0xbe, 0x73, 0xdb, 0x19, 0x3e, 0x0d, 0xbe,
            0xb8, 0xbe, 0x9f, 0x89, 0x7d, 0xbe, 0xea, 0x2a, 0xb2, 0x3e,
            0xb9, 0x0e, 0x17, 0x3f, 0x7a, 0x15, 0x07, 0x3f, 0xd9, 0x8a,
            0x6d, 0xbe, 0xd3, 0x3d, 0x70, 0x3e, 0x12, 0x3c, 0x27, 0xbe,
            0x65, 0xa4, 0x3a, 0x3e, 0xbd, 0xf0, 0x88, 0xbe, 0xf9, 0xf2,
            0xe2, 0xbe, 0x2c, 0x25, 0x0b, 0x3e, 0x02, 0xc5, 0xe2, 0x3e,
            0x1e, 0xb2, 0x04, 0xbf, 0x49, 0x8d, 0x3e, 0x3e, 0x6d, 0xae,
            0x6a, 0xbe, 0x8c, 0x36, 0xa5, 0x3e, 0x64, 0x2d, 0x0b, 0x3e,
            0x92, 0x99, 0x8e, 0xbe, 0x0c, 0xc1, 0x29, 0xbf, 0x17, 0x06,
            0x58, 0xbe, 0x95, 0x1a, 0xab, 0xbe, 0x60, 0x53, 0x5f, 0x3d,
            0xe1, 0x61, 0x0b, 0xbf, 0xf7, 0xd4, 0x64, 0xbf, 0x3f, 0xee,
            0x48, 0x3e, 0x5c, 0x57, 0xd8, 0x3d, 0x4f, 0x91, 0x6b, 0x3e,
            0xff, 0x2f, 0xe0, 0x3e, 0xd7, 0x5b, 0x50, 0x3e, 0x39, 0x99,
            0x68, 0x3f, 0xf9, 0x24, 0x18, 0xbe, 0xf8, 0x03, 0xc3, 0xbd,
            0xee, 0xf2, 0x6e, 0xbe, 0x30, 0x7e, 0x70, 0xbf, 0x45, 0x9c,
            0xb4, 0x3e, 0x38, 0x13, 0x4b, 0xbe, 0xd5, 0x8d, 0xce, 0xbe,
            0xc4, 0xb8, 0x46, 0xbd, 0x7d, 0x1f, 0xf4, 0x3d, 0x7c, 0xd6,
            0xa4, 0x3e, 0x3f, 0xe5, 0x30, 0xbe, 0xfc, 0x08, 0x35, 0xbe,
            0x1f, 0x48, 0x1b, 0x3e, 0x72, 0x0e, 0xbc, 0x3e, 0xb4, 0x32,
            0x87, 0xbd, 0xfe, 0xee, 0x0d, 0x3f, 0x1b, 0xd6, 0x87, 0x3e,
            0xfa, 0x56, 0x48, 0x3f, 0x7a, 0x40, 0x8b, 0xbd, 0x3d, 0x52,
            0xdc, 0xbe, 0xf4, 0x8a, 0x58, 0x3e, 0x97, 0x20, 0x27, 0xbf,
            0xd9, 0x57, 0xba, 0x3f, 0x7b, 0x33, 0xa1, 0x3f, 0x1b, 0xb6,
            0x57, 0x3f, 0xcb, 0x05, 0x45, 0xbe, 0x6a, 0xc1, 0xe7, 0xbe,
            0xbb, 0x54, 0x7c, 0xbf, 0x27, 0x5b, 0x9b, 0x3e, 0x64, 0x89,
            0x90, 0xbe, 0xe4, 0x29, 0x4f, 0xbf, 0xa2, 0x70, 0x70, 0x3e,
            0x6d, 0xbe, 0x89, 0xbe, 0x67, 0x86, 0x5d, 0xbe, 0x48, 0x0d,
            0x10, 0x3e, 0xb7, 0xa8, 0xe6, 0x3f, 0xde, 0xaf, 0x6b, 0x3e,
            0x07, 0xa8, 0x38, 0x3e, 0xd1, 0x86, 0x43, 0xbb, 0x99, 0x50,
            0x8f, 0x3e, 0x5e, 0xb6, 0x71, 0x3e, 0x45, 0x41, 0x17, 0x3f,
            0xe2, 0x1a, 0x7f, 0x3e, 0x20, 0x52, 0x20, 0xbe, 0x39, 0x54,
            0xd4, 0x3e, 0xf9, 0xf9, 0xde, 0x3e, 0x2a, 0xe1, 0x26, 0x3e,
            0xeb, 0x4c, 0x26, 0xbf, 0x76, 0xe0, 0x38, 0xbd, 0x8f, 0x42,
            0x45, 0xbe, 0x90, 0xe0, 0x23, 0xbf, 0xf5, 0x89, 0xe7, 0x3e,
            0xa6, 0x51, 0xcf, 0x3e, 0x62, 0x9b, 0x12, 0xbe, 0xa7, 0x7f,
            0x85, 0x3e, 0xbd, 0x27, 0x0c, 0x3f, 0x6c, 0xcd, 0x30, 0x3e,
            0x0f, 0x4f, 0xb5, 0xbe, 0xe8, 0xc3, 0xdb, 0xbf, 0xb0, 0x2a,
            0x1b, 0xbf, 0x8d, 0x26, 0x99, 0xbe, 0xa0, 0x29, 0x81, 0xbd,
            0x8d, 0xdb, 0xbc, 0x3d, 0xd0, 0x56, 0x06, 0xbd, 0xc9, 0xc9,
            0xd1, 0xbe, 0x1c, 0xcf, 0x45, 0xbf, 0xb1, 0x92, 0x30, 0xbf,
            0xd0, 0x22, 0x76, 0x3f, 0x48, 0x1f, 0x3a, 0xbd, 0x3b, 0xa4,
            0x02, 0xbf, 0xcc, 0x8d, 0xc3, 0xbe, 0x93, 0xd5, 0xb3, 0x3c,
