#include "tanh_2_8_data.h"

ai_handle ai_tanh_2_8_data_weights_get(void) {

    AI_ALIGNED(4)
    static const ai_u8 s_tanh_2_8_weights[3504] = {
            0xbf, 0xc4, 0x90, 0x42, 0x6a, 0x25, 0x22, 0x3e, 0xcb, 0x4b,
            0xfb, 0x3d, 0xe5, 0x91, 0xef, 0x3d, 0x16, 0xa6, 0xc0, 0x3d,
            0x04, 0xdf, 0xac, 0x3d, 0xe1, 0x2f, 0xdb, 0x3f, 0x83, 0x97,
            0x47, 0x40, 0xee, 0x26, 0x8e, 0xc2, 0x0d, 0x73, 0x31, 0xc3,
            0x1c, 0xff, 0xeb, 0xc2, 0x53, 0x9a, 0xc0, 0xc2, 0x44, 0x34,
            0x07, 0xc3, 0x22, 0xae, 0xb3, 0xc2, 0x9e, 0x23, 0xa7, 0xc2,
            0xa4, 0xab, 0x5b, 0xc2, 0x1a, 0x90, 0xcf, 0xbe, 0x32, 0xfc,
            0xac, 0xbe, 0x63, 0xe5, 0x6a, 0xbe, 0x83, 0x67, 0x1a, 0xbe,
            0x1d, 0x09, 0xb2, 0xbd, 0x47, 0x82, 0x0d, 0xbd, 0x78, 0xe6,
            0x0e, 0x3c, 0x25, 0x87, 0x68, 0x3d, 0x61, 0x92, 0xd7, 0x3d,
            0x69, 0x89, 0x26, 0x3e, 0x36, 0x56, 0x80, 0x3e, 0xc1, 0xee,
            0xa4, 0x3e, 0xec, 0x06, 0xd7, 0x3e, 0x2d, 0x3e, 0xfa, 0x3e,
            0xb7, 0xba, 0x0e, 0x3f, 0x57, 0x56, 0x20, 0x3f, 0x67, 0x66,
            0x58, 0x66, 0x57, 0x44, 0x65, 0x65, 0x46, 0x87, 0x47, 0x65,
            0x77, 0x54, 0x47, 0x56, 0x65, 0x84, 0x83, 0x48, 0x85, 0x44,
            0x67, 0x76, 0x67, 0x45, 0x75, 0x66, 0x56, 0x65, 0x66, 0x56,
            0x67, 0x55, 0x65, 0x76, 0x75, 0x86, 0x84, 0x67, 0x39, 0x75,
            0x57, 0x55, 0x54, 0x36, 0x89, 0x76, 0x55, 0x55, 0x66, 0x65,
            0x55, 0x76, 0x56, 0x38, 0x68, 0x87, 0x63, 0x67, 0x67, 0x66,
            0x55, 0x94, 0x78, 0x56, 0x63, 0x66, 0x75, 0x74, 0x56, 0x47,
            0x84, 0x67, 0x48, 0x88, 0x47, 0x86, 0x64, 0x45, 0x86, 0xa4,
            0x15, 0x65, 0x85, 0x53, 0x85, 0x48, 0x58, 0x54, 0x74, 0x66,
            0x59, 0x37, 0x57, 0x66, 0x74, 0x45, 0x4b, 0x66, 0x55, 0x64,
            0x64, 0x46, 0x76, 0x55, 0x65, 0x57, 0x66, 0x66, 0x66, 0x66,
            0x77, 0x46, 0x65, 0x66, 0x54, 0x85, 0x76, 0x55, 0x65, 0x57,
            0x55, 0x95, 0x55, 0x65, 0x37, 0x46, 0x64, 0x57, 0x57, 0x46,
            0x75, 0x68, 0x56, 0x66, 0x47, 0x73, 0x66, 0x47, 0x55, 0x45,
            0x57, 0x47, 0x65, 0x76, 0x56, 0x57, 0x34, 0x65, 0x84, 0x54,
            0x76, 0x46, 0x66, 0x66, 0x66, 0x57, 0x67, 0x75, 0x58, 0x34,
            0x58, 0x94, 0x36, 0x85, 0x58, 0x53, 0x25, 0x05, 0xf5, 0x46,
            0x66, 0x76, 0x75, 0x75, 0x46, 0x76, 0x97, 0x46, 0x74, 0x56,
            0x58, 0x67, 0x45, 0x55, 0x66, 0x45, 0x77, 0x75, 0x44, 0x84,
            0x66, 0x66, 0x67, 0x66, 0x88, 0x63, 0x63, 0x58, 0x79, 0x76,
            0x43, 0x57, 0x57, 0x45, 0x76, 0x46, 0x86, 0x68, 0x85, 0x38,
            0x66, 0x64, 0x64, 0x56, 0x64, 0x68, 0x75, 0x75, 0x66, 0x44,
            0x56, 0x66, 0x54, 0x85, 0x74, 0x76, 0x66, 0x56, 0x46, 0x65,
            0x66, 0x85, 0x45, 0x66, 0x64, 0x54, 0x47, 0x66, 0x56, 0x46,
            0x55, 0x55, 0x55, 0x77, 0x33, 0x65, 0x58, 0x45, 0x43, 0x66,
            0x84, 0x65, 0x56, 0x67, 0x85, 0x65, 0xd1, 0xbf, 0xe1, 0xbd,
            0x29, 0x3d, 0x41, 0x86, 0x36, 0xbf, 0xc3, 0xc5, 0xb8, 0x3e,
            0x13, 0x49, 0xca, 0x3f, 0x29, 0x89, 0x14, 0x3d, 0xdd, 0x5b,
            0x07, 0x40, 0x78, 0xcf, 0x22, 0xc0, 0x55, 0xb0, 0xcb, 0xbf,
            0x58, 0x50, 0x2c, 0x3f, 0xb1, 0x7e, 0xfd, 0xbe, 0x72, 0x04,
            0x5f, 0x40, 0xc9, 0xa1, 0x10, 0x40, 0x68, 0xb8, 0xb9, 0xbd,
            0xe8, 0x64, 0x96, 0x3f, 0x90, 0xd0, 0x5d, 0x3f, 0xa0, 0x18,
            0xc0, 0xbd, 0xac, 0xff, 0xe1, 0xbf, 0x82, 0x6e, 0x0e, 0x40,
            0x4f, 0x4e, 0xd6, 0x3e, 0x40, 0x7e, 0xc8, 0x3f, 0x20, 0x67,
            0xb8, 0xbf, 0x5b, 0x36, 0x59, 0x3f, 0xb3, 0x01, 0x3d, 0x3f,
            0xd0, 0x28, 0x9b, 0xbe, 0x7a, 0xd4, 0x5a, 0x40, 0x82, 0xc0,
            0x01, 0x3f, 0x61, 0x49, 0xa8, 0x3f, 0x9c, 0xbe, 0x11, 0xbf,
            0x18, 0x9d, 0x2b, 0x3e, 0x79, 0x81, 0xff, 0x3e, 0x15, 0xe8,
            0xbf, 0x3e, 0x08, 0x1f, 0x0d, 0xc0, 0xa4, 0x19, 0xfc, 0x3f,
            0xf1, 0x14, 0x1e, 0x3f, 0x95, 0x53, 0x2d, 0x3e, 0x30, 0xac,
            0x50, 0xc0, 0x0a, 0x3e, 0xdd, 0x3e, 0x32, 0xae, 0x2e, 0xbf,
            0xc8, 0x17, 0x2d, 0x3f, 0x57, 0xac, 0xcf, 0xbf, 0xb5, 0xc2,
            0x8b, 0xbf, 0x37, 0x0f, 0x5d, 0xc0, 0x03, 0x53, 0xa5, 0x3f,
            0x6a, 0x03, 0x3b, 0x3e, 0x83, 0x4f, 0xb8, 0x3f, 0x25, 0x80,
            0xae, 0x3e, 0x4c, 0x37, 0x09, 0xc0, 0x55, 0x23, 0x8e, 0x3f,
            0xa4, 0x82, 0xd4, 0xbf, 0x39, 0xb2, 0x00, 0x3f, 0xf2, 0xce,
            0xbd, 0xbe, 0x6f, 0x5d, 0xf0, 0x3f, 0x85, 0xf5, 0x8e, 0x3f,
            0x99, 0x9d, 0xc3, 0x3f, 0xbc, 0xbe, 0xc0, 0x3c, 0xe9, 0x51,
            0x1b, 0xc0, 0xd7, 0xf6, 0x34, 0xbf, 0x7b, 0xa8, 0x0b, 0x40,
            0xce, 0x66, 0x98, 0x3e, 0xcf, 0xed, 0x4d, 0x3e, 0xfe, 0x32,
            0x49, 0xc0, 0xe7, 0xcb, 0xc0, 0x3f, 0xeb, 0x36, 0xd1, 0xbe,
            0xd5, 0x8a, 0x26, 0xc0, 0x52, 0x77, 0x11, 0xc0, 0xc5, 0xca,
            0xd9, 0xbf, 0x55, 0xda, 0xad, 0xbf, 0x4b, 0x6f, 0x88, 0xbf,
            0xbf, 0x40, 0x41, 0xbf, 0xb1, 0xf2, 0xed, 0xbe, 0x9a, 0x5d,
            0x5a, 0xbe, 0x13, 0x6a, 0x7c, 0x3c, 0x0d, 0x15, 0x83, 0x3e,
            0xc4, 0x43, 0xfd, 0x3e, 0x25, 0x81, 0x45, 0x3f, 0xb2, 0x3a,
            0x89, 0x3f, 0x1c, 0xd5, 0xb2, 0x3f, 0xe8, 0xa2, 0xdc, 0x3f,
            0x7f, 0x7e, 0x0f, 0x40, 0x8b, 0x87, 0x55, 0x57, 0x4b, 0x68,
            0x79, 0x78, 0x59, 0xca, 0x89, 0x7a, 0x69, 0xa9, 0x85, 0x86,
            0x97, 0xa5, 0x57, 0x68, 0x78, 0xac, 0x68, 0x6b, 0x86, 0x89,
            0xa8, 0x95, 0x98, 0x7b, 0x76, 0x97, 0x83, 0x98, 0x97, 0xa6,
            0xa4, 0xaa, 0x4a, 0x98, 0x69, 0x89, 0x95, 0x75, 0x89, 0xdf,
            0x67, 0xa6, 0x68, 0x77, 0x7a, 0x77, 0xb7, 0x77, 0x7a, 0x88,
            0x68, 0x79, 0x8a, 0xa6, 0x8b, 0x65, 0xa9, 0x36, 0xc4, 0x59,
            0x7a, 0x67, 0x96, 0xa6, 0x98, 0x66, 0x7a, 0x75, 0x87, 0x69,
            0x89, 0xa4, 0x95, 0x65, 0x79, 0x74, 0x58, 0x55, 0x87, 0x55,
            0x78, 0xa9, 0x8a, 0x87, 0xb7, 0xa7, 0x78, 0x78, 0x7a, 0x97,
            0x59, 0x78, 0xaa, 0x87, 0xb7, 0x98, 0x97, 0x99, 0x96, 0x8b,
            0x77, 0x57, 0xaa, 0x68, 0x68, 0x77, 0xa8, 0x77, 0x87, 0x97,
            0x97, 0x88, 0x68, 0x97, 0xa8, 0x88, 0x99, 0x87, 0x85, 0xaa,
            0xb9, 0x98, 0xb7, 0x69, 0x88, 0x97, 0x38, 0x78, 0x87, 0x98,
            0x87, 0x87, 0x97, 0xa6, 0x89, 0xaa, 0x66, 0xa8, 0x88, 0x77,
            0x67, 0x84, 0xb8, 0xb5, 0x57, 0xa9, 0x49, 0x85, 0xa8, 0x8a,
            0x59, 0x77, 0x89, 0x87, 0x58, 0x97, 0xba, 0x5a, 0x77, 0x68,
            0x75, 0xe8, 0x6a, 0x68, 0x89, 0x98, 0x75, 0x85, 0x74, 0x78,
            0x75, 0x88, 0x8b, 0x94, 0x7a, 0xa5, 0x76, 0x9a, 0x68, 0x77,
            0x55, 0x76, 0x58, 0x68, 0x67, 0x6a, 0x97, 0x86, 0x8a, 0x88,
            0x95, 0x89, 0xa9, 0x57, 0x6a, 0x98, 0x87, 0x8a, 0x87, 0xa6,
            0x76, 0x77, 0x79, 0x99, 0x78, 0x58, 0x97, 0x96, 0x67, 0x98,
            0x37, 0x79, 0x7a, 0xa6, 0x8c, 0x96, 0x77, 0xa7, 0xaa, 0x87,
            0x76, 0x78, 0x8a, 0x79, 0x77, 0xa6, 0x8a, 0xa6, 0x87, 0x98,
            0x8c, 0x77, 0xaa, 0x78, 0x97, 0x8a, 0x78, 0x8a, 0x7a, 0x69,
            0x98, 0x87, 0xa8, 0x88, 0x77, 0x98, 0xa7, 0x67, 0x87, 0x78,
            0x74, 0x99, 0xa6, 0x5e, 0xb8, 0x65, 0x5b, 0x68, 0xa8, 0x76,
            0x66, 0x79, 0x8a, 0x9b, 0xc9, 0x76, 0x78, 0x56, 0x97, 0x85,
            0x77, 0x6a, 0x9b, 0x99, 0x96, 0x79, 0x96, 0x86, 0xa9, 0x79,
            0x49, 0x77, 0xa6, 0x59, 0x98, 0x7c, 0xaa, 0x78, 0xa9, 0x86,
            0x79, 0x89, 0x88, 0x75, 0x87, 0x89, 0x8a, 0x6a, 0x5b, 0x89,
            0x9a, 0x7a, 0xab, 0x86, 0x98, 0x98, 0x58, 0x77, 0x89, 0x78,
            0x79, 0x76, 0x89, 0x78, 0x99, 0x88, 0x96, 0x78, 0x89, 0x98,
            0x69, 0x68, 0x77, 0x9a, 0xa7, 0x77, 0x87, 0x77, 0x8a, 0x88,
            0x78, 0xaa, 0x99, 0x8a, 0x99, 0x59, 0x76, 0x97, 0x67, 0x97,
            0x67, 0x88, 0x99, 0x98, 0x78, 0x88, 0x7c, 0x76, 0x67, 0x96,
            0x88, 0x78, 0xb8, 0x67, 0x88, 0x87, 0x79, 0x77, 0x87, 0xab,
            0x88, 0x88, 0x6a, 0x87, 0x78, 0x98, 0x77, 0xb7, 0x79, 0x98,
            0x67, 0x98, 0x76, 0x98, 0x78, 0xb7, 0x89, 0x88, 0x78, 0x78,
            0x66, 0x89, 0x97, 0x77, 0x88, 0xa8, 0x88, 0xa7, 0x77, 0x59,
            0x89, 0x7a, 0x87, 0x78, 0x87, 0x87, 0x89, 0x87, 0x88, 0x97,
            0x77, 0x97, 0x49, 0x89, 0x87, 0x8a, 0x76, 0x76, 0x88, 0x89,
            0x86, 0xb7, 0x99, 0x76, 0xa7, 0xb8, 0x48, 0x98, 0xaa, 0xaa,
            0x86, 0xa7, 0x66, 0x99, 0x69, 0xa9, 0x8b, 0x8b, 0x7a, 0x7b,
            0x78, 0x8d, 0x76, 0x88, 0xd9, 0x89, 0x97, 0x86, 0xa7, 0x6c,
            0xb5, 0x68, 0xa8, 0xb6, 0x97, 0xa9, 0x68, 0x87, 0x67, 0x79,
            0x75, 0x76, 0x69, 0x78, 0x8a, 0x99, 0x77, 0xb6, 0x98, 0x98,
            0x65, 0x76, 0xa7, 0x8a, 0x78, 0x79, 0x97, 0x69, 0x97, 0x89,
            0x75, 0x96, 0x99, 0x86, 0x6a, 0x96, 0xb9, 0xba, 0xb7, 0xb8,
            0x48, 0x76, 0x88, 0xa7, 0x79, 0x66, 0x87, 0xda, 0x67, 0x7a,
            0x95, 0xa7, 0x77, 0x77, 0x97, 0x66, 0xa9, 0xa8, 0x79, 0x89,
            0x94, 0xa8, 0x75, 0xb5, 0x69, 0x69, 0xa7, 0xb6, 0x96, 0x55,
            0xca, 0x55, 0xd9, 0x67, 0x8a, 0x8b, 0x79, 0x6a, 0xad, 0xda,
            0x5b, 0xaa, 0x8c, 0x89, 0x37, 0x87, 0x54, 0x7a, 0x9c, 0x69,
            0xd5, 0x6c, 0x36, 0x8a, 0x9a, 0xf3, 0xb7, 0x76, 0x68, 0x98,
            0x89, 0x94, 0x87, 0x88, 0xa8, 0x95, 0x98, 0x98, 0x89, 0x7a,
            0x79, 0x77, 0x76, 0x56, 0x87, 0x47, 0x59, 0x79, 0x89, 0x7b,
            0x89, 0xb7, 0x98, 0x96, 0xb9, 0xb8, 0x68, 0xaa, 0x65, 0x8b,
            0x7a, 0x77, 0x76, 0x77, 0x5b, 0xa8, 0x98, 0x7a, 0xba, 0x76,
            0x77, 0x8a, 0x99, 0x6b, 0xb7, 0x88, 0x99, 0xa5, 0x49, 0xd5,
            0x99, 0xd7, 0xaa, 0x8a, 0x68, 0x96, 0x78, 0xb5, 0x69, 0xa5,
            0x97, 0x79, 0x7b, 0x78, 0x89, 0x8a, 0x78, 0xb6, 0x97, 0xba,
            0x69, 0x99, 0x87, 0x9a, 0x76, 0x94, 0x89, 0x78, 0x77, 0x85,
            0x87, 0xb7, 0x87, 0x54, 0x68, 0x69, 0x49, 0x78, 0x6b, 0x67,
            0x7a, 0x79, 0x65, 0x66, 0x9d, 0x96, 0x58, 0x37, 0x79, 0x36,
            0x67, 0x5a, 0x99, 0x77, 0x99, 0x98, 0xc6, 0x92, 0xbd, 0xa8,
            0x45, 0x79, 0xbb, 0x86, 0xa8, 0x54, 0x78, 0x67, 0x68, 0x7a,
            0x76, 0x62, 0xea, 0x85, 0x99, 0x6a, 0xb8, 0x87, 0x6a, 0xa8,
            0xb8, 0x89, 0x99, 0xa6, 0x57, 0x7c, 0xa9, 0x97, 0x8b, 0xa7,
            0x68, 0x65, 0x97, 0x87, 0x99, 0x59, 0x86, 0x75, 0x87, 0x6a,
            0x96, 0x88, 0x68, 0x7a, 0x9a, 0x87, 0xa6, 0x66, 0x94, 0xb9,
            0x89, 0x99, 0xba, 0x9a, 0x59, 0x9a, 0x7a, 0x98, 0x8a, 0x7b,
            0x8c, 0x69, 0xc4, 0x95, 0x76, 0x95, 0x47, 0x95, 0x88, 0x89,
            0xb6, 0x78, 0x37, 0x98, 0xb4, 0x7b, 0xc6, 0xaa, 0x77, 0x79,
            0x7b, 0x89, 0x87, 0x9b, 0x65, 0x88, 0x7a, 0x87, 0x76, 0x75,
            0x96, 0x99, 0x87, 0xa6, 0xb7, 0x98, 0x88, 0x68, 0xa8, 0x58,
            0x78, 0x6c, 0x89, 0x78, 0x57, 0x86, 0x79, 0x87, 0xba, 0x6a,
            0x58, 0x99, 0x79, 0x77, 0x96, 0xc9, 0xb7, 0x78, 0xa3, 0x87,
            0x89, 0xad, 0x65, 0x96, 0x5a, 0x68, 0x8a, 0x6b, 0x6b, 0xab,
            0x85, 0x49, 0x4a, 0x99, 0x9b, 0xa6, 0xec, 0x89, 0xaa, 0xc5,
            0x66, 0xa8, 0xb7, 0x9a, 0x97, 0x79, 0x6a, 0xb8, 0x78, 0x9a,
            0x87, 0x77, 0x87, 0x97, 0x98, 0x79, 0x78, 0x96, 0x87, 0x78,
            0x68, 0x87, 0x59, 0x89, 0x87, 0xbb, 0x78, 0x89, 0x8a, 0x88,
            0x69, 0x87, 0x97, 0x9a, 0x99, 0x66, 0x98, 0x76, 0x97, 0x7c,
            0xa9, 0x79, 0xa8, 0x96, 0x69, 0x98, 0xa8, 0x88, 0xa7, 0x85,
            0x89, 0x77, 0x79, 0x4a, 0x86, 0x69, 0x99, 0x56, 0x79, 0x9a,
            0x59, 0x9a, 0x77, 0xa9, 0x9a, 0x69, 0x88, 0x6a, 0xa8, 0x47,
            0x57, 0x4c, 0x86, 0x67, 0x47, 0x68, 0xa8, 0x77, 0xbb, 0x97,
            0x86, 0x87, 0x9b, 0xc9, 0x9a, 0xa6, 0xc9, 0x57, 0x97, 0x46,
            0xac, 0x9a, 0x67, 0x79, 0xa6, 0x4a, 0x89, 0x3a, 0xaa, 0x59,
            0x7b, 0x67, 0x87, 0x6d, 0x77, 0x68, 0x26, 0xa7, 0xc8, 0x78,
            0xa7, 0xc8, 0xa4, 0x56, 0x7c, 0x89, 0xca, 0x77, 0xc9, 0x7a,
            0x66, 0x64, 0xb8, 0x8c, 0xc6, 0x7b, 0x57, 0x59, 0x6a, 0x7b,
            0xb8, 0x4b, 0x8c, 0x7b, 0xa8, 0x98, 0x47, 0x7a, 0x95, 0x88,
            0x56, 0xa6, 0xa9, 0x98, 0x6a, 0x49, 0x86, 0x55, 0xb9, 0x45,
            0xb7, 0x65, 0x97, 0x5b, 0xb6, 0x7b, 0xa7, 0xa7, 0x77, 0x8a,
            0x59, 0x68, 0x6a, 0x69, 0x88, 0x77, 0x89, 0xb8, 0x67, 0x89,
            0x68, 0x88, 0x9a, 0x88, 0x96, 0x99, 0x66, 0x85, 0x87, 0x79,
            0x57, 0x77, 0x88, 0x76, 0x98, 0x5b, 0x99, 0x96, 0xa5, 0x85,
            0x68, 0x77, 0xab, 0x4a, 0x98, 0x6a, 0x69, 0x98, 0x95, 0x97,
            0xa8, 0x97, 0x77, 0x87, 0x58, 0x67, 0x86, 0x79, 0x9a, 0x79,
            0x78, 0x76, 0x88, 0x8a, 0x79, 0x99, 0x55, 0x95, 0x54, 0x89,
            0x78, 0xa9, 0x78, 0xaa, 0x69, 0x77, 0x68, 0xab, 0xbc, 0x85,
            0x79, 0x55, 0x28, 0x77, 0xaa, 0x5b, 0x7a, 0x89, 0x3c, 0x76,
            0x8b, 0xa9, 0x87, 0x69, 0xb8, 0x76, 0x66, 0x87, 0x96, 0x77,
            0xbb, 0x67, 0xba, 0x9a, 0x7b, 0x58, 0x47, 0xaa, 0x69, 0x84,
            0x6a, 0x96, 0x55, 0xb7, 0x87, 0x67, 0xab, 0xa6, 0x49, 0x8b,
            0x69, 0x88, 0x98, 0x9a, 0x96, 0x6a, 0x9c, 0xb7, 0x49, 0xac,
            0x74, 0xab, 0x68, 0x58, 0x99, 0x56, 0x85, 0xba, 0x7a, 0xac,
            0xd4, 0x78, 0x98, 0x98, 0x78, 0x86, 0x98, 0xa8, 0x67, 0x78,
            0x9a, 0x98, 0x87, 0x87, 0x89, 0xa9, 0x88, 0x98, 0x7a, 0x87,
            0x99, 0xb7, 0xa7, 0x96, 0x97, 0x86, 0x67, 0x88, 0xaa, 0x85,
            0x78, 0xc8, 0x98, 0x96, 0x78, 0x85, 0xaa, 0x85, 0x69, 0x69,
            0xd8, 0x99, 0xc7, 0x5a, 0x57, 0xb9, 0x9c, 0xab, 0x98, 0xbb,
            0xb9, 0x97, 0x64, 0xb8, 0x97, 0x55, 0x5a, 0x66, 0x8b, 0x88,
            0x54, 0x8b, 0x63, 0x96, 0x89, 0x98, 0x78, 0xa7, 0x7b, 0x79,
            0x58, 0x79, 0xb9, 0x7e, 0xb9, 0x77, 0x59, 0x37, 0x7d, 0x67,
            0xc7, 0x8a, 0x78, 0x7a, 0x76, 0x78, 0x96, 0x86, 0xba, 0xb6,
            0x98, 0x9a, 0x96, 0x8a, 0x65, 0xb5, 0x3a, 0x68, 0x89, 0xb7,
            0x89, 0x6a, 0x78, 0x98, 0x67, 0x76, 0x86, 0x98, 0x98, 0xab,
            0x88, 0x89, 0x7a, 0xaa, 0x79, 0x77, 0xa9, 0xaa, 0x98, 0x36,
            0x77, 0x69, 0x7a, 0x7a, 0x88, 0x88, 0x9a, 0x7a, 0x77, 0x78,
            0x79, 0x89, 0xa8, 0x98, 0x9a, 0x97, 0xb9, 0x88, 0x86, 0x88,
            0x9b, 0x79, 0x77, 0x65, 0xaa, 0x78, 0x83, 0x99, 0xa7, 0xb8,
            0x79, 0x76, 0x88, 0x77, 0x88, 0x86, 0x79, 0x89, 0x89, 0x6a,
            0x98, 0x99, 0x98, 0x86, 0x8a, 0x78, 0x67, 0x68, 0xb9, 0x88,
            0x67, 0x87, 0x9a, 0x89, 0x86, 0x79, 0x7a, 0x96, 0x75, 0x78,
            0xa7, 0x77, 0x77, 0x78, 0x79, 0x8b, 0xa8, 0x87, 0x88, 0x7a,
            0x79, 0x69, 0x88, 0x86, 0x77, 0x67, 0xa7, 0x89, 0x7a, 0xb7,
            0x5b, 0xa9, 0x89, 0x76, 0x67, 0x96, 0x96, 0x88, 0x87, 0x87,
            0xb7, 0x86, 0x56, 0x87, 0x7a, 0x8a, 0xb8, 0x76, 0x88, 0x79,
            0x87, 0x8b, 0x98, 0x76, 0xa6, 0x6b, 0xc9, 0x68, 0x89, 0x79,
            0x7a, 0x97, 0x63, 0x85, 0x98, 0x7a, 0xa8, 0x57, 0x77, 0xb9,
            0x35, 0x4a, 0x9b, 0x97, 0x98, 0xb5, 0x97, 0x62, 0xa7, 0x75,
            0x3d, 0x88, 0x9b, 0x98, 0x77, 0x86, 0x5a, 0xb7, 0x88, 0x79,
            0x79, 0x87, 0xd9, 0xb8, 0xa9, 0x98, 0x89, 0x55, 0xd8, 0x77,
            0x96, 0x54, 0x87, 0x8c, 0xa9, 0x98, 0x89, 0x68, 0x69, 0xb8,
            0x45, 0x75, 0x6a, 0xa6, 0x95, 0x97, 0xc5, 0x7a, 0x9a, 0x69,
            0x97, 0x99, 0x87, 0x79, 0x86, 0x78, 0xaa, 0x79, 0x79, 0x67,
            0x9a, 0xa7, 0x97, 0x97, 0x69, 0xa6, 0x97, 0x99, 0x75, 0x77,
            0x86, 0x59, 0x89, 0xa9, 0xb7, 0x87, 0x49, 0x76, 0x88, 0x97,
            0x79, 0x98, 0xa9, 0xb8, 0x69, 0x5d, 0xdb, 0x76, 0x49, 0x75,
            0x97, 0x79, 0xe9, 0x98, 0x99, 0xa9, 0x7a, 0xa9, 0x58, 0x75,
            0xaa, 0x79, 0xa9, 0x62, 0x67, 0x88, 0x86, 0x55, 0xc8, 0x66,
            0x87, 0x58, 0x8a, 0x87, 0x77, 0xa9, 0x67, 0x7a, 0x76, 0x75,
            0x99, 0x95, 0x77, 0x79, 0x77, 0x89, 0x98, 0xc5, 0x98, 0x86,
            0x9a, 0x77, 0x86, 0x68, 0x89, 0x97, 0x79, 0x95, 0x98, 0x56,
            0x88, 0x88, 0xa9, 0x96, 0x56, 0xa9, 0x79, 0x9a, 0xb8, 0x6b,
            0x99, 0x76, 0x89, 0x9a, 0x88, 0x9a, 0xb9, 0x88, 0xa5, 0x54,
            0x89, 0x67, 0x97, 0xb9, 0x97, 0x7b, 0x66, 0x78, 0xa7, 0x57,
            0xa5, 0x69, 0x6a, 0x85, 0xba, 0x8a, 0x79, 0x97, 0x97, 0x98,
            0x87, 0x69, 0xa8, 0x96, 0x97, 0x88, 0x88, 0x87, 0x89, 0x87,
            0x89, 0x94, 0xa8, 0x88, 0x98, 0x68, 0xa7, 0x98, 0x79, 0x97,
            0x98, 0x79, 0x68, 0x78, 0x88, 0x88, 0x88, 0x87, 0x79, 0x89,
            0x6a, 0x88, 0x6a, 0x8a, 0x8b, 0x97, 0x5b, 0xab, 0x86, 0x97,
            0x59, 0x77, 0x98, 0x75, 0x9c, 0x55, 0x94, 0x8b, 0x58, 0xb4,
            0x99, 0x36, 0x58, 0x89, 0xa7, 0x87, 0x69, 0xa9, 0x7b, 0xc9,
            0xa6, 0x88, 0x42, 0xaa, 0xad, 0xa9, 0x95, 0x88, 0x4a, 0x49,
            0x98, 0x54, 0x58, 0xf7, 0x74, 0x97, 0x3c, 0x66, 0x7a, 0x99,
            0xba, 0x3a, 0x98, 0x36, 0x77, 0x69, 0x39, 0x9b, 0x56, 0x9a,
            0xa9, 0x79, 0xd9, 0x98, 0x8b, 0x8a, 0x78, 0x9b, 0x96, 0x67,
            0x84, 0x99, 0x97, 0x86, 0x87, 0x66, 0x58, 0x6a, 0x9a, 0x66,
            0x99, 0xb5, 0xca, 0x78, 0x6b, 0x65, 0xba, 0xa9, 0xba, 0x78,
            0x67, 0x7b, 0x8d, 0x48, 0x88, 0x98, 0x88, 0x79, 0xc7, 0x66,
            0xa9, 0x97, 0xbb, 0x57, 0x78, 0x66, 0xc8, 0x89, 0x94, 0x63,
            0xc7, 0x55, 0x87, 0xab, 0xab, 0x7a, 0x78, 0x5a, 0x96, 0x79,
            0x39, 0xa9, 0x4a, 0x66, 0xc9, 0x95, 0x78, 0x7a, 0xa9, 0x9a,
            0xa9, 0x89, 0x96, 0x77, 0x98, 0x98, 0x88, 0x77, 0xa7, 0x87,
            0x89, 0x77, 0x88, 0x86, 0xa7, 0x78, 0xa8, 0x87, 0x99, 0x68,
            0x87, 0x77, 0x89, 0x77, 0x77, 0x78, 0xba, 0x6a, 0x78, 0x87,
            0x89, 0x67, 0x95, 0x79, 0x98, 0xc7, 0x68, 0x89, 0x78, 0x86,
            0x89, 0x78, 0x97, 0x35, 0x28, 0x38, 0x8b, 0x3c, 0xdb, 0xce,
            0x8b, 0x69, 0x85, 0xa9, 0x77, 0x97, 0x98, 0x67, 0xca, 0x48,
            0xaa, 0x9a, 0x8a, 0x89, 0x84, 0xaa, 0xa9, 0x57, 0x68, 0x9b,
            0x88, 0x7a, 0x57, 0xb5, 0x86, 0x59, 0x56, 0x96, 0xb8, 0x67,
            0x95, 0x8a, 0x77, 0xa8, 0xa8, 0x94, 0xb6, 0x78, 0x97, 0x68,
            0x88, 0x98, 0x88, 0xa6, 0x96, 0xc7, 0x7b, 0x8c, 0x7a, 0x98,
            0xa9, 0x66, 0xa6, 0x8a, 0xa7, 0x99, 0x88, 0x67, 0x88, 0x96,
            0x99, 0x58, 0xc8, 0x75, 0x78, 0x5a, 0x94, 0x79, 0x88, 0x79,
            0x98, 0x7c, 0x99, 0x6b, 0x67, 0x69, 0x66, 0x69, 0x98, 0xa4,
            0x79, 0x78, 0xb7, 0x6a, 0x9a, 0x98, 0x27, 0x98, 0x89, 0x87,
            0x96, 0xbc, 0xa9, 0x77, 0x87, 0x89, 0x69, 0x69, 0xb8, 0x67,
            0x68, 0x89, 0xb7, 0x69, 0x84, 0xb8, 0x69, 0x66, 0x47, 0x36,
            0x88, 0xa9, 0x28, 0x88, 0xb5, 0x58, 0x68, 0x97, 0x89, 0x9b,
            0x89, 0x67, 0xb7, 0x68, 0x76, 0x69, 0xa8, 0x68, 0x58, 0x8a,
            0xb8, 0x36, 0x88, 0x98, 0x47, 0x76, 0x7a, 0x86, 0x9a, 0x78,
            0x7b, 0xb5, 0x78, 0x8b, 0x76, 0xb8, 0x0b, 0x5b, 0xa9, 0x69,
            0x87, 0x97, 0xb7, 0x65, 0x7a, 0x66, 0x76, 0xa6, 0xf7, 0xa3,
            0x85, 0x64, 0x97, 0x88, 0x64, 0x78, 0x76, 0x68, 0x46, 0x45,
            0xc6, 0x8a, 0x85, 0x57, 0xb9, 0x87, 0xbb, 0x88, 0xa8, 0x87,
            0x89, 0x86, 0x98, 0x77, 0x78, 0x76, 0xa8, 0x77, 0x78, 0x88,
            0x88, 0x89, 0x8a, 0x67, 0xa8, 0x87, 0x69, 0x78, 0x87, 0x79,
            0x9a, 0x79, 0x78, 0x88, 0x66, 0x68, 0x99, 0xa9, 0xb7, 0x6a,
            0x68, 0xb9, 0x95, 0x8a, 0x66, 0x98, 0x77, 0x76, 0x69, 0x9c,
            0x56, 0xba, 0x77, 0x97, 0x88, 0xa9, 0x96, 0x48, 0xd6, 0x89,
            0x57, 0xaa, 0x58, 0x97, 0xc8, 0x49, 0xbc, 0x89, 0x86, 0x5b,
            0xb6, 0x66, 0x7b, 0x89, 0x76, 0x7b, 0x78, 0x79, 0x97, 0x55,
            0xba, 0x66, 0xa5, 0x56, 0x87, 0xa3, 0xa7, 0x55, 0xa6, 0x6a,
            0x47, 0x68, 0x56, 0x99, 0x6a, 0x8a, 0x89, 0x79, 0x97, 0x96,
            0x88, 0xab, 0xb9, 0x97, 0x68, 0x87, 0x98, 0x67, 0x89, 0x78,
            0x96, 0x64, 0x69, 0x88, 0x89, 0xa8, 0x98, 0x99, 0x99, 0x97,
            0x67, 0xa7, 0xa9, 0x86, 0x79, 0x78, 0xaa, 0x87, 0x78, 0xa9,
            0x97, 0xb7, 0x56, 0x6b, 0x98, 0x99, 0x38, 0x89, 0x75, 0x78,
            0xa9, 0x47, 0x87, 0xa7, 0x79, 0x64, 0x55, 0x9c, 0xc6, 0x89,
            0xaa, 0xa7, 0x79, 0x89, 0x7a, 0x6a, 0x58, 0x9a, 0x75, 0xa7,
            0x68, 0xa9, 0x68, 0xf0, 0x04, 0x40, 0x80, 0x01, 0x3a, 0x3f,
            0x99, 0x06, 0x0f, 0x3f, 0xff, 0xde, 0xa6, 0x3d, 0x62, 0x05,
            0xe5, 0xbe, 0x3b, 0xa5, 0xcb, 0xbf, 0x13, 0xf6, 0x98, 0xbe,
            0xbe, 0xe4, 0x80, 0xbf, 0x5f, 0x66, 0x5a, 0xbe, 0xc0, 0x49,
            0x5a, 0xbf, 0xda, 0x70, 0x74, 0xbe, 0x06, 0xd6, 0x39, 0x3f,
            0x77, 0x94, 0xbf, 0x3d, 0x07, 0x64, 0xca, 0xbd, 0xef, 0x5a,
            0xbe, 0x3e, 0xd2, 0x5d, 0x83, 0xbe, 0x00, 0xbc, 0x52, 0x3f,
            0xcb, 0xf1, 0xcf, 0xbe, 0xa5, 0xa7, 0x2b, 0x3f, 0x63, 0x56,
            0x59, 0xbe, 0x97, 0x27, 0x8e, 0xbf, 0xdf, 0xb6, 0x0f, 0x3e,
            0xa0, 0x47, 0xf0, 0xbd, 0x47, 0x9d, 0xf5, 0xbd, 0xff, 0xe5,
            0x89, 0x3e, 0x59, 0xca, 0x5e, 0xbe, 0xb4, 0xe6, 0x48, 0xbf,
            0xfc, 0x61, 0x56, 0xbf, 0x52, 0x69, 0xf7, 0x3c, 0xa0, 0x9a,
            0x0b, 0xbf, 0xbb, 0x74, 0x9d, 0x3c, 0x68, 0x5c, 0xf7, 0x3e,
            0x7b, 0x4d, 0xad, 0x3e, 0x2e, 0x25, 0x8a, 0x3f, 0x3f, 0xf7,
            0x05, 0xbe, 0x9e, 0x5d, 0x2d, 0x3f, 0xa1, 0x35, 0xb5, 0x3f,
            0x5a, 0xde, 0xd6, 0x3d, 0xd9, 0x23, 0x60, 0xbe, 0x5a, 0x51,
            0x35, 0xbf, 0x15, 0x78, 0x53, 0x3d, 0x17, 0x33, 0x6a, 0xbf,
            0x1b, 0x88, 0xcf, 0xbf, 0x1b, 0x26, 0x00, 0xbf, 0x0e, 0x3d,
            0x8f, 0xbf, 0xba, 0x59, 0xca, 0xbe, 0xe6, 0x61, 0x52, 0xbf,
            0x35, 0x7e, 0x49, 0xbf, 0x01, 0x43, 0xa9, 0x3e, 0x86, 0x44,
            0x8c, 0xbf, 0xca, 0x70, 0xba, 0xbf, 0x94, 0x8a, 0x66, 0xbf,
            0xc9, 0x94, 0x09, 0xbf, 0x9c, 0x54, 0x92, 0xbf, 0xd9, 0x2a,
            0x46, 0x3f, 0x4d, 0x8c, 0x44, 0xbf, 0x2e, 0x5d, 0xa3, 0x3f,
            0xb9, 0x06, 0x01, 0x3f, 0x6e, 0x7b, 0xea, 0xbc, 0xb5, 0x4c,
            0xd0, 0xbe, 0xd9, 0x14, 0xb6, 0xbd, 0xa1, 0x5d, 0x67, 0xbe,
            0xaa, 0xe8, 0x0b, 0x3f, 0xcc, 0x45, 0x45, 0xbe, 0xd7, 0x8a,
            0x02, 0xc0, 0x94, 0x11, 0xe6, 0xbf, 0x19, 0x9a, 0xd2, 0xbf,
            0x09, 0xb6, 0x9c, 0xbf, 0xc4, 0xf1, 0x75, 0xbf, 0x10, 0xca,
            0x26, 0xbf, 0x92, 0xfe, 0xdb, 0xbe, 0xc3, 0x24, 0x63, 0xbe,
            0x41, 0x5d, 0x47, 0xbd, 0x4c, 0x58, 0x05, 0x3e, 0xbd, 0xb3,
            0xb5, 0x3e, 0xba, 0x33, 0x11, 0x3f, 0x34, 0x27, 0x49, 0x3f,
            0xf4, 0xee, 0x8f, 0x3f, 0xf4, 0x20, 0xae, 0x3f, 0x42, 0x1a,
            0xca, 0x3f, 0xaa, 0x98, 0x89, 0x99, 0x77, 0x97, 0x78, 0x95,
            0x78, 0x89, 0x89, 0x97, 0x76, 0x66, 0xa7, 0x98, 0xa8, 0x58,
            0xa9, 0x88, 0x79, 0x79, 0xa6, 0x89, 0x86, 0x87, 0xaa, 0x88,
            0x77, 0x69, 0x78, 0xa7, 0x68, 0x4a, 0x9d, 0xa9, 0xd8, 0x79,
            0x8c, 0xc8, 0x9c, 0x04, 0xba, 0x98, 0x9c, 0x8a, 0x7b, 0x3c,
            0x56, 0x8a, 0xb7, 0xc9, 0x88, 0xc8, 0x8c, 0x9d, 0x69, 0x96,
            0xa4, 0x88, 0x5a, 0xcb, 0x7d, 0x86, 0x78, 0x96, 0xdd, 0xb8,
            0xa9, 0xa9, 0x89, 0xc9, 0x4b, 0xd6, 0xa8, 0x76, 0x97, 0xbf,
            0xa6, 0x99, 0xba, 0xb9, 0x4c, 0xca, 0x5a, 0xfb, 0xb5, 0x7a,
            0xba, 0x89, 0xa3, 0xe7, 0x99, 0x27, 0x46, 0x9e, 0x65, 0x77,
            0x85, 0xb6, 0xa6, 0x5b, 0x99, 0x68, 0xa6, 0xa8, 0x84, 0x7a,
            0xa7, 0x88, 0x8a, 0x89, 0x86, 0xb7, 0x64, 0x7a, 0xd8, 0xc8,
            0x66, 0x8b, 0x8b, 0x8b, 0x9b, 0xb9, 0x77, 0x88, 0xab, 0x3a,
            0xdc, 0xaa, 0xa5, 0x8c, 0xa9, 0x8b, 0x55, 0x95, 0x5b, 0x7b,
            0xb6, 0x86, 0x7a, 0xc9, 0x76, 0x89, 0x9b, 0x6a, 0x95, 0xe5,
            0x8c, 0x36, 0x78, 0xc8, 0x5b, 0xaa, 0x4a, 0x6c, 0xc8, 0xa3,
            0x9b, 0xe5, 0x97, 0x87, 0x86, 0x87, 0x87, 0xa6, 0xa8, 0x7a,
            0x96, 0x98, 0x68, 0x7a, 0x99, 0x77, 0x99, 0x77, 0x69, 0xb8,
            0x98, 0x8a, 0x97, 0x89, 0x9a, 0x68, 0x8a, 0x76, 0xc8, 0x87,
            0x6a, 0x99, 0xa7, 0x78, 0x88, 0x89, 0x99, 0x99, 0x88, 0x89,
            0x88, 0x98, 0x88, 0x88, 0xa8, 0x88, 0x88, 0x99, 0x88, 0x99,
            0x87, 0x89, 0x88, 0x98, 0x88, 0x98, 0x38, 0x9b, 0x88, 0x99,
            0x79, 0x89, 0x88, 0x88, 0x89, 0x77, 0x89, 0xa8, 0x7b, 0x78,
            0x77, 0x86, 0xa9, 0x8a, 0x86, 0xa6, 0x99, 0x89, 0x97, 0x85,
            0xa9, 0xa7, 0x89, 0x77, 0xaa, 0x89, 0x68, 0x99, 0xb8, 0x99,
            0xa7, 0x69, 0x96, 0xa7, 0x77, 0x5a, 0x97, 0x79, 0x15, 0xc4,
            0x14, 0x3e, 0xfd, 0x0a, 0xca, 0xbf, 0x59, 0x00, 0xa7, 0xbf,
            0x86, 0xf2, 0xac, 0xbf, 0x2f, 0xff, 0x43, 0x3f, 0x6a, 0x13,
            0x11, 0xbe, 0x55, 0x23, 0xb0, 0xbd, 0x8c, 0xa3, 0x88, 0xbe,
            0x46, 0xfb, 0x79, 0xbe, 0xdd, 0x81, 0x2a, 0xc0, 0xe1, 0x51,
            0x6f, 0xc0, 0x43, 0x99, 0xc4, 0xbf, 0xcc, 0x6a, 0x0b, 0xbf,
            0xe3, 0x40, 0x9d, 0xbf, 0xfa, 0xc6, 0x42, 0xc1, 0x0d, 0x07,
            0x6d, 0x3d, 0x2a, 0xf5, 0x7b, 0x3e, 0xd8, 0x96, 0x1e, 0xbf,
            0x9f, 0xc3, 0x2d, 0xbe, 0x69, 0xfd, 0xd4, 0xbe, 0xc8, 0x58,
            0xf8, 0xbd, 0x28, 0x36, 0x20, 0x3e, 0x58, 0xdd, 0x01, 0xc0,
            0xf5, 0x30, 0xd0, 0x3d, 0x86, 0xcb, 0x0c, 0x42, 0x56, 0x1c,
            0x9d, 0xc1, 0x95, 0x35, 0x9c, 0xc1, 0xa5, 0xa9, 0xa6, 0xc1,
            0x4f, 0x47, 0x93, 0x41, 0x56, 0xef, 0x81, 0x42, 0x5b, 0x47,
            0x61, 0xc2, 0xcc, 0xa2, 0x0f, 0xc1, 0x4e, 0xc3, 0xbc,
            0x42, 0xf8, 0x35, 0x96, 0xc2, 0x47, 0x15, 0x98, 0xc2,
            0xa1, 0x3a, 0x97, 0xc2, 0xe7, 0xb7, 0xae, 0xc2, 0xce,
            0x36, 0xee, 0x42, 0x5b, 0xa8, 0xc9, 0xc2, 0xa5, 0xb9,
            0xbc, 0x42, 0xe3, 0xcf, 0x98, 0x40, 0xd6, 0x98, 0x9b,
            0x3f, 0x60, 0xd1, 0x96, 0x41, 0x2e, 0x8e, 0x96, 0x42
    };

    return AI_HANDLE_PTR(s_tanh_2_8_weights);

}

